{
  "version": "1.0",
  "truncation": null,
  "padding": null,
  "added_tokens": [
    {
      "id": 0,
      "content": "\u0000",
      "single_word": false,
      "lstrip": false,
      "rstrip": false,
      "normalized": false,
      "special": true
    },
    {
      "id": 1,
      "content": "\u0001",
      "single_word": false,
      "lstrip": false,
      "rstrip": false,
      "normalized": false,
      "special": true
    },
    {
      "id": 2,
      "content": "\u0002",
      "single_word": false,
      "lstrip": false,
      "rstrip": false,
      "normalized": false,
      "special": true
    },
    {
      "id": 3,
      "content": "\u0003",
      "single_word": false,
      "lstrip": false,
      "rstrip": false,
      "normalized": false,
      "special": true
    },
    {
      "id": 4,
      "content": "\u0004",
      "single_word": false,
      "lstrip": false,
      "rstrip": false,
      "normalized": false,
      "special": true
    }
  ],
  "normalizer": null,
  "pre_tokenizer": {
    "type": "Sequence",
    "pretokenizers": [
      {
        "type": "Split",
        "pattern": {
          "Regex": "\\d"
        },
        "behavior": "Isolated",
        "invert": false
      },
      {
        "type": "ByteLevel",
        "add_prefix_space": false,
        "trim_offsets": true,
        "use_regex": true
      }
    ]
  },
  "post_processor": null,
  "decoder": {
    "type": "ByteLevel",
    "add_prefix_space": true,
    "trim_offsets": true,
    "use_regex": true
  },
  "model": {
    "type": "BPE",
    "dropout": null,
    "unk_token": null,
    "continuing_subword_prefix": null,
    "end_of_word_suffix": null,
    "fuse_unk": false,
    "byte_fallback": false,
    "ignore_merges": false,
    "vocab": {
      "\u0000": 0,
      "\u0001": 1,
      "\u0002": 2,
      "\u0003": 3,
      "\u0004": 4,
      "!": 5,
      "\"": 6,
      "#": 7,
      "$": 8,
      "%": 9,
      "&": 10,
      "'": 11,
      "(": 12,
      ")": 13,
      "*": 14,
      "+": 15,
      ",": 16,
      "-": 17,
      ".": 18,
      "/": 19,
      "0": 20,
      "1": 21,
      "2": 22,
      "3": 23,
      "4": 24,
      "5": 25,
      "6": 26,
      "7": 27,
      "8": 28,
      "9": 29,
      ":": 30,
      ";": 31,
      "<": 32,
      "=": 33,
      ">": 34,
      "?": 35,
      "@": 36,
      "A": 37,
      "B": 38,
      "C": 39,
      "D": 40,
      "E": 41,
      "F": 42,
      "G": 43,
      "H": 44,
      "I": 45,
      "J": 46,
      "K": 47,
      "L": 48,
      "M": 49,
      "N": 50,
      "O": 51,
      "P": 52,
      "Q": 53,
      "R": 54,
      "S": 55,
      "T": 56,
      "U": 57,
      "V": 58,
      "W": 59,
      "X": 60,
      "Y": 61,
      "Z": 62,
      "[": 63,
      "\\": 64,
      "]": 65,
      "^": 66,
      "_": 67,
      "`": 68,
      "a": 69,
      "b": 70,
      "c": 71,
      "d": 72,
      "e": 73,
      "f": 74,
      "g": 75,
      "h": 76,
      "i": 77,
      "j": 78,
      "k": 79,
      "l": 80,
      "m": 81,
      "n": 82,
      "o": 83,
      "p": 84,
      "q": 85,
      "r": 86,
      "s": 87,
      "t": 88,
      "u": 89,
      "v": 90,
      "w": 91,
      "x": 92,
      "y": 93,
      "z": 94,
      "{": 95,
      "|": 96,
      "}": 97,
      "~": 98,
      "¡": 99,
      "¢": 100,
      "£": 101,
      "¤": 102,
      "¥": 103,
      "¦": 104,
      "§": 105,
      "¨": 106,
      "©": 107,
      "ª": 108,
      "«": 109,
      "¬": 110,
      "®": 111,
      "¯": 112,
      "°": 113,
      "±": 114,
      "²": 115,
      "³": 116,
      "´": 117,
      "µ": 118,
      "¶": 119,
      "·": 120,
      "¸": 121,
      "¹": 122,
      "º": 123,
      "»": 124,
      "¼": 125,
      "½": 126,
      "¾": 127,
      "¿": 128,
      "À": 129,
      "Á": 130,
      "Â": 131,
      "Ã": 132,
      "Ä": 133,
      "Å": 134,
      "Æ": 135,
      "Ç": 136,
      "È": 137,
      "É": 138,
      "Ê": 139,
      "Ë": 140,
      "Ì": 141,
      "Í": 142,
      "Î": 143,
      "Ï": 144,
      "Ð": 145,
      "Ñ": 146,
      "Ò": 147,
      "Ó": 148,
      "Ô": 149,
      "Õ": 150,
      "Ö": 151,
      "×": 152,
      "Ø": 153,
      "Ù": 154,
      "Ú": 155,
      "Û": 156,
      "Ü": 157,
      "Ý": 158,
      "Þ": 159,
      "ß": 160,
      "à": 161,
      "á": 162,
      "â": 163,
      "ã": 164,
      "ä": 165,
      "å": 166,
      "æ": 167,
      "ç": 168,
      "è": 169,
      "é": 170,
      "ê": 171,
      "ë": 172,
      "ì": 173,
      "í": 174,
      "î": 175,
      "ï": 176,
      "ð": 177,
      "ñ": 178,
      "ò": 179,
      "ó": 180,
      "ô": 181,
      "õ": 182,
      "ö": 183,
      "÷": 184,
      "ø": 185,
      "ù": 186,
      "ú": 187,
      "û": 188,
      "ü": 189,
      "ý": 190,
      "þ": 191,
      "ÿ": 192,
      "Ā": 193,
      "ā": 194,
      "Ă": 195,
      "ă": 196,
      "Ą": 197,
      "ą": 198,
      "Ć": 199,
      "ć": 200,
      "Ĉ": 201,
      "ĉ": 202,
      "Ċ": 203,
      "ċ": 204,
      "Č": 205,
      "č": 206,
      "Ď": 207,
      "ď": 208,
      "Đ": 209,
      "đ": 210,
      "Ē": 211,
      "ē": 212,
      "Ĕ": 213,
      "ĕ": 214,
      "Ė": 215,
      "ė": 216,
      "Ę": 217,
      "ę": 218,
      "Ě": 219,
      "ě": 220,
      "Ĝ": 221,
      "ĝ": 222,
      "Ğ": 223,
      "ğ": 224,
      "Ġ": 225,
      "ġ": 226,
      "Ģ": 227,
      "ģ": 228,
      "Ĥ": 229,
      "ĥ": 230,
      "Ħ": 231,
      "ħ": 232,
      "Ĩ": 233,
      "ĩ": 234,
      "Ī": 235,
      "ī": 236,
      "Ĭ": 237,
      "ĭ": 238,
      "Į": 239,
      "į": 240,
      "İ": 241,
      "ı": 242,
      "Ĳ": 243,
      "ĳ": 244,
      "Ĵ": 245,
      "ĵ": 246,
      "Ķ": 247,
      "ķ": 248,
      "ĸ": 249,
      "Ĺ": 250,
      "ĺ": 251,
      "Ļ": 252,
      "ļ": 253,
      "Ľ": 254,
      "ľ": 255,
      "Ŀ": 256,
      "ŀ": 257,
      "Ł": 258,
      "ł": 259,
      "Ń": 260,
      "Ġt": 261,
      "he": 262,
      "Ġa": 263,
      "in": 264,
      "ĠĠ": 265,
      "re": 266,
      "Ġthe": 267,
      "on": 268,
      "er": 269,
      "Ġs": 270,
      "at": 271,
      "Ġo": 272,
      "en": 273,
      "Ġw": 274,
      "Ġc": 275,
      "is": 276,
      "an": 277,
      "es": 278,
      "or": 279,
      "it": 280,
      "ed": 281,
      "Ġf": 282,
      "al": 283,
      "Ġan": 284,
      "Ġb": 285,
      "Ġp": 286,
      "Ġof": 287,
      "ar": 288,
      "ing": 289,
      "Ġin": 290,
      "ou": 291,
      "Ġm": 292,
      "Ġand": 293,
      "Ġto": 294,
      "Ġd": 295,
      "ic": 296,
      "ion": 297,
      "ĠĠĠĠ": 298,
      "le": 299,
      "as": 300,
      "ro": 301,
      "Ġh": 302,
      "Ġ,": 303,
      "Ġth": 304,
      "ent": 305,
      "Ġre": 306,
      "el": 307,
      "ct": 308,
      "Ġn": 309,
      "st": 310,
      "Ġe": 311,
      "il": 312,
      "Ġl": 313,
      "Ġ.": 314,
      "om": 315,
      "ĠT": 316,
      "et": 317,
      "am": 318,
      "im": 319,
      "ot": 320,
      "id": 321,
      "Ġis": 322,
      "Ġg": 323,
      "ve": 324,
      "ĠA": 325,
      "ĠS": 326,
      "ol": 327,
      "ut": 328,
      "Ġ=": 329,
      "ce": 330,
      "ĠI": 331,
      "us": 332,
      "ur": 333,
      "ly": 334,
      "ig": 335,
      "ow": 336,
      "Ġfor": 337,
      "ad": 338,
      "Ġbe": 339,
      "ation": 340,
      "ch": 341,
      "Ġon": 342,
      "ĠC": 343,
      "un": 344,
      "ver": 345,
      "Ġst": 346,
      "Ġthat": 347,
      "ir": 348,
      "ay": 349,
      "ĠĠĠ": 350,
      "Ġas": 351,
      "ith": 352,
      "ul": 353,
      "Ġy": 354,
      "ra": 355,
      "Ġ(": 356,
      "Ġ\"": 357,
      "ĠThe": 358,
      "ĠM": 359,
      "ĠĊ": 360,
      "se": 361,
      "Ġwith": 362,
      "her": 363,
      "Ġcon": 364,
      "if": 365,
      "um": 366,
      "ter": 367,
      "ĠB": 368,
      "Ġit": 369,
      "Ġwh": 370,
      "âĢ": 371,
      "Ġal": 372,
      "Ġwas": 373,
      "od": 374,
      "qu": 375,
      "ĠP": 376,
      "ge": 377,
      "Ġpro": 378,
      "th": 379,
      "ĠH": 380,
      "ist": 381,
      "ĠĠĠĠĠĠĠĠ": 382,
      "Ġ'": 383,
      "ri": 384,
      "Ġor": 385,
      "Ġyou": 386,
      "Ġde": 387,
      "ers": 388,
      "ere": 389,
      "ate": 390,
      "est": 391,
      "and": 392,
      "Ġhe": 393,
      "Ġby": 394,
      "Ġv": 395,
      "ĠW": 396,
      "ac": 397,
      "Ġare": 398,
      "pe": 399,
      "ore": 400,
      "ĠD": 401,
      "Ġex": 402,
      "ab": 403,
      "ĠF": 404,
      "ĠR": 405,
      "em": 406,
      "Ġat": 407,
      "Ġcom": 408,
      "rom": 409,
      "ain": 410,
      "os": 411,
      "res": 412,
      "oun": 413,
      "ld": 414,
      "Ġ@": 415,
      "igh": 416,
      "Ġse": 417,
      "iv": 418,
      "ill": 419,
      "ess": 420,
      "Ġr": 421,
      "ke": 422,
      "op": 423,
      "Ġsu": 424,
      "ĠE": 425,
      "ment": 426,
      "ĠL": 427,
      "ĠN": 428,
      "ĠG": 429,
      "ity": 430,
      "ies": 431,
      "ant": 432,
      "Ġfrom": 433,
      "ort": 434,
      "pp": 435,
      "Ġ[": 436,
      "oc": 437,
      "ive": 438,
      "art": 439,
      "ction": 440,
      "all": 441,
      "Ġne": 442,
      "Ġch": 443,
      "Ġus": 444,
      "]]": 445,
      "ĠĠĠĠĠĠĠ": 446,
      "pt": 447,
      "Ġnot": 448,
      "Ġha": 449,
      "Ġsh": 450,
      "Ġcan": 451,
      "ich": 452,
      "ud": 453,
      "ight": 454,
      "Ġun": 455,
      "end": 456,
      "-@": 457,
      "Ġ@-@": 458,
      "ĠO": 459,
      "ame": 460,
      "ĠJ": 461,
      "Ġle": 462,
      "ial": 463,
      "ure": 464,
      "ĠIn": 465,
      "pl": 466,
      "Ġ\\": 467,
      "Ġwe": 468,
      "ard": 469,
      "ag": 470,
      "our": 471,
      "ber": 472,
      "ine": 473,
      "ould": 474,
      "te": 475,
      "gh": 476,
      "Ġpl": 477,
      "ell": 478,
      "Ġthis": 479,
      "ical": 480,
      "ust": 481,
      "ue": 482,
      "age": 483,
      "Ġwhich": 484,
      "Ġhave": 485,
      "og": 486,
      "ated": 487,
      "Ġhis": 488,
      "Ġk": 489,
      "ost": 490,
      "per": 491,
      "ak": 492,
      "ther": 493,
      "ast": 494,
      "'s": 495,
      "ie": 496,
      "ong": 497,
      "ect": 498,
      "ip": 499,
      "cl": 500,
      "ome": 501,
      "Ġwor": 502,
      "ound": 503,
      "elf": 504,
      "out": 505,
      "Ġar": 506,
      "ough": 507,
      "ĠâĢ": 508,
      "Ġ[[": 509,
      "Ġab": 510,
      "Ġint": 511,
      "Ġ-": 512,
      "Ġwhe": 513,
      "ff": 514,
      "Ġ)": 515,
      "ass": 516,
      "ide": 517,
      "ult": 518,
      "Ġ$": 519,
      "Ġim": 520,
      "are": 521,
      "ĠU": 522,
      "iz": 523,
      "der": 524,
      "ans": 525,
      "Ġcomp": 526,
      "up": 527,
      "ary": 528,
      "orm": 529,
      "Ġwere": 530,
      "ous": 531,
      "ire": 532,
      "act": 533,
      "ack": 534,
      "Ġres": 535,
      "ind": 536,
      "cc": 537,
      "ap": 538,
      "Ġad": 539,
      "Ġall": 540,
      "Ġcl": 541,
      "ĠTh": 542,
      "Ġme": 543,
      "ry": 544,
      "Ġbut": 545,
      "Ġen": 546,
      "ition": 547,
      "so": 548,
      "Ġcont": 549,
      "Ġtheir": 550,
      "ia": 551,
      "ime": 552,
      "ance": 553,
      "ations": 554,
      "ĠK": 555,
      "ach": 556,
      "int": 557,
      "av": 558,
      "du": 559,
      "The": 560,
      "ok": 561,
      "rit": 562,
      "ign": 563,
      "able": 564,
      "ib": 565,
      "ence": 566,
      "ru": 567,
      "ang": 568,
      "âĢĻ": 569,
      "ile": 570,
      "ear": 571,
      "one": 572,
      "Ġhas": 573,
      "Ġone": 574,
      "Ġmore": 575,
      "Ġper": 576,
      "Ġhad": 577,
      "ub": 578,
      "ord": 579,
      "Ġj": 580,
      "ice": 581,
      "Ġalso": 582,
      "con": 583,
      "nt": 584,
      "ase": 585,
      "Ġyour": 586,
      "Ġdo": 587,
      "ally": 588,
      "urn": 589,
      "Ġ+": 590,
      "Ġthey": 591,
      "ish": 592,
      "Ġout": 593,
      "ater": 594,
      "Ġman": 595,
      "ions": 596,
      "ĠSt": 597,
      "port": 598,
      "ress": 599,
      "Ġdis": 600,
      "Ġif": 601,
      "ely": 602,
      "ood": 603,
      "ake": 604,
      "ory": 605,
      "Ġother": 606,
      "ep": 607,
      "irst": 608,
      "ian": 609,
      "Ġsc": 610,
      "ace": 611,
      "Ġtw": 612,
      "Ġits": 613,
      "Ġwho": 614,
      "ount": 615,
      "amp": 616,
      "Ġtr": 617,
      "vel": 618,
      "Ġte": 619,
      "ĠV": 620,
      "ĠCh": 621,
      "own": 622,
      "Ġnum": 623,
      "--": 624,
      "ks": 625,
      "ph": 626,
      "Ġwill": 627,
      "form": 628,
      "ree": 629,
      "Ġpre": 630,
      "ath": 631,
      "ĠĠĠĠĠĠĠĠĠĠĠ": 632,
      "Ġup": 633,
      "Ġpart": 634,
      "ens": 635,
      "Ġro": 636,
      "ĠY": 637,
      "ne": 638,
      "Ġso": 639,
      "ĠIt": 640,
      "xt": 641,
      "Ġfe": 642,
      "oll": 643,
      "ef": 644,
      "ces": 645,
      "ents": 646,
      "Ġev": 647,
      "Ġsp": 648,
      "Ġqu": 649,
      "Ġfirst": 650,
      "ail": 651,
      "ates": 652,
      "Ġtwo": 653,
      "Ġspe": 654,
      "fter": 655,
      "ose": 656,
      "''": 657,
      "ors": 658,
      "mer": 659,
      "ict": 660,
      "Ġover": 661,
      "Ġtime": 662,
      "we": 663,
      "Ġbec": 664,
      "Ġher": 665,
      "ck": 666,
      "vers": 667,
      "ite": 668,
      "Ġwould": 669,
      "ll": 670,
      "Ġret": 671,
      "Ġinto": 672,
      "Ġbeen": 673,
      "Ġli": 674,
      "),": 675,
      "Ġabout": 676,
      "erm": 677,
      "Ġgr": 678,
      "ook": 679,
      "##": 680,
      "ove": 681,
      "Ġapp": 682,
      "clud": 683,
      "ild": 684,
      "ĠThis": 685,
      "rib": 686,
      "Ġag": 687,
      "Ġrec": 688,
      "aus": 689,
      "hed": 690,
      "Ġdes": 691,
      "Ġsome": 692,
      "ings": 693,
      "Ġcomm": 694,
      "Ġbet": 695,
      "Ġself": 696,
      "iff": 697,
      "ays": 698,
      "..": 699,
      "very": 700,
      "Ġyear": 701,
      "Ġthem": 702,
      "ov": 703,
      "ft": 704,
      "reat": 705,
      "Ġthan": 706,
      "Ġkn": 707,
      "Ġthere": 708,
      "Ġgo": 709,
      "Ġwhen": 710,
      ").": 711,
      "ĠAn": 712,
      "ob": 713,
      "Ġfun": 714,
      "Ġser": 715,
      "Ġdef": 716,
      "ĠHe": 717,
      "les": 718,
      "Ġcons": 719,
      "tern": 720,
      "red": 721,
      "Ġsy": 722,
      "Ġpr": 723,
      "[[": 724,
      "Ġoff": 725,
      ".ă": 726,
      "wn": 727,
      "ade": 728,
      "):": 729,
      "Ġnew": 730,
      "ject": 731,
      "ons": 732,
      "Ġpo": 733,
      "gr": 734,
      "ark": 735,
      "ren": 736,
      "Ġind": 737,
      "ert": 738,
      "ick": 739,
      "rough": 740,
      "ata": 741,
      "Ġinclud": 742,
      "Ġwork": 743,
      "old": 744,
      "ys": 745,
      "Ġfl": 746,
      "ific": 747,
      "Ġpe": 748,
      "Ġsuch": 749,
      "ced": 750,
      "ari": 751,
      "Ġrel": 752,
      "ĠâĢĵ": 753,
      "Ġval": 754,
      "Ġany": 755,
      "ual": 756,
      "ty": 757,
      "Ġunder": 758,
      "Ġform": 759,
      "uring": 760,
      "Ġco": 761,
      "Ġdiff": 762,
      "Ġatt": 763,
      "oth": 764,
      "``": 765,
      "**": 766,
      "Ġreturn": 767,
      "Ġpos": 768,
      "==": 769,
      "ied": 770,
      "cre": 771,
      "Ġacc": 772,
      "ics": 773,
      "Ġ<": 774,
      "ener": 775,
      "Ġ:": 776,
      "Ġsa": 777,
      "get": 778,
      "Ġnumber": 779,
      "Ġtra": 780,
      "ĠUn": 781,
      "ween": 782,
      "Ġass": 783,
      "Ġonly": 784,
      "ular": 785,
      "Ġno": 786,
      "ased": 787,
      "Ġrem": 788,
      "ise": 789,
      "ode": 790,
      "Ġam": 791,
      "Ġmost": 792,
      "ered": 793,
      "Ġimp": 794,
      "lect": 795,
      "Ġafter": 796,
      "self": 797,
      "ating": 798,
      "Ġbetween": 799,
      "Ġra": 800,
      "âĢĿ": 801,
      "Ġhim": 802,
      "Ġhow": 803,
      "Ġsub": 804,
      "Ġspec": 805,
      "Ġuse": 806,
      "eth": 807,
      "Ġx": 808,
      "Ġused": 809,
      "fore": 810,
      "Ġmay": 811,
      "Ġbl": 812,
      "Ġwhere": 813,
      "Ġthese": 814,
      "Ġshe": 815,
      "ange": 816,
      "Ġlike": 817,
      "Ġset": 818,
      "Ġmy": 819,
      "ollow": 820,
      "Ġprodu": 821,
      "Ġadd": 822,
      "als": 823,
      "Ġact": 824,
      "iss": 825,
      "land": 826,
      "ĠSe": 827,
      "Ġob": 828,
      "Ġstud": 829,
      "ved": 830,
      "ning": 831,
      "ĠĠĠĠĠĠĠĠĠĠĠĠĠĠĠĠ": 832,
      "olog": 833,
      "cess": 834,
      "ments": 835,
      "ause": 836,
      "oy": 837,
      "Ġcol": 838,
      "Ġfunction": 839,
      "Ġneed": 840,
      "hen": 841,
      "hat": 842,
      "Ġthrough": 843,
      "Ġthen": 844,
      "ited": 845,
      "ward": 846,
      "Ġstr": 847,
      "In": 848,
      "hes": 849,
      "ds": 850,
      "Ġem": 851,
      "Ġwhat": 852,
      "row": 853,
      "lic": 854,
      "Ġmod": 855,
      "ative": 856,
      "Ġprov": 857,
      "ew": 858,
      "Ġreg": 859,
      "ational": 860,
      "ople": 861,
      "ars": 862,
      "Ġget": 863,
      "ient": 864,
      "',": 865,
      "ric": 866,
      "lp": 867,
      "ities": 868,
      "ower": 869,
      "stem": 870,
      "ink": 871,
      "Ġinter": 872,
      "Ġ&": 873,
      "Ġeach": 874,
      "ble": 875,
      "cept": 876,
      "ĠRe": 877,
      "com": 878,
      "iel": 879,
      "Ġfollow": 880,
      "ution": 881,
      "ax": 882,
      "its": 883,
      "ious": 884,
      "rac": 885,
      "ten": 886,
      "ever": 887,
      "oup": 888,
      "ility": 889,
      "Ġplay": 890,
      "ible": 891,
      "inal": 892,
      "ix": 893,
      "ock": 894,
      "Ġhelp": 895,
      "Ġmany": 896,
      "aw": 897,
      "Ġdiffere": 898,
      "pect": 899,
      "ss": 900,
      "ng": 901,
      "Ġph": 902,
      "Ġeff": 903,
      "ues": 904,
      "iew": 905,
      "ex": 906,
      "put": 907,
      "Ġequ": 908,
      "Ġchar": 909,
      "Ġdist": 910,
      "Ġexp": 911,
      "gan": 912,
      "ĠĠĠĠĠ": 913,
      "Ġsm": 914,
      "Ġcould": 915,
      "Ġbu": 916,
      "Ġ`": 917,
      "Ġwell": 918,
      "hip": 919,
      "Ġpeople": 920,
      "Ġ;": 921,
      "ince": 922,
      "Ġinv": 923,
      "ron": 924,
      "Ġshould": 925,
      "ful": 926,
      "Ġsim": 927,
      "ăĂ": 928,
      "velop": 929,
      "quot": 930,
      "}{": 931,
      "Ġcall": 932,
      "Ġpoint": 933,
      "ures": 934,
      "ident": 935,
      "ĠAl": 936,
      "ond": 937,
      "arch": 938,
      "ife": 939,
      "Ġsupp": 940,
      "Ġinst": 941,
      "Ġac": 942,
      "Ġear": 943,
      "Ąā": 944,
      "Ġcent": 945,
      "Ġke": 946,
      "ting": 947,
      "Ġcre": 948,
      "ug": 949,
      "ins": 950,
      "Ġvari": 951,
      "imes": 952,
      "ily": 953,
      "Ġlar": 954,
      "Ġresult": 955,
      "ize": 956,
      "Ġsur": 957,
      "Ġend": 958,
      "Ġ#": 959,
      "Ġwrit": 960,
      "Ġtrans": 961,
      "Ġmake": 962,
      "Ġfind": 963,
      "other": 964,
      "tle": 965,
      "ines": 966,
      "Ġdata": 967,
      "ract": 968,
      "Ġour": 969,
      "Ġyears": 970,
      "Ġhigh": 971,
      "pr": 972,
      "ĠâĢľ": 973,
      "Ġ{": 974,
      "Ġgener": 975,
      "ool": 976,
      "ision": 977,
      "Ġmat": 978,
      "Ġagain": 979,
      "Ġfil": 980,
      "ĠAr": 981,
      "frac": 982,
      "Ġwhile": 983,
      "Ġsystem": 984,
      "Ġinf": 985,
      "Ġpres": 986,
      "Ġgiv": 987,
      "'t": 988,
      "Ġent": 989,
      "Ġref": 990,
      "Ġboth": 991,
      "aking": 992,
      "()": 993,
      "Ġbeing": 994,
      "Ġ/": 995,
      "Ġknow": 996,
      "Ġdet": 997,
      "bers": 998,
      "ism": 999,
      "meric": 1000,
      "Ġduring": 1001,
      "Ġlong": 1002,
      "ample": 1003,
      "Ġlist": 1004,
      "Ġimport": 1005,
      "ts": 1006,
      "Ġdevelop": 1007,
      "----": 1008,
      "ĠHow": 1009,
      "Ġty": 1010,
      "Ġback": 1011,
      "ather": 1012,
      "ork": 1013,
      "any": 1014,
      "Ġpol": 1015,
      "io": 1016,
      "Ġmade": 1017,
      "Ġmin": 1018,
      "cond": 1019,
      "Ġthree": 1020,
      "uch": 1021,
      "Ġjust": 1022,
      "ĠWe": 1023,
      "ving": 1024,
      "Ġpers": 1025,
      "Ġsign": 1026,
      "ason": 1027,
      "ted": 1028,
      "Ġap": 1029,
      "Ġloc": 1030,
      "cy": 1031,
      "Ġext": 1032,
      "Ġfound": 1033,
      "Ġcomple": 1034,
      "ature": 1035,
      "Ġusing": 1036,
      "Ġbefore": 1037,
      "]],": 1038,
      "way": 1039,
      "Ġcor": 1040,
      "ĠCom": 1041,
      "ually": 1042,
      "Ġrep": 1043,
      "ern": 1044,
      "ĠAmeric": 1045,
      "Ġsame": 1046,
      "li": 1047,
      "eng": 1048,
      "Ġdec": 1049,
      "tt": 1050,
      "__": 1051,
      "ĠAs": 1052,
      ".@": 1053,
      "ale": 1054,
      "Ġ@.@": 1055,
      "Ġsol": 1056,
      "ined": 1057,
      "val": 1058,
      "air": 1059,
      "Ġcount": 1060,
      "the": 1061,
      "Ġshow": 1062,
      "oh": 1063,
      "Ġday": 1064,
      "Ġsee": 1065,
      "led": 1066,
      "ĠDe": 1067,
      "Ġdep": 1068,
      "ames": 1069,
      "ctions": 1070,
      "ven": 1071,
      "ox": 1072,
      "ically": 1073,
      "Ġmon": 1074,
      "els": 1075,
      "ĠIf": 1076,
      "rop": 1077,
      "Ġsaid": 1078,
      "Ġpub": 1079,
      "ank": 1080,
      "ave": 1081,
      "ral": 1082,
      "Ġdifferent": 1083,
      "Ġmain": 1084,
      "man": 1085,
      "ĠNew": 1086,
      "ĠFor": 1087,
      "irect": 1088,
      ",@": 1089,
      "Ġcar": 1090,
      "Ġ@,@": 1091,
      "?ăĂ": 1092,
      "Ġeven": 1093,
      "Ġbel": 1094,
      "ruct": 1095,
      "Ġbr": 1096,
      "Ġstart": 1097,
      "Ġbecause": 1098,
      "Ġconsid": 1099,
      "Ġrequ": 1100,
      "Ġcur": 1101,
      "Ġlead": 1102,
      "Ġstate": 1103,
      "text": 1104,
      "ger": 1105,
      "ner": 1106,
      "Ġway": 1107,
      "Ġele": 1108,
      "uc": 1109,
      "ished": 1110,
      "Ġsl": 1111,
      "ĠYou": 1112,
      "Ġel": 1113,
      "Ġdid": 1114,
      "ĠOn": 1115,
      "ĠCon": 1116,
      "ton": 1117,
      "ized": 1118,
      "ants": 1119,
      "ists": 1120,
      "Ġed": 1121,
      "Ġcharact": 1122,
      "\",": 1123,
      "ience": 1124,
      "ĠĠĠĠĠĠĠĠĠĠĠĠĠĠĠ": 1125,
      "Ġop": 1126,
      "Ġname": 1127,
      "gg": 1128,
      "vent": 1129,
      "raph": 1130,
      "Âł": 1131,
      "ute": 1132,
      "ield": 1133,
      "ash": 1134,
      "Ġmem": 1135,
      "Ġconf": 1136,
      "ness": 1137,
      "Ġown": 1138,
      "ms": 1139,
      "iet": 1140,
      "read": 1141,
      "Ġgroup": 1142,
      "cial": 1143,
      "Ġart": 1144,
      "orth": 1145,
      "Ġvalue": 1146,
      "Ġchild": 1147,
      "Ġpass": 1148,
      "Ġpar": 1149,
      "Ġpop": 1150,
      "Ġright": 1151,
      "Ġfact": 1152,
      "alth": 1153,
      "ages": 1154,
      "Ġsmall": 1155,
      "Th": 1156,
      "Ġdoes": 1157,
      "Ġdisc": 1158,
      "Ġclass": 1159,
      "to": 1160,
      "Ġins": 1161,
      "Ġsecond": 1162,
      "ural": 1163,
      "tal": 1164,
      "Ġ|": 1165,
      "Ġresp": 1166,
      "ters": 1167,
      "ired": 1168,
      "cul": 1169,
      "ices": 1170,
      "outh": 1171,
      "Ġincre": 1172,
      "ah": 1173,
      "Ġmed": 1174,
      "Ġdown": 1175,
      "ĠSh": 1176,
      "lt": 1177,
      "Ġdesc": 1178,
      "ves": 1179,
      "Ġche": 1180,
      "Ġexpl": 1181,
      "Ġexper": 1182,
      "Ġconst": 1183,
      "ull": 1184,
      "ivers": 1185,
      "ides": 1186,
      "uth": 1187,
      "Ġevery": 1188,
      "Ġmus": 1189,
      "Ġworld": 1190,
      "Ġvery": 1191,
      "Ġtest": 1192,
      "Ġterm": 1193,
      "Ġline": 1194,
      "vern": 1195,
      "ĠPro": 1196,
      "Ġeffect": 1197,
      "au": 1198,
      "Ġgu": 1199,
      "par": 1200,
      "ouse": 1201,
      "bs": 1202,
      "Ġwater": 1203,
      "Ġinform": 1204,
      "ared": 1205,
      "Ġhand": 1206,
      "Ġorig": 1207,
      "Ġposs": 1208,
      "ane": 1209,
      "ases": 1210,
      "str": 1211,
      "Ġpartic": 1212,
      "ury": 1213,
      "ĠLe": 1214,
      "gy": 1215,
      "Ġincluding": 1216,
      "Ġappe": 1217,
      "Ġrele": 1218,
      "))": 1219,
      "Ġ*": 1220,
      "Ġgame": 1221,
      "Ġcontin": 1222,
      "ross": 1223,
      "Ġfam": 1224,
      "aj": 1225,
      "cent": 1226,
      "ify": 1227,
      "Ġlater": 1228,
      "yth": 1229,
      "```": 1230,
      "}$": 1231,
      "chool": 1232,
      "':": 1233,
      "Ġest": 1234,
      "Ġmuch": 1235,
      "ier": 1236,
      "Ġperform": 1237,
      "akes": 1238,
      "Ġappro": 1239,
      "ĠWh": 1240,
      "\"\"": 1241,
      "Ġlife": 1242,
      "gt": 1243,
      "Ġtake": 1244,
      "Ġfour": 1245,
      "ec": 1246,
      "Ġperson": 1247,
      "gram": 1248,
      "Ġread": 1249,
      "Ġnow": 1250,
      "orn": 1251,
      "ained": 1252,
      "Ġgiven": 1253,
      "Ġwant": 1254,
      "Ġmet": 1255,
      "ody": 1256,
      "irc": 1257,
      "chn": 1258,
      "Ġproble": 1259,
      "ively": 1260,
      "ĠThey": 1261,
      "Ġprocess": 1262,
      "rent": 1263,
      "Ġcalled": 1264,
      "nce": 1265,
      "Ġwar": 1266,
      "sw": 1267,
      "Ġlook": 1268,
      "Ġknown": 1269,
      "Ġthose": 1270,
      "ential": 1271,
      "Ġ\\(": 1272,
      "ology": 1273,
      "Ġgood": 1274,
      "ense": 1275,
      "Ġthough": 1276,
      "ets": 1277,
      "ided": 1278,
      "ww": 1279,
      "dition": 1280,
      "oot": 1281,
      "ann": 1282,
      "Ġfollowing": 1283,
      "Ġsing": 1284,
      "ĠEng": 1285,
      "ived": 1286,
      "veral": 1287,
      "ĠSc": 1288,
      ".ăĄā": 1289,
      "ethod": 1290,
      "az": 1291,
      "Ġexample": 1292,
      "Ġrun": 1293,
      "####": 1294,
      "Ġdesign": 1295,
      "ised": 1296,
      "ĠAnd": 1297,
      "apt": 1298,
      "Ġtri": 1299,
      "Ġcal": 1300,
      "vice": 1301,
      "Ġteam": 1302,
      "Ġocc": 1303,
      "son": 1304,
      "Ġdirect": 1305,
      "Ġ''": 1306,
      "view": 1307,
      "Ġrecord": 1308,
      "sc": 1309,
      "ional": 1310,
      "mon": 1311,
      "name": 1312,
      "ple": 1313,
      "ator": 1314,
      "Ġhum": 1315,
      "Ġhist": 1316,
      "Ġmust": 1317,
      "Ġaround": 1318,
      "Ġagainst": 1319,
      "ains": 1320,
      "ser": 1321,
      "</": 1322,
      "Ġallow": 1323,
      "uss": 1324,
      "gin": 1325,
      "Ġsupport": 1326,
      "ĠInd": 1327,
      "Ġoper": 1328,
      "err": 1329,
      "ĠQ": 1330,
      "ality": 1331,
      "ately": 1332,
      "Ġfin": 1333,
      "Ġbre": 1334,
      "Ġpat": 1335,
      "osed": 1336,
      "br": 1337,
      "Def": 1338,
      "ĠHowever": 1339,
      "Ġsum": 1340,
      "app": 1341,
      "right": 1342,
      "oss": 1343,
      "ĠThere": 1344,
      "Ġbro": 1345,
      "ccess": 1346,
      "stand": 1347,
      "lish": 1348,
      "Ġsk": 1349,
      "Ġdiv": 1350,
      "Ġoften": 1351,
      "ĠAd": 1352,
      "Ġav": 1353,
      "Ġlit": 1354,
      "Ġpower": 1355,
      "ĠAt": 1356,
      "ĠCl": 1357,
      "ript": 1358,
      "ĠIs": 1359,
      "Ġopen": 1360,
      "Ġfilm": 1361,
      "anc": 1362,
      "Ġlet": 1363,
      "ium": 1364,
      "Ġseveral": 1365,
      "itive": 1366,
      "ython": 1367,
      "ives": 1368,
      "('": 1369,
      "angu": 1370,
      "Ġstand": 1371,
      "Ġarea": 1372,
      "Ġinformation": 1373,
      "be": 1374,
      "ĠZ": 1375,
      "Ġsent": 1376,
      "ability": 1377,
      "Ġgreat": 1378,
      "min": 1379,
      "Ġtop": 1380,
      "nd": 1381,
      "Ġgl": 1382,
      "omet": 1383,
      "Ġseries": 1384,
      "Ġstill": 1385,
      "ohn": 1386,
      "Ġ%": 1387,
      "Ġcontro": 1388,
      "Ġsong": 1389,
      "line": 1390,
      "mber": 1391,
      "Defn": 1392,
      "Ġmean": 1393,
      "ified": 1394,
      "Ġland": 1395,
      "ĠTo": 1396,
      "ember": 1397,
      "//": 1398,
      "Ġprogram": 1399,
      "Ġplace": 1400,
      "Ġinc": 1401,
      "...": 1402,
      "ĠAmerican": 1403,
      "Ġlast": 1404,
      "ĠUnited": 1405,
      "ribut": 1406,
      "atic": 1407,
      "Ġdon": 1408,
      "que": 1409,
      "Ġcharacter": 1410,
      ".ăĂ": 1411,
      "Ġlevel": 1412,
      "_{": 1413,
      "Ġquest": 1414,
      "oint": 1415,
      "Ġthink": 1416,
      "Ġvis": 1417,
      "Ġ**": 1418,
      "Ġcommon": 1419,
      "Ġhead": 1420,
      "Ġbuild": 1421,
      "ĠWhat": 1422,
      "Ġlarge": 1423,
      "hem": 1424,
      "Ġrece": 1425,
      "Ġmill": 1426,
      "Ġcle": 1427,
      "Ġdi": 1428,
      "Ġbook": 1429,
      "Ġlear": 1430,
      "Ġless": 1431,
      "ien": 1432,
      "ument": 1433,
      "ĠShe": 1434,
      "de": 1435,
      "Ġwithout": 1436,
      "Ġreal": 1437,
      "Ġep": 1438,
      "Ġsince": 1439,
      "Ġsoc": 1440,
      "Ġcommun": 1441,
      "Ġtechn": 1442,
      "Ġ$\\": 1443,
      "Ġbat": 1444,
      "oad": 1445,
      "Ġunt": 1446,
      "Ġgovern": 1447,
      "ttp": 1448,
      "Ġtotal": 1449,
      "Ġcare": 1450,
      "Ġold": 1451,
      "Ġrepres": 1452,
      "Ġrese": 1453,
      "yn": 1454,
      "day": 1455,
      "Ġanother": 1456,
      "def": 1457,
      "Ġmov": 1458,
      "ray": 1459,
      "}}": 1460,
      "ĠSp": 1461,
      "Ġi": 1462,
      "Ġcour": 1463,
      "ots": 1464,
      "(\"": 1465,
      "Ġmil": 1466,
      "ik": 1467,
      "ĠTr": 1468,
      "sh": 1469,
      "iron": 1470,
      "pro": 1471,
      "ĠBrit": 1472,
      "alk": 1473,
      "Ġeng": 1474,
      "Ġseason": 1475,
      "Ġmethod": 1476,
      "Ġmult": 1477,
      "ital": 1478,
      "my": 1479,
      "ek": 1480,
      "ird": 1481,
      "ining": 1482,
      "though": 1483,
      "Ġz": 1484,
      "Ġnear": 1485,
      ".,": 1486,
      "ĠFr": 1487,
      "ote": 1488,
      "by": 1489,
      "uro": 1490,
      "Ġfew": 1491,
      "Ġchang": 1492,
      ".]": 1493,
      "med": 1494,
      "ajor": 1495,
      "Ġorder": 1496,
      "Ġide": 1497,
      ".\"": 1498,
      "Ġpur": 1499,
      "gs": 1500,
      "ĠâĢĶ": 1501,
      "Ġbecame": 1502,
      "This": 1503,
      "Ġelect": 1504,
      "Ġmight": 1505,
      "ulation": 1506,
      "Ġwithin": 1507,
      "Ġpublic": 1508,
      "Ġtem": 1509,
      "Ġuntil": 1510,
      "Ġcase": 1511,
      "Ġbest": 1512,
      "Ġadv": 1513,
      "iversity": 1514,
      "Ġearly": 1515,
      "ley": 1516,
      "of": 1517,
      "erest": 1518,
      "Ġansw": 1519,
      "ended": 1520,
      "Ġimportant": 1521,
      "To": 1522,
      "Ġsay": 1523,
      "://": 1524,
      "ertain": 1525,
      "here": 1526,
      "Ġsuccess": 1527,
      "Ġgre": 1528,
      "Ġbeh": 1529,
      "Ġbased": 1530,
      "Ġlangu": 1531,
      "Ġleft": 1532,
      "ior": 1533,
      "ĠEx": 1534,
      "ization": 1535,
      "^{": 1536,
      "Ġschool": 1537,
      "ĠBe": 1538,
      "ĠJohn": 1539,
      "Ã©": 1540,
      "Ġhealth": 1541,
      "ering": 1542,
      "Ġdescrib": 1543,
      "Ġmar": 1544,
      "Ġvers": 1545,
      "Ġmark": 1546,
      "Ġinte": 1547,
      "ĠAfter": 1548,
      "Ġorgan": 1549,
      "orld": 1550,
      "Ġturn": 1551,
      "ling": 1552,
      "rist": 1553,
      "ĠBut": 1554,
      "čĊ": 1555,
      "Ġconc": 1556,
      "iod": 1557,
      "Ġopt": 1558,
      "ask": 1559,
      "ression": 1560,
      "ĠGr": 1561,
      "ead": 1562,
      "Ġreport": 1563,
      "mb": 1564,
      "ĠBl": 1565,
      "'re": 1566,
      "Ġpri": 1567,
      "une": 1568,
      "Ġcap": 1569,
      "ways": 1570,
      "Ġiss": 1571,
      "Ġhere": 1572,
      "Ġanal": 1573,
      "Ġalong": 1574,
      "ateg": 1575,
      "Ġkey": 1576,
      "aining": 1577,
      "ording": 1578,
      "Ġcondition": 1579,
      "ĠPl": 1580,
      "Ġdra": 1581,
      "ats": 1582,
      "],": 1583,
      "Ġcrit": 1584,
      "ĠStates": 1585,
      "ER": 1586,
      "Ġgrow": 1587,
      "inc": 1588,
      "Ġopp": 1589,
      "Ġproper": 1590,
      "Ġunderstand": 1591,
      "Ġ--": 1592,
      "bum": 1593,
      "und": 1594,
      "Ġpresent": 1595,
      "ober": 1596,
      "less": 1597,
      "ength": 1598,
      "ued": 1599,
      "Ġprof": 1600,
      "Ġhome": 1601,
      "')": 1602,
      "Ġplan": 1603,
      ".ăā": 1604,
      "riend": 1605,
      "ĠX": 1606,
      "ĠPh": 1607,
      "over": 1608,
      "Ġtyp": 1609,
      "work": 1610,
      "iation": 1611,
      "Ġbo": 1612,
      "Ġident": 1613,
      "lished": 1614,
      "me": 1615,
      "ilar": 1616,
      "What": 1617,
      "Ġaff": 1618,
      "ission": 1619,
      "ales": 1620,
      "ĠCol": 1621,
      "ĠCan": 1622,
      "Ġobject": 1623,
      "Ġnumbers": 1624,
      "ene": 1625,
      "ĠWhen": 1626,
      "ery": 1627,
      "ination": 1628,
      "Ġdays": 1629,
      "Ġnon": 1630,
      "Ġlight": 1631,
      "Ġrest": 1632,
      "itle": 1633,
      "ource": 1634,
      "ĠWar": 1635,
      "Ġes": 1636,
      "ĠAll": 1637,
      "ivid": 1638,
      "Ġ==": 1639,
      "ians": 1640,
      "Ġcurrent": 1641,
      "ole": 1642,
      "ĠMar": 1643,
      "Ġeas": 1644,
      "Ġbelie": 1645,
      "Ġcost": 1646,
      "Ġinterest": 1647,
      "Ġchildren": 1648,
      "iness": 1649,
      "Ġaddition": 1650,
      "set": 1651,
      "omen": 1652,
      "ĠUS": 1653,
      "Ġcr": 1654,
      "Ġprovide": 1655,
      "ĠBy": 1656,
      "Ġprote": 1657,
      "Ġair": 1658,
      "Ġâ": 1659,
      "Ġproduct": 1660,
      "ape": 1661,
      "Ġpossible": 1662,
      "Ġhour": 1663,
      "tr": 1664,
      "Ġside": 1665,
      "ored": 1666,
      "ently": 1667,
      "wards": 1668,
      "Ġdel": 1669,
      "urther": 1670,
      "ina": 1671,
      "vious": 1672,
      "Ġfar": 1673,
      "Ġimpro": 1674,
      "âĢľ": 1675,
      "Ġtry": 1676,
      "atch": 1677,
      "Ġredu": 1678,
      "lu": 1679,
      "Ġmonth": 1680,
      "ĠGerm": 1681,
      "Ġsingle": 1682,
      "Ġmusic": 1683,
      "ged": 1684,
      "onse": 1685,
      "Ġmajor": 1686,
      "Ġsugg": 1687,
      "Ġsuggest": 1688,
      "ances": 1689,
      "iver": 1690,
      "Ġcomb": 1691,
      "Ġcity": 1692,
      "Ġtimes": 1693,
      "Ġtype": 1694,
      "Ġlim": 1695,
      "Ġinclude": 1696,
      "Ġrange": 1697,
      "Ġproblem": 1698,
      "ĠMay": 1699,
      "Ġmen": 1700,
      "ither": 1701,
      "Ġve": 1702,
      "Ġdue": 1703,
      "Ġshort": 1704,
      "Ġview": 1705,
      "Ġsit": 1706,
      "ries": 1707,
      "aced": 1708,
      "Ġinvol": 1709,
      "Ġalbum": 1710,
      "Ġnext": 1711,
      "Ġmillion": 1712,
      "Ġfamily": 1713,
      "]].": 1714,
      "Ġmove": 1715,
      "Ġvalues": 1716,
      "Ġstudy": 1717,
      "Ġcalcul": 1718,
      "Ġtoo": 1719,
      "for": 1720,
      "Ġship": 1721,
      "ison": 1722,
      "ĠAust": 1723,
      "Ġarg": 1724,
      "yle": 1725,
      "Ġbody": 1726,
      "viron": 1727,
      "mit": 1728,
      "ples": 1729,
      "'m": 1730,
      "amed": 1731,
      "Ġprob": 1732,
      "enn": 1733,
      "Ġrepresent": 1734,
      "Ġstudents": 1735,
      "ĠOr": 1736,
      "ope": 1737,
      "Ġoriginal": 1738,
      "ĠThese": 1739,
      "oid": 1740,
      "ency": 1741,
      "ories": 1742,
      "ret": 1743,
      "Ġmaking": 1744,
      "Ġperiod": 1745,
      "Ġbegan": 1746,
      "Ġhy": 1747,
      "--------": 1748,
      "Ġrelations": 1749,
      "Ġcreate": 1750,
      "ards": 1751,
      "Ġsignific": 1752,
      "Ġstruct": 1753,
      "Ġsqu": 1754,
      "ploy": 1755,
      "ention": 1756,
      "idd": 1757,
      "Ġcaus": 1758,
      "eb": 1759,
      "por": 1760,
      "Ġepis": 1761,
      "ffic": 1762,
      "Ġevent": 1763,
      "eter": 1764,
      "Ġdr": 1765,
      "Ġpoints": 1766,
      "Ġactiv": 1767,
      "Ġlaw": 1768,
      "Ġsw": 1769,
      "Ġchange": 1770,
      "aim": 1771,
      "$,": 1772,
      "Ġbus": 1773,
      "arr": 1774,
      "Ġtext": 1775,
      "Ġconsider": 1776,
      "Ġproject": 1777,
      "ăĄā": 1778,
      "Ġpot": 1779,
      "Ġprom": 1780,
      "alf": 1781,
      "Ġposition": 1782,
      "requ": 1783,
      "Ġ\"\"\"": 1784,
      "rodu": 1785,
      "Ġparticular": 1786,
      "Ġhuman": 1787,
      "uthor": 1788,
      ".âĢĿ": 1789,
      "let": 1790,
      "ott": 1791,
      "Ġfood": 1792,
      "sp": 1793,
      "Ġfore": 1794,
      "Ġpost": 1795,
      "verage": 1796,
      "Ġgovernment": 1797,
      "oman": 1798,
      "ams": 1799,
      "Ġhig": 1800,
      "Ġoffic": 1801,
      "math": 1802,
      "ograph": 1803,
      "ĠWorld": 1804,
      "Ġlanguage": 1805,
      "ured": 1806,
      "How": 1807,
      "Ġlow": 1808,
      "yl": 1809,
      "Ġinit": 1810,
      "ems": 1811,
      "Ġmeas": 1812,
      "Ġcho": 1813,
      "arent": 1814,
      "iction": 1815,
      "ividual": 1816,
      "ilt": 1817,
      "ule": 1818,
      "Ġwon": 1819,
      "Ġdeterm": 1820,
      "Ġfeel": 1821,
      "['": 1822,
      "Ġcentury": 1823,
      "Ġann": 1824,
      "lement": 1825,
      "aster": 1826,
      "Ġwin": 1827,
      "Ġanswer": 1828,
      "Ġrad": 1829,
      "Ġ...": 1830,
      "Ġfive": 1831,
      "Ġlocal": 1832,
      "empt": 1833,
      "ergy": 1834,
      "Ġcell": 1835,
      "play": 1836,
      "pos": 1837,
      "Ġtook": 1838,
      "Ġleg": 1839,
      "._": 1840,
      "conom": 1841,
      "Ġcontrol": 1842,
      "urope": 1843,
      "cont": 1844,
      "Ġleast": 1845,
      "Ġspecific": 1846,
      "Ġfr": 1847,
      "Ġstep": 1848,
      "Ġelse": 1849,
      "']": 1850,
      "Ġpract": 1851,
      "Ġstory": 1852,
      "Ġmeans": 1853,
      "ĠBritish": 1854,
      "Ġbecome": 1855,
      "ps": 1856,
      "Ġprint": 1857,
      "IN": 1858,
      "Ġlog": 1859,
      "Ġoccur": 1860,
      "Ġattack": 1861,
      "http": 1862,
      "aken": 1863,
      "ament": 1864,
      "Ġrepl": 1865,
      "rect": 1866,
      "alse": 1867,
      "ending": 1868,
      "ĠBr": 1869,
      "Ġkeep": 1870,
      "Ġbetter": 1871,
      "Ġcode": 1872,
      "mod": 1873,
      "Ġamong": 1874,
      "Ġmodel": 1875,
      "ctor": 1876,
      "vision": 1877,
      "agn": 1878,
      "Ġindividual": 1879,
      "ON": 1880,
      "ĠCar": 1881,
      "ware": 1882,
      "Ġspecies": 1883,
      "not": 1884,
      "Ġsimilar": 1885,
      "ometh": 1886,
      "Ġdeath": 1887,
      "ĠTe": 1888,
      "aterial": 1889,
      "Ġfriend": 1890,
      "ĠNo": 1891,
      "Ġask": 1892,
      "Ġsix": 1893,
      "Ġnever": 1894,
      "ming": 1895,
      "mp": 1896,
      "vironment": 1897,
      "Ġhaving": 1898,
      "Ġbas": 1899,
      "ĉĉ": 1900,
      "add": 1901,
      "\")": 1902,
      "Ġgeneral": 1903,
      "Ġfinal": 1904,
      "Ġport": 1905,
      "Ġhistory": 1906,
      "Ġstat": 1907,
      "ids": 1908,
      "cur": 1909,
      "omething": 1910,
      "Ġfeet": 1911,
      "Ġver": 1912,
      "ĠOne": 1913,
      "rt": 1914,
      "ĠChrist": 1915,
      "fl": 1916,
      "ont": 1917,
      "from": 1918,
      "Ġsignificant": 1919,
      "Ġlittle": 1920,
      "ĠPr": 1921,
      "erv": 1922,
      "Ġu": 1923,
      "Ġvol": 1924,
      "ges": 1925,
      "Ġphys": 1926,
      "Ġhapp": 1927,
      "You": 1928,
      "idence": 1929,
      "ocus": 1930,
      "Ġris": 1931,
      "Ġwords": 1932,
      "augh": 1933,
      "ee": 1934,
      "Ġant": 1935,
      "ources": 1936,
      "ma": 1937,
      "Ġdevelopment": 1938,
      "AT": 1939,
      "Ġgive": 1940,
      "Ġdri": 1941,
      "ĠUniversity": 1942,
      "Ġcome": 1943,
      "Ġenergy": 1944,
      "'''": 1945,
      "ably": 1946,
      "rain": 1947,
      "olution": 1948,
      "atural": 1949,
      "Ġgen": 1950,
      "Ġrelationship": 1951,
      "Ġstrong": 1952,
      "Ġtreat": 1953,
      "ĠEurope": 1954,
      "Ġappear": 1955,
      "ĠAug": 1956,
      "Ġalways": 1957,
      "Ġrole": 1958,
      "ault": 1959,
      "St": 1960,
      "oms": 1961,
      "ume": 1962,
      "It": 1963,
      "Ġhouse": 1964,
      "Ġcult": 1965,
      "ique": 1966,
      "imate": 1967,
      "Ġwind": 1968,
      ".)": 1969,
      "'ve": 1970,
      "face": 1971,
      "ĠGe": 1972,
      "side": 1973,
      "stit": 1974,
      "'ll": 1975,
      "Ġprevious": 1976,
      "aces": 1977,
      "icle": 1978,
      "Ġput": 1979,
      "Ġequation": 1980,
      "co": 1981,
      "$$": 1982,
      "iving": 1983,
      "Ġcountry": 1984,
      "Ġversion": 1985,
      "ounds": 1986,
      "Ġcomplex": 1987,
      "Ġfree": 1988,
      "Ġfurther": 1989,
      "ĠYork": 1990,
      "Ġanim": 1991,
      "Ġexpect": 1992,
      "cing": 1993,
      "raft": 1994,
      "Ġtoget": 1995,
      "Ġtogether": 1996,
      "Ġreleased": 1997,
      "Ġable": 1998,
      "Ġestab": 1999,
      "ones": 2000,
      "ney": 2001,
      "Ġcirc": 2002,
      "Ġtrad": 2003,
      "ush": 2004,
      "Ġcommand": 2005,
      "na": 2006,
      "Ġresponse": 2007,
      "erence": 2008,
      "aps": 2009,
      "Ġcompany": 2010,
      "{\\": 2011,
      "Ġlik": 2012,
      "Ġsn": 2013,
      "ĠKing": 2014,
      "âĢ¢": 2015,
      "Ġlength": 2016,
      "nect": 2017,
      "Ġpain": 2018,
      "ills": 2019,
      "ches": 2020,
      "âĢĶ": 2021,
      "Ġyoung": 2022,
      "elt": 2023,
      "Ġlab": 2024,
      "ĠNorth": 2025,
      "Ġquestion": 2026,
      "Ġdev": 2027,
      "Ġresearch": 2028,
      "osp": 2029,
      "Ġepisode": 2030,
      "Ġsomething": 2031,
      "ched": 2032,
      "ĠII": 2033,
      "Ġobser": 2034,
      "Ġexist": 2035,
      "ried": 2036,
      "Ġspace": 2037,
      "Ġcertain": 2038,
      "dd": 2039,
      "Ġmaterial": 2040,
      "Ġreceived": 2041,
      "Ġpolit": 2042,
      "atures": 2043,
      "ĠSo": 2044,
      "Ġavail": 2045,
      "Ġpress": 2046,
      "Ġvarious": 2047,
      "key": 2048,
      "Ġtell": 2049,
      "Ġdest": 2050,
      "ĠEnglish": 2051,
      "ĠAustral": 2052,
      "apan": 2053,
      "Ġage": 2054,
      "ĠÂ": 2055,
      "Ġaway": 2056,
      "idge": 2057,
      "ptember": 2058,
      "Ġclear": 2059,
      "aut": 2060,
      "ĠJu": 2061,
      "pecial": 2062,
      "Ġfocus": 2063,
      "Ġareas": 2064,
      "Ġabove": 2065,
      "thing": 2066,
      "ĠAugust": 2067,
      "ister": 2068,
      "Ġla": 2069,
      "Ġthird": 2070,
      "Ġcolle": 2071,
      "ruction": 2072,
      "list": 2073,
      "ogn": 2074,
      "rench": 2075,
      "$.": 2076,
      "Ġ>": 2077,
      "num": 2078,
      "Ġhowever": 2079,
      "Ġcame": 2080,
      "ula": 2081,
      "AR": 2082,
      "ration": 2083,
      "af": 2084,
      "ĠCal": 2085,
      "ĠEar": 2086,
      "iple": 2087,
      "====": 2088,
      "ables": 2089,
      "Ġenc": 2090,
      "icult": 2091,
      "iting": 2092,
      "iment": 2093,
      "ler": 2094,
      "ops": 2095,
      "Ġsocial": 2096,
      "illed": 2097,
      "We": 2098,
      "Ġinflu": 2099,
      "Ġinput": 2100,
      "asing": 2101,
      "ĠOct": 2102,
      "Ġindic": 2103,
      "Ġfile": 2104,
      "*[[": 2105,
      "Ġreview": 2106,
      "Ġothers": 2107,
      "Ġamount": 2108,
      "ĠEn": 2109,
      "Ġstring": 2110,
      "Ġaccess": 2111,
      "anu": 2112,
      "Ġspecial": 2113,
      "ety": 2114,
      "left": 2115,
      "Ġfield": 2116,
      "Ġterms": 2117,
      "ipp": 2118,
      "ĠPar": 2119,
      "ological": 2120,
      "uck": 2121,
      "If": 2122,
      "www": 2123,
      "hest": 2124,
      "Ġsize": 2125,
      "ĠNational": 2126,
      "Ġaverage": 2127,
      "Ġmembers": 2128,
      "Ġcomput": 2129,
      "sequ": 2130,
      "angle": 2131,
      "rel": 2132,
      "ĠNone": 2133,
      "Ġ}": 2134,
      "Ġweek": 2135,
      "Ġgoing": 2136,
      "Ġconsidered": 2137,
      "bo": 2138,
      "ĠSouth": 2139,
      "omin": 2140,
      "Ġ\\]": 2141,
      "plic": 2142,
      "oney": 2143,
      "Ġintern": 2144,
      "Ġword": 2145,
      "Ġcreat": 2146,
      "ĠThat": 2147,
      "ĠSeptember": 2148,
      "Ġhalf": 2149,
      "cer": 2150,
      "path": 2151,
      "ights": 2152,
      "ml": 2153,
      "ĠRes": 2154,
      "Ġnet": 2155,
      "Ġdam": 2156,
      "ĠWill": 2157,
      "sq": 2158,
      "ST": 2159,
      "Ġet": 2160,
      "Ġauthor": 2161,
      "Ġaut": 2162,
      "Ġkm": 2163,
      "ideo": 2164,
      "ror": 2165,
      "hers": 2166,
      "Ġpotential": 2167,
      "Ġnorth": 2168,
      "Ġexam": 2169,
      "Ġdem": 2170,
      "Ġpa": 2171,
      "ĠFl": 2172,
      "tym": 2173,
      "ball": 2174,
      "rown": 2175,
      "ĠĠĠĠĠĠĠĠĠĠĠĠĠĠĠĠĠĠĠ": 2176,
      "iated": 2177,
      "ĠSte": 2178,
      "ublic": 2179,
      "urch": 2180,
      "ysis": 2181,
      "ows": 2182,
      "Ch": 2183,
      "An": 2184,
      "OR": 2185,
      "reg": 2186,
      "most": 2187,
      "Ġpositive": 2188,
      "Ġseen": 2189,
      "Ġhard": 2190,
      "Ġworks": 2191,
      "Ġess": 2192,
      "ĠGu": 2193,
      "ius": 2194,
      "ences": 2195,
      "Ġneg": 2196,
      "oon": 2197,
      "org": 2198,
      "Ġeither": 2199,
      "ym": 2200,
      "Ġcamp": 2201,
      "ĠJapan": 2202,
      "Ġmax": 2203,
      "There": 2204,
      "istic": 2205,
      "Ġlearn": 2206,
      "test": 2207,
      "Ġeconom": 2208,
      "Ġey": 2209,
      "Ġinitial": 2210,
      "imum": 2211,
      "**:": 2212,
      "clus": 2213,
      "Ġbegin": 2214,
      "Ġhours": 2215,
      "duct": 2216,
      "Ġfull": 2217,
      "}\\": 2218,
      "rap": 2219,
      "ception": 2220,
      "Ġthings": 2221,
      "ached": 2222,
      "ĠCent": 2223,
      "Ġens": 2224,
      "oph": 2225,
      "avy": 2226,
      "Ġben": 2227,
      "Ġclaim": 2228,
      "Ġenvironment": 2229,
      "Ġeduc": 2230,
      "Ġinvest": 2231,
      "Ġupon": 2232,
      "Ġpopulation": 2233,
      "Ġmot": 2234,
      "acy": 2235,
      "Ġcapt": 2236,
      "Ġsequ": 2237,
      "reen": 2238,
      "fer": 2239,
      "ĠWith": 2240,
      "Ġattempt": 2241,
      "ze": 2242,
      "Tr": 2243,
      "Ġerr": 2244,
      "iety": 2245,
      "Ġcheck": 2246,
      "Ġhold": 2247,
      "epend": 2248,
      "Ġacross": 2249,
      "use": 2250,
      "Ġbuilt": 2251,
      "Ġrespect": 2252,
      "ĠGod": 2253,
      "ailed": 2254,
      "ourn": 2255,
      "ĠMe": 2256,
      "Ġband": 2257,
      "Ġapproach": 2258,
      "ĠNe": 2259,
      "ĠHis": 2260,
      "Ġavailable": 2261,
      "Ġchanges": 2262,
      "ĠGo": 2263,
      "type": 2264,
      "chie": 2265,
      "etic": 2266,
      "Ġbi": 2267,
      "||": 2268,
      "ĠEtym": 2269,
      "Ġbusiness": 2270,
      "utes": 2271,
      "pril": 2272,
      "Ġled": 2273,
      "arget": 2274,
      "Ġrather": 2275,
      "Ġpercent": 2276,
      "ators": 2277,
      "Ġthought": 2278,
      "Ġwomen": 2279,
      "ores": 2280,
      "Ġresults": 2281,
      "Ġemploy": 2282,
      "Ġ]": 2283,
      "ĠOctober": 2284,
      "Ġincluded": 2285,
      "Ġassoc": 2286,
      "Ġfoot": 2287,
      ",âĢĿ": 2288,
      "Ġnight": 2289,
      "cle": 2290,
      "ĠJune": 2291,
      "Ġwriting": 2292,
      "Ġdise": 2293,
      "Ġfall": 2294,
      "ready": 2295,
      "Ġmeet": 2296,
      "rote": 2297,
      "Ġworking": 2298,
      "aged": 2299,
      "Ġ_": 2300,
      "gen": 2301,
      "Ġgot": 2302,
      "Ġcourse": 2303,
      "itary": 2304,
      "Ġri": 2305,
      "Ġelements": 2306,
      "Ġred": 2307,
      "Ġball": 2308,
      "ront": 2309,
      "Ġnamed": 2310,
      "sel": 2311,
      "ese": 2312,
      "umn": 2313,
      "Ġsuper": 2314,
      "aff": 2315,
      "ovember": 2316,
      "ĠJuly": 2317,
      "Ġbreak": 2318,
      "ider": 2319,
      "Ġaccount": 2320,
      "back": 2321,
      "umb": 2322,
      "dict": 2323,
      "Ġproduction": 2324,
      "data": 2325,
      "Ġtre": 2326,
      "att": 2327,
      "Ġwritten": 2328,
      "sqrt": 2329,
      "aring": 2330,
      "Ġpopular": 2331,
      "Ġimpact": 2332,
      "ĠMan": 2333,
      "ung": 2334,
      "Ġprim": 2335,
      "ilities": 2336,
      "ĠMarch": 2337,
      "Ġdig": 2338,
      "AN": 2339,
      "box": 2340,
      "aves": 2341,
      "ribution": 2342,
      "amb": 2343,
      "lying": 2344,
      "alt": 2345,
      "ĠMc": 2346,
      "Ġnatural": 2347,
      "ival": 2348,
      "For": 2349,
      "ising": 2350,
      "Ġservice": 2351,
      "ĠFrench": 2352,
      "\":": 2353,
      "Ġstandard": 2354,
      "ream": 2355,
      "Ġonce": 2356,
      "Ġrev": 2357,
      "Ġcop": 2358,
      "ĠEd": 2359,
      "EN": 2360,
      "lex": 2361,
      "Ġintrodu": 2362,
      "ification": 2363,
      "uture": 2364,
      "imately": 2365,
      "log": 2366,
      "iding": 2367,
      "ai": 2368,
      "Ġimprove": 2369,
      "Ġprop": 2370,
      "oring": 2371,
      "ude": 2372,
      "Ġwhether": 2373,
      "Ġdeb": 2374,
      "Ġlarg": 2375,
      "ae": 2376,
      "ĠAm": 2377,
      "Ġsold": 2378,
      "Ġlate": 2379,
      "cember": 2380,
      "lease": 2381,
      "Ġtown": 2382,
      "overed": 2383,
      "ĠApril": 2384,
      "class": 2385,
      "ĠAf": 2386,
      "anuary": 2387,
      "dom": 2388,
      "Ġnorm": 2389,
      "uation": 2390,
      "ients": 2391,
      "Ġalready": 2392,
      "Ġnecess": 2393,
      "inally": 2394,
      "Ġdescribed": 2395,
      "ĠNovember": 2396,
      "ague": 2397,
      "Ġmatch": 2398,
      "Ġexperience": 2399,
      "ibr": 2400,
      "Ġcy": 2401,
      "python": 2402,
      "assert": 2403,
      "erc": 2404,
      "Ġtrue": 2405,
      "Ġsouth": 2406,
      "head": 2407,
      "Ġpath": 2408,
      "new": 2409,
      "Ġdifficult": 2410,
      "ustom": 2411,
      "Ġsepar": 2412,
      "Ġsat": 2413,
      "ressed": 2414,
      "Ġlower": 2415,
      "col": 2416,
      "ĠComm": 2417,
      "âĢĵ": 2418,
      "wh": 2419,
      "Ġkind": 2420,
      "Ġaction": 2421,
      "eral": 2422,
      "Ġapplic": 2423,
      "ails": 2424,
      "sy": 2425,
      "Ġlo": 2426,
      "resp": 2427,
      "action": 2428,
      "Ġbar": 2429,
      "As": 2430,
      "ĠGerman": 2431,
      "Ġbase": 2432,
      "ĠPython": 2433,
      "Ġblack": 2434,
      "Ġtakes": 2435,
      "Ġwrote": 2436,
      "ging": 2437,
      "Ġ$$": 2438,
      "Ġcause": 2439,
      "ES": 2440,
      "Ġperformance": 2441,
      "Ġbuilding": 2442,
      "ĠSer": 2443,
      "cd": 2444,
      "Ġtradition": 2445,
      "tain": 2446,
      "Ġindust": 2447,
      "Ġgames": 2448,
      "Ġassist": 2449,
      "iam": 2450,
      "Ġjo": 2451,
      "ĠDo": 2452,
      "=\"": 2453,
      "Ġusually": 2454,
      "ĠWhile": 2455,
      "Ġsubject": 2456,
      "ĠSome": 2457,
      "Ġprofess": 2458,
      "print": 2459,
      "Ġentire": 2460,
      "Ġmass": 2461,
      "Ġbecom": 2462,
      "Ġfire": 2463,
      "aries": 2464,
      "Ġjob": 2465,
      "Ġabs": 2466,
      "Ġpast": 2467,
      "ises": 2468,
      "Ġhar": 2469,
      "ĠJanuary": 2470,
      "Ġge": 2471,
      "ĠDecember": 2472,
      "Ġcorrect": 2473,
      "Ġaffect": 2474,
      "Ġrate": 2475,
      "Ex": 2476,
      "Ġheld": 2477,
      "Ġwent": 2478,
      "Ġtemper": 2479,
      "ĠDuring": 2480,
      "Ġsure": 2481,
      "Ġtaken": 2482,
      "time": 2483,
      "ĠAb": 2484,
      "ĠSu": 2485,
      "Ġmind": 2486,
      "Ġmess": 2487,
      "omm": 2488,
      "Ġplayed": 2489,
      "estern": 2490,
      "rite": 2491,
      "Ġder": 2492,
      "Ġachie": 2493,
      "Ġang": 2494,
      "ields": 2495,
      "Ġsense": 2496,
      "go": 2497,
      "ened": 2498,
      "ategory": 2499,
      "ĠSy": 2500,
      "ĠDes": 2501,
      "ĠQu": 2502,
      "ibility": 2503,
      "amm": 2504,
      "ties": 2505,
      "Ġvideo": 2506,
      "Ġmor": 2507,
      "pecially": 2508,
      "Ġcreated": 2509,
      "Ġenough": 2510,
      "Ġidea": 2511,
      "Ġur": 2512,
      "Ġalthough": 2513,
      "Ġreason": 2514,
      "Ġreach": 2515,
      "Ġbenef": 2516,
      "Ġincrease": 2517,
      "ires": 2518,
      "ĠSee": 2519,
      "Ġconditions": 2520,
      "Ġdiscuss": 2521,
      "Ġstructure": 2522,
      "che": 2523,
      "file": 2524,
      "bl": 2525,
      "Ġlove": 2526,
      "Ġinstead": 2527,
      "Here": 2528,
      "ĠCo": 2529,
      "aving": 2530,
      "Ġblood": 2531,
      "Ġforce": 2532,
      "fe": 2533,
      "Ġill": 2534,
      "Ġ\\[": 2535,
      "rew": 2536,
      "Ġdecl": 2537,
      "ĠHere": 2538,
      "Ġ\\)": 2539,
      "Ġsound": 2540,
      "Ġrespons": 2541,
      "Ġformer": 2542,
      "Ġord": 2543,
      "Ġpie": 2544,
      "rem": 2545,
      "ĠBar": 2546,
      "Ġheart": 2547,
      "Ġreally": 2548,
      "date": 2549,
      "ĠPol": 2550,
      "equ": 2551,
      "iddle": 2552,
      "nces": 2553,
      "Ġdone": 2554,
      "Ġdoc": 2555,
      "Ġproblems": 2556,
      "word": 2557,
      "Ġhigher": 2558,
      "Ġste": 2559,
      "Ġcut": 2560,
      "ĠGener": 2561,
      "lected": 2562,
      "Ġbir": 2563,
      "inary": 2564,
      "rix": 2565,
      "aur": 2566,
      "Ġfac": 2567,
      "Ġofficial": 2568,
      "Ġlikely": 2569,
      "Ġfrequ": 2570,
      "Al": 2571,
      "Ġgroups": 2572,
      "Ġconver": 2573,
      "reed": 2574,
      "Ġdeveloped": 2575,
      "Ġpay": 2576,
      "Ġimplement": 2577,
      "Ġsimple": 2578,
      "ensive": 2579,
      "gress": 2580,
      "ring": 2581,
      "ĠAss": 2582,
      "Ġlay": 2583,
      "odes": 2584,
      "Ġcoll": 2585,
      "Ġmakes": 2586,
      "ĠFeb": 2587,
      "########": 2588,
      "ends": 2589,
      "Ġhimself": 2590,
      "ĠâĢĺ": 2591,
      "ike": 2592,
      "Ġsentence": 2593,
      "Ġexact": 2594,
      "elling": 2595,
      "Ġitself": 2596,
      "ero": 2597,
      "ĠChar": 2598,
      "Ġprevent": 2599,
      "itch": 2600,
      "Ġcross": 2601,
      "ometimes": 2602,
      "Ġmonths": 2603,
      "Ġpublished": 2604,
      "Ġstyle": 2605,
      "Ġsystems": 2606,
      "Ġdou": 2607,
      "pite": 2608,
      "ump": 2609,
      "Ġchall": 2610,
      "ĠHar": 2611,
      "Ġprovided": 2612,
      "Ġdat": 2613,
      "Ġtrack": 2614,
      "ortun": 2615,
      "Ġbehav": 2616,
      ",\"": 2617,
      "AS": 2618,
      "Ġcharacters": 2619,
      "Ġfig": 2620,
      "ĠMed": 2621,
      "Ġwhy": 2622,
      "Wh": 2623,
      "ĠMin": 2624,
      "Ġengine": 2625,
      "Ġwhite": 2626,
      "Ġfuture": 2627,
      "Ġfather": 2628,
      "ĠWest": 2629,
      "ĠAcc": 2630,
      "Ġfav": 2631,
      "iol": 2632,
      "Ġcompet": 2633,
      "import": 2634,
      "Ġclos": 2635,
      "Ġloss": 2636,
      "Ġequal": 2637,
      "ief": 2638,
      "Ġhistor": 2639,
      "Ġever": 2640,
      "ille": 2641,
      "Ġespecially": 2642,
      "Ġanalysis": 2643,
      "Ġgra": 2644,
      "ruary": 2645,
      "ift": 2646,
      "inf": 2647,
      "Ġuser": 2648,
      "iate": 2649,
      "Ġdeg": 2650,
      "ledge": 2651,
      "ceed": 2652,
      "Ġconsist": 2653,
      "Ġstates": 2654,
      "agement": 2655,
      "Ġconnect": 2656,
      "Ġrisk": 2657,
      "Ġlive": 2658,
      "Ġroad": 2659,
      "value": 2660,
      "AL": 2661,
      "iven": 2662,
      "Ġpattern": 2663,
      "ĠDav": 2664,
      "Ġground": 2665,
      "Ġneeds": 2666,
      "ĠEngland": 2667,
      "ĠEl": 2668,
      "Ġconcept": 2669,
      "Ġcases": 2670,
      "])": 2671,
      "Ġrequired": 2672,
      "Ġden": 2673,
      "Ġmodern": 2674,
      "cript": 2675,
      "oute": 2676,
      "Ġquick": 2677,
      "Er": 2678,
      "Ġwid": 2679,
      "Ġsquare": 2680,
      "ĠCanad": 2681,
      "ivil": 2682,
      "su": 2683,
      "ols": 2684,
      "Ġlearning": 2685,
      "Ġplant": 2686,
      "ils": 2687,
      "uments": 2688,
      "Ġmoney": 2689,
      "Ġcontain": 2690,
      "Ġclose": 2691,
      "ĠAfric": 2692,
      "Ġexc": 2693,
      "Ġrecogn": 2694,
      "lands": 2695,
      "Ġrequire": 2696,
      "Ġsurface": 2697,
      "Ġlost": 2698,
      "ites": 2699,
      "ĠSince": 2700,
      "irl": 2701,
      "ĠSim": 2702,
      "ĠAmerica": 2703,
      "Ġnational": 2704,
      "reet": 2705,
      "Ġserv": 2706,
      "Ġtarget": 2707,
      "ĠMy": 2708,
      "Ġscient": 2709,
      "erson": 2710,
      "ption": 2711,
      "Ġmarket": 2712,
      "Ġgun": 2713,
      "selves": 2714,
      "Ġminutes": 2715,
      "Ġregular": 2716,
      "Ġtaking": 2717,
      "Ġproduced": 2718,
      "pre": 2719,
      "ĠCount": 2720,
      "RE": 2721,
      "Ġparent": 2722,
      "icy": 2723,
      "Ġ</": 2724,
      "ades": 2725,
      "Ġtravel": 2726,
      "Ġadded": 2727,
      "Ġparts": 2728,
      "rest": 2729,
      "ĠState": 2730,
      "Ġelement": 2731,
      "met": 2732,
      "Ġarri": 2733,
      "oor": 2734,
      "Ġflow": 2735,
      "Ġrelease": 2736,
      "atively": 2737,
      "roy": 2738,
      "erve": 2739,
      "IT": 2740,
      "Ġsource": 2741,
      "Ġevents": 2742,
      "Ġways": 2743,
      "ony": 2744,
      "ĠPres": 2745,
      "Ġarch": 2746,
      "ype": 2747,
      "ĠCity": 2748,
      "Ġbig": 2749,
      "Ġregion": 2750,
      "ondon": 2751,
      "ster": 2752,
      "ĠFebruary": 2753,
      "atory": 2754,
      "Ġexcept": 2755,
      "Ġmultiple": 2756,
      "Ġcontinued": 2757,
      "Ġpolitical": 2758,
      "anced": 2759,
      "oe": 2760,
      "Ġaud": 2761,
      "Ġfeature": 2762,
      "ĠIntern": 2763,
      "order": 2764,
      "ham": 2765,
      "Ġaccept": 2766,
      "Ġprotect": 2767,
      "verse": 2768,
      "Ġwhole": 2769,
      "Ġalmost": 2770,
      "ht": 2771,
      "Ġuses": 2772,
      "Ġcommunity": 2773,
      "andom": 2774,
      ";/": 2775,
      "izing": 2776,
      "Ġsym": 2777,
      "ĠSm": 2778,
      "Ġplayer": 2779,
      "Ġson": 2780,
      "isc": 2781,
      "Ġsolution": 2782,
      "oice": 2783,
      "Ġspeed": 2784,
      "ĠPer": 2785,
      "Ġcustom": 2786,
      "ĠVal": 2787,
      "Ġtitle": 2788,
      "Ġsite": 2789,
      "yr": 2790,
      "ana": 2791,
      "ixed": 2792,
      "ĠTw": 2793,
      "irt": 2794,
      "Ġrul": 2795,
      "Ġwrite": 2796,
      "Ġfeatures": 2797,
      "ama": 2798,
      "Ġmiss": 2799,
      "Ġsuccessful": 2800,
      "Ġeffort": 2801,
      "Ġpersonal": 2802,
      "Ġgave": 2803,
      "ĠPe": 2804,
      "Ġtypes": 2805,
      "Ġcannot": 2806,
      "Ġcoun": 2807,
      "sub": 2808,
      "Ġmid": 2809,
      "hemat": 2810,
      "pper": 2811,
      "Ġtoday": 2812,
      "True": 2813,
      "Ġsays": 2814,
      "Ġdisease": 2815,
      ")^": 2816,
      "Ġbelow": 2817,
      "ĠCor": 2818,
      "arc": 2819,
      "Ġaccording": 2820,
      "Ġtele": 2821,
      "ĠĠĠĠĠĠĠĠĠĠĠĠĠĠĠĠĠĠĠĠĠĠĠĠĠĠĠĠĠĠĠĠ": 2822,
      "off": 2823,
      "Ġdifference": 2824,
      "Ġthroughout": 2825,
      "utions": 2826,
      "aging": 2827,
      ");": 2828,
      "cret": 2829,
      "Ġcareer": 2830,
      "IC": 2831,
      "Ġlevels": 2832,
      "Error": 2833,
      "itor": 2834,
      "omb": 2835,
      "aul": 2836,
      "aches": 2837,
      "Ġrequest": 2838,
      "Ġgrowth": 2839,
      "iles": 2840,
      "Ġrelated": 2841,
      "ta": 2842,
      "Ġsoft": 2843,
      "Ġdraw": 2844,
      "Ġnature": 2845,
      "Ġyet": 2846,
      "ĠBat": 2847,
      "Ġphot": 2848,
      "ĠKe": 2849,
      "Ġpriv": 2850,
      "Ġstarted": 2851,
      "icro": 2852,
      ";&": 2853,
      "Ġremov": 2854,
      "ĠAlthough": 2855,
      "arrow": 2856,
      "Ġmeaning": 2857,
      "ication": 2858,
      "cks": 2859,
      "ands": 2860,
      "inct": 2861,
      "vey": 2862,
      "Ġstri": 2863,
      "Ġevidence": 2864,
      "Ġpair": 2865,
      "Con": 2866,
      "Ġvict": 2867,
      "Ġreported": 2868,
      "anks": 2869,
      "Ġcat": 2870,
      "ĠPart": 2871,
      "Ġindepend": 2872,
      "hel": 2873,
      "iqu": 2874,
      "ford": 2875,
      "Ġoutput": 2876,
      "ĠMus": 2877,
      "Ġcast": 2878,
      "Ġten": 2879,
      "ĠLondon": 2880,
      "ĠAng": 2881,
      "ĠRep": 2882,
      "Ġarr": 2883,
      "Ġsun": 2884,
      "oura": 2885,
      "Ġcolor": 2886,
      "rought": 2887,
      "Ġsuff": 2888,
      "ager": 2889,
      "ID": 2890,
      "fact": 2891,
      "artment": 2892,
      "Ġfem": 2893,
      "},": 2894,
      "ension": 2895,
      "Ġhor": 2896,
      "Ġsides": 2897,
      "Ġlines": 2898,
      "ĠIm": 2899,
      "ĠSw": 2900,
      "ground": 2901,
      "now": 2902,
      "Ġdeep": 2903,
      "Ġtheory": 2904,
      "Ġhost": 2905,
      "Ġmilitary": 2906,
      "Ġregard": 2907,
      "ĠMich": 2908,
      "Ġstorm": 2909,
      "Ġtalk": 2910,
      "load": 2911,
      "ĠMon": 2912,
      "Ġreturned": 2913,
      "Ġdistance": 2914,
      "Ġessential": 2915,
      "{{": 2916,
      "Un": 2917,
      "Ġmom": 2918,
      "Ġparticip": 2919,
      "ele": 2920,
      "]]''": 2921,
      "ips": 2922,
      "Ġimage": 2923,
      "title": 2924,
      "Ġmag": 2925,
      "ĠRuss": 2926,
      "Ġcontext": 2927,
      "Ġintegr": 2928,
      "Ġgenerally": 2929,
      "arily": 2930,
      "Ġdistribution": 2931,
      "Ġmiles": 2932,
      "Ġsou": 2933,
      "erous": 2934,
      "Ġeffects": 2935,
      "Ġquestions": 2936,
      "obal": 2937,
      "Ġearli": 2938,
      "Ġforces": 2939,
      "Ġfund": 2940,
      "Ġmoved": 2941,
      "Ġsaw": 2942,
      "Ġseem": 2943,
      "Ġcountries": 2944,
      "Ġstop": 2945,
      "ĠGl": 2946,
      "Ġcontent": 2947,
      "Ġmach": 2948,
      "ĠHist": 2949,
      "Ġbit": 2950,
      "era": 2951,
      "Ġbehind": 2952,
      "Ġimm": 2953,
      "imal": 2954,
      "war": 2955,
      "Ġsens": 2956,
      "ection": 2957,
      "ivity": 2958,
      "ement": 2959,
      "Ġtour": 2960,
      "='": 2961,
      "Re": 2962,
      "Ġlat": 2963,
      "Ġsort": 2964,
      "ĠPark": 2965,
      "Ġunderstanding": 2966,
      "ĠEm": 2967,
      "chan": 2968,
      "Ġtraining": 2969,
      "Ġaccom": 2970,
      "ĠGeneral": 2971,
      "ĠAct": 2972,
      "Ġquality": 2973,
      "Ġconcern": 2974,
      "ĠHigh": 2975,
      "Ġut": 2976,
      "Ġapprox": 2977,
      "Ġdetermine": 2978,
      "lin": 2979,
      "ĠRiver": 2980,
      "Ġweight": 2981,
      "ĠLet": 2982,
      "ĠHer": 2983,
      "bor": 2984,
      "ington": 2985,
      "Ġlot": 2986,
      "Ġneeded": 2987,
      "uel": 2988,
      "Ġcomplete": 2989,
      "init": 2990,
      "uk": 2991,
      "Ġfactors": 2992,
      "Ġremain": 2993,
      "Ġexec": 2994,
      "Ġmeasure": 2995,
      "Ġprovides": 2996,
      "Ġshall": 2997,
      "LE": 2998,
      "AC": 2999,
      "ithm": 3000,
      "Ġincreased": 3001,
      "abor": 3002,
      "Ġface": 3003,
      "raw": 3004,
      "Ġcover": 3005,
      "men": 3006,
      "Ġrecomm": 3007,
      "orge": 3008,
      "\".": 3009,
      "Ġthing": 3010,
      "===": 3011,
      "Ġprobability": 3012,
      "cos": 3013,
      "Ġter": 3014,
      "Ġissues": 3015,
      "Ġeffic": 3016,
      "Ġleading": 3017,
      "Ġdesigned": 3018,
      "istics": 3019,
      "ply": 3020,
      "ĠÃ": 3021,
      "uff": 3022,
      "ental": 3023,
      "aly": 3024,
      "Ġadditional": 3025,
      "ournal": 3026,
      "Ġexpected": 3027,
      "curity": 3028,
      "Ġ!": 3029,
      "fect": 3030,
      "thern": 3031,
      "anch": 3032,
      "BC": 3033,
      "\\[": 3034,
      "Ġgreater": 3035,
      "Ġbring": 3036,
      "hib": 3037,
      "Ġissue": 3038,
      "igned": 3039,
      "Ġinj": 3040,
      "Ġbroad": 3041,
      "itude": 3042,
      "page": 3043,
      "Ġsequence": 3044,
      "osition": 3045,
      "enc": 3046,
      "Ġgrad": 3047,
      "Ġfront": 3048,
      "hold": 3049,
      "bit": 3050,
      "Ġking": 3051,
      "inst": 3052,
      "Ġshows": 3053,
      "Ġfollowed": 3054,
      "Ġparticularly": 3055,
      "Ġsometimes": 3056,
      "ought": 3057,
      "fficient": 3058,
      "nown": 3059,
      "NA": 3060,
      "oud": 3061,
      "cast": 3062,
      "Ġtable": 3063,
      "used": 3064,
      "pped": 3065,
      "Ġphysical": 3066,
      "Ġlack": 3067,
      "Ġprinc": 3068,
      "Ġpack": 3069,
      "Ġstren": 3070,
      "Ġmother": 3071,
      "].": 3072,
      "where": 3073,
      "hern": 3074,
      "Ġcaused": 3075,
      "Ġgoal": 3076,
      "And": 3077,
      "Ġactually": 3078,
      "sing": 3079,
      "Ġthemselves": 3080,
      "ropical": 3081,
      "Ġcells": 3082,
      "Ġtask": 3083,
      "ĠReg": 3084,
      "Ġensure": 3085,
      "Ġeight": 3086,
      "Ġroom": 3087,
      "Ġavoid": 3088,
      "Ġsurv": 3089,
      "ening": 3090,
      "Pro": 3091,
      "Ġsil": 3092,
      "Ġrelig": 3093,
      "Ġtowards": 3094,
      "cdot": 3095,
      "ĠAccording": 3096,
      "Ġreve": 3097,
      "reek": 3098,
      "Ġexperien": 3099,
      "Ġbox": 3100,
      "Ġlooking": 3101,
      "ĠSch": 3102,
      "bon": 3103,
      "ellow": 3104,
      "Ġaddress": 3105,
      "gers": 3106,
      "ĠOther": 3107,
      "ĠAir": 3108,
      "rm": 3109,
      "Ġlargest": 3110,
      "Ġnecessary": 3111,
      "When": 3112,
      "like": 3113,
      "Ġeast": 3114,
      "ĠDon": 3115,
      "Ġliving": 3116,
      "light": 3117,
      "Ġestablished": 3118,
      "Ġestim": 3119,
      "Ġsearch": 3120,
      "Ġmount": 3121,
      "Ġpressure": 3122,
      "da": 3123,
      "ĠMr": 3124,
      "inter": 3125,
      "ĠSoc": 3126,
      "Ġhon": 3127,
      "ĠComp": 3128,
      "Ġunique": 3129,
      "Ġlonger": 3130,
      "So": 3131,
      "Ġlarger": 3132,
      "ext": 3133,
      "Ġbal": 3134,
      "ĠDr": 3135,
      "ĠNot": 3136,
      "ĠâĪ": 3137,
      "Ġprec": 3138,
      "asc": 3139,
      "Ġpaper": 3140,
      "rack": 3141,
      "Ġassociated": 3142,
      "Ġgraph": 3143,
      "Ġoutside": 3144,
      "Ġdire": 3145,
      "Ġwest": 3146,
      "leep": 3147,
      "Ġeducation": 3148,
      "ribute": 3149,
      "Ġincreasing": 3150,
      "ography": 3151,
      "Â·": 3152,
      "wise": 3153,
      "Ġtreatment": 3154,
      "Ġknowledge": 3155,
      "Ġscience": 3156,
      "Ġcru": 3157,
      "Ġdied": 3158,
      "Ġhom": 3159,
      "Ġcontains": 3160,
      "iers": 3161,
      "Ġstay": 3162,
      "Ġrat": 3163,
      "Ġsection": 3164,
      "field": 3165,
      "ino": 3166,
      "aign": 3167,
      "Ġsex": 3168,
      "Ġsoon": 3169,
      "Ġcontr": 3170,
      "Ġformed": 3171,
      "tim": 3172,
      "Ġchem": 3173,
      "Ġanc": 3174,
      "uous": 3175,
      "ica": 3176,
      "Ġprior": 3177,
      "Ġunits": 3178,
      "Ġreturns": 3179,
      "Ġaltern": 3180,
      "Ġmember": 3181,
      "adem": 3182,
      "round": 3183,
      "ĠEarth": 3184,
      "Ġmethods": 3185,
      "lection": 3186,
      "ĠBro": 3187,
      "orthern": 3188,
      "ĠYour": 3189,
      "ributed": 3190,
      "Ġconne": 3191,
      "icles": 3192,
      "Ġsea": 3193,
      "fig": 3194,
      ")|": 3195,
      "Ġparam": 3196,
      "Now": 3197,
      "times": 3198,
      "Ġnetwork": 3199,
      "gor": 3200,
      "Ġfunctions": 3201,
      "ĠBo": 3202,
      "ession": 3203,
      "Im": 3204,
      "Ġclim": 3205,
      "ender": 3206,
      "Ġmatter": 3207,
      "Ġdeal": 3208,
      "mat": 3209,
      "Ġerror": 3210,
      "Ġannoun": 3211,
      "Ġoverall": 3212,
      "eks": 3213,
      "Ġcommit": 3214,
      "Ġgives": 3215,
      "Ġdestroy": 3216,
      "Ġwall": 3217,
      "Ġvariable": 3218,
      "itation": 3219,
      "Ã¡": 3220,
      "oyal": 3221,
      "ĠDep": 3222,
      "IS": 3223,
      "Ġbattle": 3224,
      "Ġlink": 3225,
      "Ġarticle": 3226,
      "Ġformula": 3227,
      "Ġdate": 3228,
      "ĠTrue": 3229,
      "Ġinvolved": 3230,
      "ĠFirst": 3231,
      "Ġconduct": 3232,
      "hing": 3233,
      "Ġwhose": 3234,
      "Ġassert": 3235,
      "isf": 3236,
      "ifying": 3237,
      "ĠApp": 3238,
      ")$": 3239,
      "oted": 3240,
      "Ġnormal": 3241,
      "iber": 3242,
      "pi": 3243,
      "Ġcorresp": 3244,
      "Ġlocated": 3245,
      "atives": 3246,
      "Ġrow": 3247,
      "Ġfit": 3248,
      "ĠStud": 3249,
      "Ġcalculate": 3250,
      "Ġfriends": 3251,
      "Ġexpression": 3252,
      "Ġbound": 3253,
      "ĠAustralia": 3254,
      "Ġability": 3255,
      "Ġincludes": 3256,
      "Ġpractice": 3257,
      "Ġchart": 3258,
      "het": 3259,
      "Ġemb": 3260,
      "ĠJames": 3261,
      "Ġclub": 3262,
      "ald": 3263,
      "Ġcenter": 3264,
      "Ġshare": 3265,
      "Ã¶": 3266,
      "clusion": 3267,
      "Ġservices": 3268,
      "Ġthus": 3269,
      "Ġdirectly": 3270,
      "ara": 3271,
      "isions": 3272,
      "Ġtechnology": 3273,
      "Ġstar": 3274,
      "Ġcentral": 3275,
      "Ġarm": 3276,
      "acc": 3277,
      "Ġdoing": 3278,
      "Ġbrought": 3279,
      "ael": 3280,
      "Ġfight": 3281,
      "Ġrock": 3282,
      "Ġsal": 3283,
      "rec": 3284,
      "Ġparty": 3285,
      "ĠCont": 3286,
      "ĠJack": 3287,
      "Ġfelt": 3288,
      "Ġopportun": 3289,
      "Ġarray": 3290,
      "pose": 3291,
      "Ġimmed": 3292,
      "eters": 3293,
      "Ġfeed": 3294,
      "Ġround": 3295,
      "ĠEast": 3296,
      "Ġquant": 3297,
      "Ġexactly": 3298,
      "Ġdom": 3299,
      "dis": 3300,
      "Ġstru": 3301,
      "Ġraise": 3302,
      "Ġbill": 3303,
      "Ġflu": 3304,
      "cil": 3305,
      "Ġnegative": 3306,
      "Ġwood": 3307,
      "Ġproduce": 3308,
      "ĠPhil": 3309,
      "ĠThen": 3310,
      "board": 3311,
      "Ġdamage": 3312,
      "----------------": 3313,
      "Ġ'''": 3314,
      "plit": 3315,
      "Ġadj": 3316,
      "sin": 3317,
      "Ġmedia": 3318,
      "ĠSchool": 3319,
      "Ġcomputer": 3320,
      "Ġcoast": 3321,
      "Ġdoesn": 3322,
      "Ġblock": 3323,
      "ĠÎ": 3324,
      "joy": 3325,
      "ait": 3326,
      "Ġconstant": 3327,
      "Ġallowed": 3328,
      "part": 3329,
      "Ġconsum": 3330,
      "ĠIndian": 3331,
      "Ġdecision": 3332,
      "Ġslow": 3333,
      "Ġfra": 3334,
      "Ġtax": 3335,
      "Ġanaly": 3336,
      "Ġplants": 3337,
      "Ġfactor": 3338,
      "Ġexpress": 3339,
      "ĠFrom": 3340,
      "Ġwebs": 3341,
      "Ġwalk": 3342,
      "::": 3343,
      "ircraft": 3344,
      "Ġsimply": 3345,
      "minist": 3346,
      "itions": 3347,
      "Ġshown": 3348,
      "Ġviol": 3349,
      "vere": 3350,
      "estamp": 3351,
      "Ġstation": 3352,
      "Ġbul": 3353,
      "Ġmessage": 3354,
      "Ġstated": 3355,
      "Ġproducts": 3356,
      "Ġthreat": 3357,
      "Ġemer": 3358,
      "with": 3359,
      "Ġcomes": 3360,
      "hood": 3361,
      "ares": 3362,
      "Ġdefe": 3363,
      "'d": 3364,
      "alled": 3365,
      "Ġcred": 3366,
      "pec": 3367,
      "Ġtold": 3368,
      "inn": 3369,
      "Ġactivities": 3370,
      "Cl": 3371,
      "ĠDiv": 3372,
      "ĠEuropean": 3373,
      "aily": 3374,
      "Ġbooks": 3375,
      "ĠMor": 3376,
      "Ġassum": 3377,
      "Ġsolve": 3378,
      "Ġrefer": 3379,
      "Ġmer": 3380,
      "Ġscore": 3381,
      "Ġproperty": 3382,
      "Ġrecorded": 3383,
      "Ġliter": 3384,
      "abit": 3385,
      "ĠDavid": 3386,
      "olic": 3387,
      "Ġsteps": 3388,
      "Ġactivity": 3389,
      "ĠHol": 3390,
      "Ġbur": 3391,
      "ĠJapanese": 3392,
      "(\\": 3393,
      "Ġesc": 3394,
      "Ġweeks": 3395,
      "down": 3396,
      "osing": 3397,
      "Ġtro": 3398,
      "ĠWilliam": 3399,
      "Ġdog": 3400,
      "Ġnames": 3401,
      "ampions": 3402,
      "unch": 3403,
      "irm": 3404,
      "Ġanything": 3405,
      "Ġeffective": 3406,
      "Ġplayers": 3407,
      "rie": 3408,
      "asons": 3409,
      "pha": 3410,
      "anish": 3411,
      "Ġfamil": 3412,
      "Ġcontinue": 3413,
      "Ġreached": 3414,
      "ĠRed": 3415,
      "Ġsimpl": 3416,
      "point": 3417,
      "ĠCons": 3418,
      "Is": 3419,
      "Ġunit": 3420,
      "Ġdark": 3421,
      "Ġseven": 3422,
      "Let": 3423,
      "Ġstage": 3424,
      "Ġargument": 3425,
      "boxed": 3426,
      "Ġ__": 3427,
      "unk": 3428,
      "Ġperformed": 3429,
      "Ġcolumn": 3430,
      "py": 3431,
      "Ġworked": 3432,
      "Ġvill": 3433,
      "Ġlocation": 3434,
      "Ġmagn": 3435,
      "Ġtemperature": 3436,
      "Ġbrother": 3437,
      "Ġbehavior": 3438,
      "Ġoffer": 3439,
      "ban": 3440,
      "Ġfish": 3441,
      "Ġinn": 3442,
      "Ġstatement": 3443,
      "Ġproperties": 3444,
      "]])": 3445,
      "Ġcompon": 3446,
      "Ġinteger": 3447,
      "Ġresources": 3448,
      "Ġbelieve": 3449,
      "inks": 3450,
      "Ġmaximum": 3451,
      "oes": 3452,
      "Ġmechan": 3453,
      "Ġoffice": 3454,
      "Ġstudent": 3455,
      "Ġdemon": 3456,
      "Ġdocument": 3457,
      "ibrary": 3458,
      "Ġremained": 3459,
      "Ġhit": 3460,
      "Ġreduce": 3461,
      "unction": 3462,
      "bur": 3463,
      "Ġemot": 3464,
      "Ġborn": 3465,
      "ĠAg": 3466,
      "mar": 3467,
      "Ġpage": 3468,
      "ports": 3469,
      "rict": 3470,
      "imin": 3471,
      ")(": 3472,
      "astic": 3473,
      "Ġallows": 3474,
      "Ġquickly": 3475,
      "=&": 3476,
      "ĠBlack": 3477,
      "Ġsmaller": 3478,
      "ership": 3479,
      "Ġvisit": 3480,
      "lant": 3481,
      "ha": 3482,
      "Ġrights": 3483,
      "oo": 3484,
      "Ġcampaign": 3485,
      "ĠHouse": 3486,
      "ĠFrance": 3487,
      "Ġpoor": 3488,
      "ref": 3489,
      "Ġmodels": 3490,
      "ris": 3491,
      "Ġasked": 3492,
      "Ġconstruction": 3493,
      "Ġideas": 3494,
      "Ġcritic": 3495,
      "Ġbeginning": 3496,
      "Ġchalleng": 3497,
      "ĠCounty": 3498,
      "eed": 3499,
      "SE": 3500,
      "Ġonline": 3501,
      "Ġappl": 3502,
      "Ġconstruct": 3503,
      "ky": 3504,
      "ĠGeorge": 3505,
      "Ġforms": 3506,
      "Ġaircraft": 3507,
      "Ġsus": 3508,
      "Ġnovel": 3509,
      "Ġtrying": 3510,
      "None": 3511,
      "RO": 3512,
      "vert": 3513,
      "stitute": 3514,
      "Ġattention": 3515,
      "ped": 3516,
      "Ġkilled": 3517,
      "Ġvalid": 3518,
      "Ġcomplet": 3519,
      "ĠAI": 3520,
      "erate": 3521,
      "Ġmovement": 3522,
      "orks": 3523,
      "Ġeventually": 3524,
      "Ġskills": 3525,
      "bb": 3526,
      "Ġtree": 3527,
      "Ġprobably": 3528,
      "sych": 3529,
      "Ġinstance": 3530,
      "Ġetc": 3531,
      "Ġearlier": 3532,
      "unt": 3533,
      "Ġindustry": 3534,
      "ancial": 3535,
      "Ġships": 3536,
      "ĠThom": 3537,
      "Can": 3538,
      "Ġanimals": 3539,
      "Ġ{'": 3540,
      "ordin": 3541,
      "Ġstudies": 3542,
      "Ġrandom": 3543,
      "ucle": 3544,
      "Ġdefin": 3545,
      "Ġspeak": 3546,
      "II": 3547,
      "Ġmulti": 3548,
      "Ġgreen": 3549,
      "ĠRoman": 3550,
      "Ġprep": 3551,
      "Ġwanted": 3552,
      "Ġprogress": 3553,
      "Ġserved": 3554,
      "Ġbrain": 3555,
      "ributor": 3556,
      "ying": 3557,
      "alle": 3558,
      "He": 3559,
      "gar": 3560,
      "Ġletter": 3561,
      "ĠMat": 3562,
      "Ġmathemat": 3563,
      "come": 3564,
      "Ġrule": 3565,
      "roll": 3566,
      "Ġremaining": 3567,
      "Ġplaced": 3568,
      "urs": 3569,
      "Ġpassed": 3570,
      "Ġhighest": 3571,
      "ĠFalse": 3572,
      "quad": 3573,
      "Ġgold": 3574,
      "Ġcompan": 3575,
      "iforn": 3576,
      "Ġtou": 3577,
      "Ġwide": 3578,
      "ĠSun": 3579,
      "Ġcontact": 3580,
      "Ġaccur": 3581,
      "ĠLa": 3582,
      "Ġscen": 3583,
      "string": 3584,
      "wood": 3585,
      "Ġdead": 3586,
      "Ġhur": 3587,
      "Ġrunning": 3588,
      "fully": 3589,
      "ĠAnt": 3590,
      "Ġeconomic": 3591,
      "ĠOut": 3592,
      "earch": 3593,
      "ram": 3594,
      "known": 3595,
      "Ġbad": 3596,
      "lim": 3597,
      "timestamp": 3598,
      "Ġvoice": 3599,
      "oke": 3600,
      "Ġwife": 3601,
      "Ġdescript": 3602,
      "ĠĠĠĠĠĠ": 3603,
      "ĠPresident": 3604,
      "ĠArmy": 3605,
      "Ġnoted": 3606,
      "Ġheavy": 3607,
      "Ġdisplay": 3608,
      "Ġeyes": 3609,
      "ĠRet": 3610,
      "ĠIndia": 3611,
      "ĠGreat": 3612,
      "Ġinvestig": 3613,
      "Ġfollows": 3614,
      "Ġexerc": 3615,
      "ords": 3616,
      "Ġtransform": 3617,
      "Ġgetting": 3618,
      "ocal": 3619,
      "Ġgas": 3620,
      "Ġachieve": 3621,
      "Ġful": 3622,
      "Ġlimit": 3623,
      "Ġprice": 3624,
      "Ġphr": 3625,
      "Ġinfluence": 3626,
      "Ġconv": 3627,
      "Ġfail": 3628,
      "sum": 3629,
      "Ġearth": 3630,
      "Ġconvers": 3631,
      "Ġplaying": 3632,
      "Ġkill": 3633,
      "Ġhot": 3634,
      "aint": 3635,
      "Ġmention": 3636,
      "Ġvariety": 3637,
      "hens": 3638,
      "Ġdecided": 3639,
      "Ġoil": 3640,
      "ĠTherefore": 3641,
      "Ġcompared": 3642,
      "ags": 3643,
      "Ġpra": 3644,
      "sec": 3645,
      "Category": 3646,
      "Ġleave": 3647,
      "Ġobjects": 3648,
      "ĠHen": 3649,
      "aled": 3650,
      "Ġindividuals": 3651,
      "Ġsample": 3652,
      "Ġstarting": 3653,
      "ashington": 3654,
      "Ġmi": 3655,
      "Ġgirl": 3656,
      "Ġsaying": 3657,
      "`,": 3658,
      "book": 3659,
      "Ġcivil": 3660,
      "max": 3661,
      "Ġperfect": 3662,
      "Ġremains": 3663,
      "Ġmoment": 3664,
      "ifornia": 3665,
      "Com": 3666,
      "haps": 3667,
      "can": 3668,
      "Ġenjoy": 3669,
      "ĠArt": 3670,
      "Ġsomeone": 3671,
      "Ġplat": 3672,
      "Ġcomment": 3673,
      "Ġtransl": 3674,
      "ĠRober": 3675,
      "ios": 3676,
      "Ġbeaut": 3677,
      "append": 3678,
      "Ġalgor": 3679,
      "Ġwoman": 3680,
      "Ġeval": 3681,
      "Ġpurch": 3682,
      "Ġincor": 3683,
      "Ġdistinct": 3684,
      "Ġbecomes": 3685,
      "eration": 3686,
      "tained": 3687,
      "Ġhttp": 3688,
      "Ġinside": 3689,
      "Ġnothing": 3690,
      "ictionary": 3691,
      "Ġsongs": 3692,
      "Ġactive": 3693,
      "But": 3694,
      "Ġcapital": 3695,
      "Ġjud": 3696,
      "aching": 3697,
      "Ġtransport": 3698,
      "place": 3699,
      "Ġsymb": 3700,
      "change": 3701,
      "Ġrepe": 3702,
      "Ġrank": 3703,
      "Ġspread": 3704,
      "Ġadapt": 3705,
      "ederal": 3706,
      "bert": 3707,
      "ername": 3708,
      "Ġapproximately": 3709,
      "Ġchanged": 3710,
      "gl": 3711,
      "Ġsales": 3712,
      "comp": 3713,
      "ĠPort": 3714,
      "acter": 3715,
      "Ar": 3716,
      "Ġdemonstr": 3717,
      "Ġrecent": 3718,
      "Ġrace": 3719,
      "Ġspir": 3720,
      "ulations": 3721,
      "ĠTest": 3722,
      "Ġfavor": 3723,
      "ED": 3724,
      "Ġcourt": 3725,
      "Ġdefined": 3726,
      "eds": 3727,
      "Ġfast": 3728,
      "Ġoperations": 3729,
      "Ġturned": 3730,
      "Ġestablish": 3731,
      "asion": 3732,
      "Ġeasy": 3733,
      "opt": 3734,
      "ĠMany": 3735,
      "ĠChristian": 3736,
      "Ġmanagement": 3737,
      "jo": 3738,
      "Ġdirection": 3739,
      "ĠInternational": 3740,
      "Ġtypically": 3741,
      "Ġstra": 3742,
      "Ġsituation": 3743,
      "ken": 3744,
      "âĪ": 3745,
      "Ġstatus": 3746,
      "Ġinternational": 3747,
      "Ġquite": 3748,
      "ĠSan": 3749,
      "Ġinsp": 3750,
      "ĠCour": 3751,
      "ĠJust": 3752,
      "cean": 3753,
      "Ġculture": 3754,
      "ĠRich": 3755,
      "Ġforest": 3756,
      "US": 3757,
      "ĠAlex": 3758,
      "ett": 3759,
      "###": 3760,
      "ĠJew": 3761,
      "Ġroot": 3762,
      "Ġspent": 3763,
      "Ġlimited": 3764,
      "Ġstore": 3765,
      "Ġ''[[": 3766,
      "Ġsources": 3767,
      "ensity": 3768,
      "zz": 3769,
      "oles": 3770,
      "Ġteac": 3771,
      "stant": 3772,
      "umber": 3773,
      "Ġstreng": 3774,
      "ned": 3775,
      "agon": 3776,
      "Ġcritical": 3777,
      "mercial": 3778,
      "Ġdecre": 3779,
      "ico": 3780,
      "Ġchoice": 3781,
      "rief": 3782,
      "izes": 3783,
      "pid": 3784,
      "ĠNow": 3785,
      "Ġappeared": 3786,
      "ga": 3787,
      "Ġisland": 3788,
      "Ġscreen": 3789,
      "revision": 3790,
      "Ġformat": 3791,
      "Ġprimary": 3792,
      "Ġseems": 3793,
      "rong": 3794,
      "Ġfif": 3795,
      "ternal": 3796,
      "Equ": 3797,
      "Ġquar": 3798,
      "Ġpict": 3799,
      "Ġadult": 3800,
      "Ġmedical": 3801,
      ":**": 3802,
      "html": 3803,
      "Ġheat": 3804,
      "lict": 3805,
      "resh": 3806,
      "undred": 3807,
      "itar": 3808,
      "Ġprofessional": 3809,
      "\\)": 3810,
      "atus": 3811,
      "ET": 3812,
      "Ġsurround": 3813,
      "By": 3814,
      "Ġtelevision": 3815,
      "Ġbirth": 3816,
      "ĠChurch": 3817,
      "ĠCalifornia": 3818,
      "ĠAc": 3819,
      "ander": 3820,
      "Ġsatisf": 3821,
      "Ġmiddle": 3822,
      "Ġheav": 3823,
      "Ġglobal": 3824,
      "itable": 3825,
      "Ġft": 3826,
      "Ġcorrespond": 3827,
      "rial": 3828,
      "gment": 3829,
      "Ġextra": 3830,
      "ĠLeague": 3831,
      "Ġir": 3832,
      "Ġpow": 3833,
      "Â·Â·": 3834,
      "ĠWashington": 3835,
      "ĠAre": 3836,
      "Ġtas": 3837,
      "Ġcompleted": 3838,
      "Ġtraditional": 3839,
      "})": 3840,
      "Ġaspect": 3841,
      "Ġwat": 3842,
      "Ġsubsequ": 3843,
      "On": 3844,
      "ĠMad": 3845,
      "pot": 3846,
      "Ġfle": 3847,
      "AP": 3848,
      "ecause": 3849,
      "ux": 3850,
      "Ġdidn": 3851,
      "urb": 3852,
      "ĠMil": 3853,
      "ĠMost": 3854,
      "Ġox": 3855,
      "sect": 3856,
      "inese": 3857,
      "Ġidentify": 3858,
      "contributor": 3859,
      "utive": 3860,
      "Ġsett": 3861,
      "ĠDis": 3862,
      "dro": 3863,
      "Ġsaf": 3864,
      "Ġdru": 3865,
      "ĠĠĊ": 3866,
      "itect": 3867,
      "no": 3868,
      "pan": 3869,
      "Ġreb": 3870,
      "aughter": 3871,
      "Ġpolicy": 3872,
      "Ġbasic": 3873,
      "Ġgoals": 3874,
      "Ġslight": 3875,
      "Ġfinancial": 3876,
      "mission": 3877,
      "arm": 3878,
      "Ġclean": 3879,
      "Ġprivate": 3880,
      "Ġappears": 3881,
      "ĠStreet": 3882,
      "Ġbeg": 3883,
      "Ġworth": 3884,
      "Ġpredict": 3885,
      "Ġshape": 3886,
      "Ġoptions": 3887,
      "Ġcontract": 3888,
      "Ġcreating": 3889,
      "Ġhelps": 3890,
      "anged": 3891,
      "Ġcm": 3892,
      "Ġsec": 3893,
      "ĠMary": 3894,
      "imens": 3895,
      "db": 3896,
      "ratic": 3897,
      "cles": 3898,
      "uate": 3899,
      "Ġheight": 3900,
      "Ġbelieved": 3901,
      "Ġplot": 3902,
      "ĠBel": 3903,
      "ĠIr": 3904,
      "Ġforward": 3905,
      "actions": 3906,
      "Ġcarry": 3907,
      "Ġscript": 3908,
      "eful": 3909,
      "Ġtherefore": 3910,
      "Ġcand": 3911,
      "ĠOf": 3912,
      "ĠMore": 3913,
      "erences": 3914,
      "Ġprot": 3915,
      "Ġhands": 3916,
      "uted": 3917,
      "Ġorigin": 3918,
      "Ġvisual": 3919,
      "ampionship": 3920,
      "Ġroute": 3921,
      "Ġax": 3922,
      "amin": 3923,
      "ĠChina": 3924,
      "Ġresist": 3925,
      "Ġhous": 3926,
      "Ġchoose": 3927,
      "aling": 3928,
      "ech": 3929,
      "ĠPat": 3930,
      "Ġblue": 3931,
      "Ġresulting": 3932,
      "Ġsleep": 3933,
      "Ġsociety": 3934,
      "========": 3935,
      "Ġload": 3936,
      "ago": 3937,
      "Ġhighly": 3938,
      "(-": 3939,
      "Ġfat": 3940,
      "fort": 3941,
      "ĠMac": 3942,
      "rs": 3943,
      "Ġannounced": 3944,
      "ĠCanada": 3945,
      "ees": 3946,
      "ĠColle": 3947,
      "Ġchurch": 3948,
      "AM": 3949,
      "Ġcollect": 3950,
      "Ġappoint": 3951,
      "ĠJe": 3952,
      "Ġlen": 3953,
      "iter": 3954,
      "Ġoccup": 3955,
      "CT": 3956,
      "iques": 3957,
      "Ġwebsite": 3958,
      "Ġpresident": 3959,
      "Ġfru": 3960,
      "net": 3961,
      "Ġmaterials": 3962,
      "Ġlives": 3963,
      "aval": 3964,
      "Ġclimate": 3965,
      "ĠUnion": 3966,
      "enty": 3967,
      "Ġscene": 3968,
      "ocks": 3969,
      "Ġwhom": 3970,
      "ĠQue": 3971,
      "aught": 3972,
      "uild": 3973,
      "Ġpiece": 3974,
      "Ġinstr": 3975,
      "Ġsoftware": 3976,
      "Ġcrew": 3977,
      "ĠRepublic": 3978,
      "Ġopened": 3979,
      "url": 3980,
      "AB": 3981,
      "Ġindex": 3982,
      "AD": 3983,
      "Ġsem": 3984,
      "Ġdu": 3985,
      "Ġsecurity": 3986,
      "ĠBill": 3987,
      "Ġsummer": 3988,
      "Ġprime": 3989,
      "rian": 3990,
      "Ġparents": 3991,
      "rab": 3992,
      "iately": 3993,
      "Ġreplaced": 3994,
      "ĠPaul": 3995,
      "Ġdouble": 3996,
      "reme": 3997,
      "Ġvariables": 3998,
      "Ġ\\\\": 3999,
      "ptoms": 4000,
      "ii": 4001,
      "Ġthous": 4002,
      "Your": 4003,
      "Ġmoving": 4004,
      "ĠâĢĻ": 4005,
      "yond": 4006,
      "Ġult": 4007,
      "ĠMark": 4008,
      "Ġserious": 4009,
      "lor": 4010,
      "Ġbott": 4011,
      "ĠTrans": 4012,
      "Ġtend": 4013,
      "user": 4014,
      "Ġnut": 4015,
      "index": 4016,
      "Ġpurpose": 4017,
      "Ġpeak": 4018,
      "ĠCong": 4019,
      "Ġwatch": 4020,
      "rate": 4021,
      "Ġreading": 4022,
      "Ġacqu": 4023,
      "Ġitems": 4024,
      "Ġuseful": 4025,
      "mitted": 4026,
      "Ġoriginally": 4027,
      "ropri": 4028,
      "Ġcard": 4029,
      "fil": 4030,
      "Ġcosts": 4031,
      "ĠAustralian": 4032,
      "ĠGermany": 4033,
      "ube": 4034,
      "\"\"\"": 4035,
      "arg": 4036,
      "Ġtransfer": 4037,
      "Ġpick": 4038,
      "Ġsets": 4039,
      "den": 4040,
      "ĠDivision": 4041,
      "Ġarmy": 4042,
      "ĠĠĠĠĠĠĠĠĠĠĠĠĠĠĠĠĠĠĠĠĠĠĠ": 4043,
      "Ġmicro": 4044,
      "Ġstrength": 4045,
      "Ġ||": 4046,
      "Ġoperation": 4047,
      "Ġlif": 4048,
      "Ġruns": 4049,
      "Ġmachine": 4050,
      "Ġscale": 4051,
      "ĠTwo": 4052,
      "Ġaward": 4053,
      "ĠOh": 4054,
      "isl": 4055,
      "more": 4056,
      "Ġfigure": 4057,
      "orial": 4058,
      "Ġnote": 4059,
      "ĠMod": 4060,
      "ĠRec": 4061,
      "ynam": 4062,
      "Ġcancer": 4063,
      "Ġneigh": 4064,
      "ĠEach": 4065,
      "ĠGovern": 4066,
      "Ġprem": 4067,
      "idents": 4068,
      "Ġnearly": 4069,
      "Ġmm": 4070,
      "Ġdetails": 4071,
      "ĠDay": 4072,
      "ÃŃ": 4073,
      "vant": 4074,
      "istry": 4075,
      "rees": 4076,
      "Ġcircle": 4077,
      "Ġmemory": 4078,
      "Ġdivided": 4079,
      "ĠAssoc": 4080,
      "ĠWell": 4081,
      "username": 4082,
      "Ġmis": 4083,
      "ellig": 4084,
      "comment": 4085,
      "ros": 4086,
      "ăā": 4087,
      "Ġsnail": 4088,
      "Ġpen": 4089,
      "bf": 4090,
      "Ġindependent": 4091,
      "ĠRoad": 4092,
      "ĠMart": 4093,
      "uration": 4094,
      "|-": 4095,
      "ĠPal": 4096,
      "rol": 4097,
      "Ġdepend": 4098,
      "Ġeverything": 4099,
      "ĠCoun": 4100,
      "Ġresearc": 4101,
      "Ġencoura": 4102,
      "Ġopening": 4103,
      "Ġhope": 4104,
      "Ġelectric": 4105,
      "Ġfourth": 4106,
      "Ġhundred": 4107,
      "ĠChe": 4108,
      "aker": 4109,
      "():": 4110,
      "Ġcommercial": 4111,
      "state": 4112,
      "ava": 4113,
      "ĠWil": 4114,
      "lo": 4115,
      "Ġoption": 4116,
      "ronic": 4117,
      "ION": 4118,
      "ĠChinese": 4119,
      "ĠVir": 4120,
      "cel": 4121,
      "size": 4122,
      "airs": 4123,
      "Ġren": 4124,
      "group": 4125,
      "ache": 4126,
      "otal": 4127,
      "Ġancient": 4128,
      "ĠNor": 4129,
      "Ġaim": 4130,
      "Ġvia": 4131,
      "object": 4132,
      "Ġdegree": 4133,
      "Ġadminist": 4134,
      "ulated": 4135,
      "Ġexperiment": 4136,
      "Ġconcent": 4137,
      "Ġast": 4138,
      "Ġveh": 4139,
      "Ġdefault": 4140,
      "usion": 4141,
      "semb": 4142,
      "CO": 4143,
      "Ġdetect": 4144,
      "Ġos": 4145,
      "Therefore": 4146,
      "ey": 4147,
      "pres": 4148,
      "Ġfemale": 4149,
      "param": 4150,
      "uries": 4151,
      "ingu": 4152,
      "fr": 4153,
      "Ġimag": 4154,
      "Ġeye": 4155,
      "itz": 4156,
      "Ġpoll": 4157,
      "ricane": 4158,
      "Ġtrade": 4159,
      "Ġseparate": 4160,
      "ĠMet": 4161,
      "abel": 4162,
      "Ġboard": 4163,
      "Ġconnection": 4164,
      "Ġrelatively": 4165,
      "ĠHistory": 4166,
      "ĠIS": 4167,
      "Ġintegers": 4168,
      "ĠUse": 4169,
      "format": 4170,
      "anned": 4171,
      "Ġintroduced": 4172,
      "ĠMichael": 4173,
      "Ġriver": 4174,
      "Ġ('": 4175,
      "Ġtim": 4176,
      "ĠHenry": 4177,
      "ĠBer": 4178,
      "ulate": 4179,
      "ĠHall": 4180,
      "Ġtriangle": 4181,
      "ĠSystem": 4182,
      "count": 4183,
      "Ġlinear": 4184,
      "ãĥ": 4185,
      "UT": 4186,
      "Ġbenefits": 4187,
      "Ġdiet": 4188,
      "rupt": 4189,
      "Ġconfig": 4190,
      "elled": 4191,
      "osis": 4192,
      "Ġreplace": 4193,
      "List": 4194,
      "ev": 4195,
      "bra": 4196,
      "ĠĠĠĠĠĠĠĠĠĠĠĠĠĠĠĠĠĠĠĠĠĠĠĠ": 4197,
      "[\"": 4198,
      "Ġnews": 4199,
      "Ġexpand": 4200,
      "iring": 4201,
      "Sh": 4202,
      "ĠRoyal": 4203,
      "Ġsetting": 4204,
      "Ġpreviously": 4205,
      "Ġago": 4206,
      "Ġconclud": 4207,
      "Ġmorning": 4208,
      "vention": 4209,
      "Ġsust": 4210,
      "Ġcry": 4211,
      "iar": 4212,
      "Ġtrees": 4213,
      "Ġpresence": 4214,
      "elebr": 4215,
      "olar": 4216,
      "Ġobserv": 4217,
      "Ġtropical": 4218,
      "Ġrout": 4219,
      "Ġassess": 4220,
      "Ġcollection": 4221,
      "based": 4222,
      "Ġstress": 4223,
      "ĠSam": 4224,
      "ki": 4225,
      "ida": 4226,
      "Ġones": 4227,
      "Ġswe": 4228,
      "Ġdemand": 4229,
      "Ġnucle": 4230,
      "see": 4231,
      "Ġimmediately": 4232,
      "iful": 4233,
      "Ġchemical": 4234,
      "____": 4235,
      "uge": 4236,
      "ville": 4237,
      "Ġ?": 4238,
      "pen": 4239,
      "Ġgiving": 4240,
      "arden": 4241,
      "Ġzero": 4242,
      "Ġid": 4243,
      "Ġefficient": 4244,
      "Ġfa": 4245,
      "ĠBra": 4246,
      "Ġer": 4247,
      "pty": 4248,
      "room": 4249,
      "Ġvolume": 4250,
      "Ġdaily": 4251,
      "ufact": 4252,
      "do": 4253,
      "dir": 4254,
      "ĠCr": 4255,
      "Ġeat": 4256,
      "ĠMal": 4257,
      "Ġforced": 4258,
      "Ġeasily": 4259,
      "ibly": 4260,
      "Ġcompanies": 4261,
      "Ġfair": 4262,
      "Ġskin": 4263,
      "Ġmatrix": 4264,
      "ditionally": 4265,
      "Ġplease": 4266,
      "Ġexamples": 4267,
      "Ġcounter": 4268,
      "van": 4269,
      "Ġalone": 4270,
      "Since": 4271,
      "ĠSub": 4272,
      "Ġautom": 4273,
      "ĠTra": 4274,
      "ĠCollege": 4275,
      "well": 4276,
      "Ġfields": 4277,
      "Ġschools": 4278,
      "ĠInter": 4279,
      "band": 4280,
      "info": 4281,
      "ĠBen": 4282,
      "Ġwild": 4283,
      "ĠOver": 4284,
      "annel": 4285,
      "Ġpark": 4286,
      "tee": 4287,
      "ĠCenter": 4288,
      "Ã³": 4289,
      "leg": 4290,
      "Ġminor": 4291,
      "Ġapplication": 4292,
      "gu": 4293,
      "Ġconflict": 4294,
      "Ġrepresents": 4295,
      "ĠAfrica": 4296,
      "west": 4297,
      "Ġtrain": 4298,
      "ilos": 4299,
      "ears": 4300,
      "Ġsymptoms": 4301,
      "aper": 4302,
      "Ġcit": 4303,
      "Ġmanufact": 4304,
      "omial": 4305,
      "CH": 4306,
      "Ġmeeting": 4307,
      "ĠDem": 4308,
      "Ġremoved": 4309,
      "ĠRobert": 4310,
      "Ġstaff": 4311,
      "Ġfort": 4312,
      "Ġrapid": 4313,
      "porary": 4314,
      "Ġframe": 4315,
      "Ġcopy": 4316,
      "etime": 4317,
      "Ġitem": 4318,
      "Ġtroops": 4319,
      "ÂłÂł": 4320,
      "ervation": 4321,
      "ĠBay": 4322,
      "Ġtit": 4323,
      "otes": 4324,
      "ĠWhite": 4325,
      "ests": 4326,
      "Ġcarried": 4327,
      "mosp": 4328,
      "ĠIsland": 4329,
      "ours": 4330,
      "atin": 4331,
      "yp": 4332,
      "phas": 4333,
      "rael": 4334,
      "Ġshot": 4335,
      "ĠUp": 4336,
      "bre": 4337,
      "Ġleaves": 4338,
      "Ġappearance": 4339,
      "Ġpatients": 4340,
      "ĠSmith": 4341,
      "ĠUK": 4342,
      "Ġseek": 4343,
      "ny": 4344,
      "Ġimpl": 4345,
      "mark": 4346,
      "Ġrail": 4347,
      "Ġgeomet": 4348,
      "Ġcontroll": 4349,
      "Ġsouthern": 4350,
      "One": 4351,
      "ĠLaw": 4352,
      "ĠLou": 4353,
      "ĠWestern": 4354,
      "array": 4355,
      "Ġrot": 4356,
      "Ġroll": 4357,
      "However": 4358,
      "opy": 4359,
      "Ġtechniques": 4360,
      "enced": 4361,
      "house": 4362,
      "ĠKingdom": 4363,
      "Ġple": 4364,
      "td": 4365,
      "ria": 4366,
      "char": 4367,
      "Ġweather": 4368,
      "amples": 4369,
      "Ġobserved": 4370,
      "sm": 4371,
      "Ġproviding": 4372,
      "Ġanti": 4373,
      "Ġpref": 4374,
      "assertEqu": 4375,
      "ĠMex": 4376,
      "azine": 4377,
      "`.": 4378,
      "ously": 4379,
      "Ġrespectively": 4380,
      "\\]": 4381,
      "oat": 4382,
      "Ġprograms": 4383,
      "ĠSpanish": 4384,
      "Ġpowerful": 4385,
      "Ġleaving": 4386,
      "ancy": 4387,
      "Ġvir": 4388,
      "False": 4389,
      "Ġplatform": 4390,
      "Ġadvant": 4391,
      "Ġconstit": 4392,
      "Ġbrief": 4393,
      "ĠConf": 4394,
      "des": 4395,
      "ifically": 4396,
      "Ġmaintain": 4397,
      "nes": 4398,
      "Ġcapac": 4399,
      "berg": 4400,
      "Ġenem": 4401,
      "Ġrare": 4402,
      "Ġallowing": 4403,
      "Ġestimated": 4404,
      "Ġmole": 4405,
      "Ġselect": 4406,
      "Ġjoined": 4407,
      "odies": 4408,
      "la": 4409,
      "Ġradio": 4410,
      "Ġdang": 4411,
      "Ġnorthern": 4412,
      "Ġdivision": 4413,
      "Ġcoming": 4414,
      "Ġhop": 4415,
      "IP": 4416,
      "OT": 4417,
      "Ġdictionary": 4418,
      "Ġinitially": 4419,
      "Ġupper": 4420,
      "Ġdevice": 4421,
      "ĠPlay": 4422,
      "Ġded": 4423,
      "ĠBur": 4424,
      "ka": 4425,
      "Ġbank": 4426,
      "Ġrules": 4427,
      "rated": 4428,
      "Ġenter": 4429,
      "Ġinterview": 4430,
      "Ġdro": 4431,
      "enge": 4432,
      "Ġusers": 4433,
      "Ġplaces": 4434,
      "ĠSen": 4435,
      "ĠDef": 4436,
      "pret": 4437,
      "Ġpan": 4438,
      "Ġstrugg": 4439,
      "udd": 4440,
      "ĠThomas": 4441,
      "alpha": 4442,
      "icense": 4443,
      "ĠCam": 4444,
      "Ġcolon": 4445,
      "Ġreference": 4446,
      "Ġarchitect": 4447,
      "Ġintended": 4448,
      "Ġpatterns": 4449,
      "Ġfinished": 4450,
      "gypt": 4451,
      "Ġactual": 4452,
      "Ġnation": 4453,
      "Ġrespond": 4454,
      "Ġeth": 4455,
      "nel": 4456,
      "Ġpsych": 4457,
      "ĠAngel": 4458,
      "Ġgrowing": 4459,
      "Ġactions": 4460,
      "Ġbecoming": 4461,
      "ĠJer": 4462,
      "Ġwrong": 4463,
      "ns": 4464,
      "Ġrequires": 4465,
      "active": 4466,
      "Ġcarbon": 4467,
      "ĠTom": 4468,
      "Ġcauses": 4469,
      "Ġstars": 4470,
      "ctors": 4471,
      "ij": 4472,
      "Ġsuggests": 4473,
      "Ġproposed": 4474,
      "ĠDan": 4475,
      "}$.": 4476,
      "riage": 4477,
      "Ġnumerous": 4478,
      "Ġfailed": 4479,
      "Ġcompletely": 4480,
      "ĠCharles": 4481,
      "venue": 4482,
      "Ġdiscovered": 4483,
      "ĠPre": 4484,
      "Ġdifferences": 4485,
      "eta": 4486,
      "Ġthinking": 4487,
      "Ġapplied": 4488,
      "Ġconsequ": 4489,
      "Ġsch": 4490,
      "Ġbeyond": 4491,
      "ially": 4492,
      "Ġsevere": 4493,
      "Ġâī": 4494,
      "Ġheard": 4495,
      "Ġsafe": 4496,
      "Ġcelebr": 4497,
      "acing": 4498,
      "Ġacid": 4499,
      "Ġcompar": 4500,
      "Ġdrink": 4501,
      "Ġsupported": 4502,
      "config": 4503,
      "water": 4504,
      "ĠScott": 4505,
      "Ġmale": 4506,
      "Write": 4507,
      "Ġdatas": 4508,
      "Ġnp": 4509,
      "och": 4510,
      "ĠThus": 4511,
      "Ġyourself": 4512,
      "Ġice": 4513,
      "Ġsecret": 4514,
      "Ġburn": 4515,
      "Ġ([[": 4516,
      "ĠLord": 4517,
      "iant": 4518,
      "Ġanimal": 4519,
      "Ġangle": 4520,
      "conds": 4521,
      "Ġstrateg": 4522,
      "Ġsolutions": 4523,
      "Ġdespite": 4524,
      "pass": 4525,
      "oviet": 4526,
      "icate": 4527,
      "Ġqual": 4528,
      "Ġsuggested": 4529,
      "Ġapplications": 4530,
      "rical": 4531,
      "Ġtheore": 4532,
      "ĠCourt": 4533,
      "DE": 4534,
      "__(": 4535,
      "Ġreduced": 4536,
      "Ġfiles": 4537,
      "edy": 4538,
      "Ġroots": 4539,
      "Ġcontaining": 4540,
      "Gr": 4541,
      "Ġreligious": 4542,
      "ĠInst": 4543,
      "Ġpred": 4544,
      "isms": 4545,
      "ĠMount": 4546,
      "Ġmajority": 4547,
      "ĠBC": 4548,
      "Ġimportance": 4549,
      "space": 4550,
      "Ġbow": 4551,
      "Ġspect": 4552,
      ";#": 4553,
      "error": 4554,
      "ners": 4555,
      "ĠMusic": 4556,
      "ĠSing": 4557,
      "Ġinstit": 4558,
      "ĠHealth": 4559,
      "Ġenh": 4560,
      "vin": 4561,
      "allel": 4562,
      "Ġpeace": 4563,
      "ĠJes": 4564,
      "Ġcook": 4565,
      "tery": 4566,
      "hesis": 4567,
      "ĠInt": 4568,
      "Ġordered": 4569,
      "Ġrecommend": 4570,
      "osen": 4571,
      "Ġterrit": 4572,
      "asy": 4573,
      "Ġtools": 4574,
      "Ġdirector": 4575,
      "Ġtests": 4576,
      "args": 4577,
      "Ġcombination": 4578,
      "Ġresponsible": 4579,
      "ĠVirgin": 4580,
      "rig": 4581,
      "Ġcontrast": 4582,
      "ĠPri": 4583,
      "ĠUnder": 4584,
      "apter": 4585,
      "Ġcurrently": 4586,
      "Ad": 4587,
      "Ġdescribe": 4588,
      "ollowing": 4589,
      "Ġ[]": 4590,
      "ĠDespite": 4591,
      "efore": 4592,
      "Ġremember": 4593,
      "}}{": 4594,
      "UR": 4595,
      "Ġexplain": 4596,
      "Ġclosed": 4597,
      "izations": 4598,
      "Ġalt": 4599,
      "uman": 4600,
      "Ph": 4601,
      "kin": 4602,
      "Ġsafety": 4603,
      "Ġstraight": 4604,
      "aped": 4605,
      "Ġefforts": 4606,
      "ĠHam": 4607,
      "ĠGreen": 4608,
      "atur": 4609,
      "Ġdomin": 4610,
      "Ġmap": 4611,
      "Ġreferred": 4612,
      "Ġbalance": 4613,
      "ady": 4614,
      "Ġlabel": 4615,
      "Ġappropri": 4616,
      "Ġgain": 4617,
      "Ġdoll": 4618,
      "Ġtouch": 4619,
      "Ġscored": 4620,
      "enth": 4621,
      "Ġmetal": 4622,
      "=\\": 4623,
      "Ġratio": 4624,
      "Ġgrand": 4625,
      "ether": 4626,
      "gn": 4627,
      "ĠBritain": 4628,
      "ĠSl": 4629,
      "Ġsoil": 4630,
      "Ġreflect": 4631,
      "Ġvictory": 4632,
      "Ġatmosp": 4633,
      "Ġalgorithm": 4634,
      "Ġcities": 4635,
      "Ġkil": 4636,
      "ospital": 4637,
      "Ġfinally": 4638,
      "Ġfinding": 4639,
      "ĠGold": 4640,
      "cher": 4641,
      "Ġplans": 4642,
      "vis": 4643,
      "Ġmedic": 4644,
      "Ġbasis": 4645,
      "force": 4646,
      "ING": 4647,
      "Ġtren": 4648,
      "ipment": 4649,
      "Ġpal": 4650,
      "ĠEmp": 4651,
      "Ġeffectively": 4652,
      "ĠDepartment": 4653,
      "omy": 4654,
      "Ġdoub": 4655,
      "ĠFrank": 4656,
      "ĠScience": 4657,
      "Ġaudience": 4658,
      "Ġweb": 4659,
      "Ġempty": 4660,
      "Obs": 4661,
      "ĠDist": 4662,
      "duc": 4663,
      "oration": 4664,
      "ario": 4665,
      "ĠCompany": 4666,
      "Ġodd": 4667,
      "Ġstories": 4668,
      "Ġlegal": 4669,
      "Ġalign": 4670,
      "ĠPeter": 4671,
      "body": 4672,
      "Ġtruth": 4673,
      "Ġaware": 4674,
      "################": 4675,
      "ĠBrown": 4676,
      "Ġtru": 4677,
      "Ġcompl": 4678,
      "Ġguns": 4679,
      "Ġended": 4680,
      "Ġcir": 4681,
      "Ġmission": 4682,
      "Ġdiss": 4683,
      "ding": 4684,
      "'',": 4685,
      "Ġgoes": 4686,
      "Ġspirit": 4687,
      "Ġimages": 4688,
      "Ġclar": 4689,
      "Ġrob": 4690,
      "Ġslightly": 4691,
      "Ġcommonly": 4692,
      "instance": 4693,
      "ĠBest": 4694,
      "cal": 4695,
      "rier": 4696,
      "IL": 4697,
      "Ġraised": 4698,
      "writ": 4699,
      "Ġprison": 4700,
      "Ġcam": 4701,
      "Ġselected": 4702,
      "Ġnode": 4703,
      "ĠAssociation": 4704,
      "ented": 4705,
      "rd": 4706,
      "Se": 4707,
      "ĠBattle": 4708,
      "onds": 4709,
      "ĠAfrican": 4710,
      "ĠResearch": 4711,
      "Ġign": 4712,
      "Ġphilos": 4713,
      "Ġcovered": 4714,
      "Ġperhaps": 4715,
      "hand": 4716,
      "ĠStar": 4717,
      "under": 4718,
      "Ġextrem": 4719,
      "ĠRichard": 4720,
      "liament": 4721,
      "Ġdaughter": 4722,
      "ĠAlso": 4723,
      "Ġcoe": 4724,
      "wide": 4725,
      "âĢ¦": 4726,
      "ĠCouncil": 4727,
      "start": 4728,
      "Ġdry": 4729,
      "Ġalternative": 4730,
      "Ġhealthy": 4731,
      "iency": 4732,
      "Ġfarm": 4733,
      "Ġcoup": 4734,
      "Ġcool": 4735,
      "ĠFranc": 4736,
      "Ġexisting": 4737,
      "Ġlatter": 4738,
      "Ġegg": 4739,
      "Ġresearchers": 4740,
      "Ġrelationships": 4741,
      "Ġpolice": 4742,
      "ĠEv": 4743,
      "Ġletters": 4744,
      "Ġolder": 4745,
      "ĠAtlant": 4746,
      "Ġhumans": 4747,
      "miss": 4748,
      "Ġq": 4749,
      "Ġreceive": 4750,
      "Ġplanet": 4751,
      "Ġloop": 4752,
      "assertEqual": 4753,
      "Ġminimum": 4754,
      "bar": 4755,
      "rey": 4756,
      "Ġcold": 4757,
      "'),": 4758,
      "comm": 4759,
      "ĠArch": 4760,
      "ĠSir": 4761,
      "Ġdeveloping": 4762,
      "Ġrepresented": 4763,
      "Ġenvironmental": 4764,
      "Ġmostly": 4765,
      "Ġemphas": 4766,
      "\"]": 4767,
      "Ġmanner": 4768,
      "arsh": 4769,
      "icket": 4770,
      "Ġunknown": 4771,
      "ambda": 4772,
      "Ġscientific": 4773,
      "ĠSoviet": 4774,
      "Ġhelped": 4775,
      "icip": 4776,
      "Res": 4777,
      "sey": 4778,
      "Ġmut": 4779,
      "At": 4780,
      "ĠGreek": 4781,
      "Ġveget": 4782,
      "ĠItal": 4783,
      "Ġremove": 4784,
      "abet": 4785,
      "Ġrecords": 4786,
      "Ġdrive": 4787,
      "MS": 4788,
      "Ġwriter": 4789,
      "Ġincorpor": 4790,
      "code": 4791,
      "Ġderiv": 4792,
      "Ġhabit": 4793,
      "uated": 4794,
      "uing": 4795,
      "ĠIts": 4796,
      "Ġpresented": 4797,
      "icon": 4798,
      "ansion": 4799,
      "input": 4800,
      "En": 4801,
      "ĠBook": 4802,
      "ĠBecause": 4803,
      "Ġcharge": 4804,
      "Ġtool": 4805,
      "Ġorganization": 4806,
      "win": 4807,
      "Ã¼": 4808,
      "ĠEgypt": 4809,
      "Ġfully": 4810,
      "ulf": 4811,
      "My": 4812,
      "taining": 4813,
      "ango": 4814,
      "tical": 4815,
      "Ġsupply": 4816,
      "Ġchance": 4817,
      "ĠFil": 4818,
      "ĠGame": 4819,
      "Ġsave": 4820,
      "ÏĢ": 4821,
      "za": 4822,
      "Ġfeatured": 4823,
      "ĠRem": 4824,
      "Ġlived": 4825,
      "uit": 4826,
      "Ġillust": 4827,
      "iny": 4828,
      "ĠYes": 4829,
      "Ġclimb": 4830,
      "Ġdefinition": 4831,
      "Ġcoordin": 4832,
      "Ġhandle": 4833,
      "Ġattract": 4834,
      "ĠIsrael": 4835,
      "Ġnotes": 4836,
      "ĠTur": 4837,
      "grad": 4838,
      "Ġtried": 4839,
      "Ġunc": 4840,
      "overy": 4841,
      "write": 4842,
      "len": 4843,
      "Ġsigned": 4844,
      "Ġmist": 4845,
      "Ġequival": 4846,
      "Ġsurpr": 4847,
      "IV": 4848,
      "heast": 4849,
      "Ġ+=": 4850,
      "Ġnine": 4851,
      "Ġpieces": 4852,
      "Ġexhib": 4853,
      "Ġguide": 4854,
      "ias": 4855,
      "([": 4856,
      "Ġquad": 4857,
      "Ġpil": 4858,
      "icated": 4859,
      "agraph": 4860,
      "Ġconnected": 4861,
      "Ġvirt": 4862,
      "Ġhydro": 4863,
      "Ġwidely": 4864,
      "Ġmode": 4865,
      "Ġadding": 4866,
      "return": 4867,
      "run": 4868,
      "Ġfresh": 4869,
      "ĠVict": 4870,
      "ello": 4871,
      "icks": 4872,
      "Ġinstall": 4873,
      "\">": 4874,
      "Ġgod": 4875,
      "Ġbottom": 4876,
      "Ġexplore": 4877,
      "amental": 4878,
      "Ġfamous": 4879,
      "Ġfell": 4880,
      "Ġforeign": 4881,
      "oper": 4882,
      "olved": 4883,
      "Ġweak": 4884,
      "Ġdrop": 4885,
      "ĠRev": 4886,
      "Ġdoor": 4887,
      "Ġapply": 4888,
      "?âĢĿ": 4889,
      "Image": 4890,
      "const": 4891,
      "Ġflood": 4892,
      "Ġmur": 4893,
      "olf": 4894,
      "Ġserve": 4895,
      "ĠCongress": 4896,
      "OS": 4897,
      "iance": 4898,
      "Ġpropos": 4899,
      "ĠMiss": 4900,
      "Ġsentences": 4901,
      "Ġvary": 4902,
      "}^{": 4903,
      "Ġadjust": 4904,
      "Ġmeant": 4905,
      "ĠBoth": 4906,
      "ĠGroup": 4907,
      "astern": 4908,
      "aby": 4909,
      "Ġelection": 4910,
      "Ġcompre": 4911,
      "ĠPac": 4912,
      "Ġoccurs": 4913,
      "orage": 4914,
      "Ġsignificantly": 4915,
      "Ġbridge": 4916,
      "ĠSecond": 4917,
      "Ġminute": 4918,
      "iable": 4919,
      "Ġleader": 4920,
      "Ġbuildings": 4921,
      "Ġmarried": 4922,
      "ĠSal": 4923,
      "circ": 4924,
      "Ġfuel": 4925,
      "ola": 4926,
      "Ġtrust": 4927,
      "Ġcombined": 4928,
      "Ġimplementation": 4929,
      "Ġequipment": 4930,
      "stitution": 4931,
      "ena": 4932,
      "ĠParty": 4933,
      "Ġmaster": 4934,
      "Ġannual": 4935,
      "AF": 4936,
      "Ġfeeling": 4937,
      "Sc": 4938,
      "olk": 4939,
      "unc": 4940,
      "ouble": 4941,
      "Ġfootball": 4942,
      "ĠCup": 4943,
      "level": 4944,
      "Ġequations": 4945,
      "idden": 4946,
      "ĠOff": 4947,
      "Ġrestr": 4948,
      "section": 4949,
      "Ġopin": 4950,
      "osite": 4951,
      "Ġshowed": 4952,
      "ĠRob": 4953,
      "Ġwestern": 4954,
      "That": 4955,
      "eal": 4956,
      "edia": 4957,
      "Ġcycl": 4958,
      "Ġprojects": 4959,
      "year": 4960,
      "df": 4961,
      "Ġentered": 4962,
      "ĠPress": 4963,
      "Ġinteresting": 4964,
      "ĠTheir": 4965,
      "Ġbirds": 4966,
      "road": 4967,
      "Ġinvolves": 4968,
      "Ġteams": 4969,
      "HE": 4970,
      "Ġgrant": 4971,
      "Ġund": 4972,
      "Ġexpressed": 4973,
      "Ġmeasures": 4974,
      "ĠSur": 4975,
      "Ġfamilies": 4976,
      "otic": 4977,
      "cription": 4978,
      "ĠTime": 4979,
      "begin": 4980,
      "ĠGood": 4981,
      "reedom": 4982,
      "ado": 4983,
      "Ġfilms": 4984,
      "Ġbed": 4985,
      "encies": 4986,
      "Ġhear": 4987,
      "oses": 4988,
      "Ġhol": 4989,
      "anging": 4990,
      "ĠTex": 4991,
      "Ġcommunication": 4992,
      "Ġcritics": 4993,
      "ogle": 4994,
      "Ġwinter": 4995,
      "ĠAp": 4996,
      "Ġinches": 4997,
      "which": 4998,
      "Ġeveryone": 4999,
      "Ġgenerate": 5000,
      "ĠHel": 5001,
      "Ġmentioned": 5002,
      "Ġprefer": 5003,
      "Ġrich": 5004,
      "Ġcorrel": 5005,
      "works": 5006,
      "ĠInstitute": 5007,
      "Ġreasons": 5008,
      "Ġhair": 5009,
      "ĠPublic": 5010,
      "Ġupd": 5011,
      "arian": 5012,
      "ĠAv": 5013,
      "Ġlanguages": 5014,
      "Ġarrived": 5015,
      "Ġkept": 5016,
      "arn": 5017,
      "Ġcollabor": 5018,
      "result": 5019,
      "With": 5020,
      "icted": 5021,
      "Ġoffers": 5022,
      "Ġexercise": 5023,
      "Ġstructures": 5024,
      "Ġplane": 5025,
      "ĠSol": 5026,
      "ston": 5027,
      "Ġready": 5028,
      "rence": 5029,
      "ooth": 5030,
      "icago": 5031,
      "Ġcircum": 5032,
      "Ġdirected": 5033,
      "host": 5034,
      "())": 5035,
      "Ġcontinuous": 5036,
      "ĠMo": 5037,
      "iced": 5038,
      "Ġmental": 5039,
      "Ġdigital": 5040,
      "Ġiron": 5041,
      "Ġweap": 5042,
      "De": 5043,
      "Ġpromot": 5044,
      "Ġcorresponding": 5045,
      "ourney": 5046,
      "Ġmovie": 5047,
      "OL": 5048,
      "ĠFollowing": 5049,
      "Ġrise": 5050,
      "Ġquarter": 5051,
      "ishing": 5052,
      "Ġdescription": 5053,
      "Ġrates": 5054,
      "à¤": 5055,
      "Ġedge": 5056,
      "ĠNavy": 5057,
      "No": 5058,
      "Ġthick": 5059,
      "Ġshoot": 5060,
      "Ġmanager": 5061,
      "Ġformal": 5062,
      "Ġlabor": 5063,
      "ĠCommun": 5064,
      "Ġthr": 5065,
      "lete": 5066,
      "'.": 5067,
      "Ġhypot": 5068,
      "ĠMag": 5069,
      "Ġcitiz": 5070,
      "Ġrecently": 5071,
      "ĠOld": 5072,
      "Ġhistorical": 5073,
      "Ġaffected": 5074,
      "style": 5075,
      "gon": 5076,
      "Ġtwice": 5077,
      "Ġdynam": 5078,
      "Ġelif": 5079,
      "vest": 5080,
      "ĠWhy": 5081,
      "Ġcultural": 5082,
      "inder": 5083,
      "Ġgreatest": 5084,
      "Ġregions": 5085,
      "ĠWind": 5086,
      "ĠClass": 5087,
      "Ġassistant": 5088,
      "trans": 5089,
      "Ġspot": 5090,
      "Ġnor": 5091,
      "Ġpret": 5092,
      "Ġpet": 5093,
      "ĠCath": 5094,
      "Ġfine": 5095,
      "Ġscores": 5096,
      "urt": 5097,
      "ĠGrand": 5098,
      "UL": 5099,
      "Ġtow": 5100,
      "Ġintellig": 5101,
      "Ġmotion": 5102,
      "Ġoccurred": 5103,
      "Ġflight": 5104,
      "ĠAnother": 5105,
      "Ġadvance": 5106,
      "isation": 5107,
      "uke": 5108,
      "Ġdivis": 5109,
      "Ġinterpret": 5110,
      "Ġbud": 5111,
      "Ġphrase": 5112,
      "asure": 5113,
      "pected": 5114,
      "ste": 5115,
      "Ġhorse": 5116,
      "avig": 5117,
      "Ġclaimed": 5118,
      "Ġsolar": 5119,
      "Ġoffered": 5120,
      "Ġjournal": 5121,
      "Given": 5122,
      "ĠRock": 5123,
      "Ġextended": 5124,
      "Ġmixed": 5125,
      "Ġfear": 5126,
      "estion": 5127,
      "ĠCast": 5128,
      "Ġconcise": 5129,
      "Ġsynt": 5130,
      "Ġwarm": 5131,
      "what": 5132,
      "Ġdetermined": 5133,
      "iling": 5134,
      "Ġvillage": 5135,
      "Ġlov": 5136,
      "ĠSociety": 5137,
      "Ġbuy": 5138,
      "Ġstre": 5139,
      "estic": 5140,
      "ancing": 5141,
      "Ġmel": 5142,
      "icit": 5143,
      "ĠMill": 5144,
      "Ġfaith": 5145,
      "crib": 5146,
      "Ġcapacity": 5147,
      "Ġincreases": 5148,
      "bour": 5149,
      "Ġfederal": 5150,
      "iverse": 5151,
      "ĠEr": 5152,
      "Ġsubt": 5153,
      "Ġopportunity": 5154,
      "reement": 5155,
      "Ġadvanced": 5156,
      "Ġcollege": 5157,
      "Ġvector": 5158,
      "teen": 5159,
      "antry": 5160,
      "Ġexplan": 5161,
      "anges": 5162,
      "ename": 5163,
      "ĠTimes": 5164,
      "Ġnarr": 5165,
      "Ġlaws": 5166,
      "Ġchief": 5167,
      "Ġbelong": 5168,
      "abilities": 5169,
      "ĠRussian": 5170,
      "oken": 5171,
      "ules": 5172,
      "hy": 5173,
      "Ġworkers": 5174,
      "ĠInf": 5175,
      "Ġcontribut": 5176,
      "Ġarrange": 5177,
      "Ġcos": 5178,
      "Ġreviews": 5179,
      "Ġprotection": 5180,
      "Ġtesting": 5181,
      "ĠEmpire": 5182,
      "Ġinfin": 5183,
      "Ġsav": 5184,
      "Ġisn": 5185,
      "IM": 5186,
      "uls": 5187,
      "ĠFlor": 5188,
      "sl": 5189,
      "Ġdetailed": 5190,
      "Ġtone": 5191,
      "All": 5192,
      "*[": 5193,
      "ĠCentral": 5194,
      "ipe": 5195,
      "}$,": 5196,
      "Ġcandid": 5197,
      "join": 5198,
      "ĠHill": 5199,
      "Ġclasses": 5200,
      "Ġcontinues": 5201,
      "Ġdepth": 5202,
      "Ġdie": 5203,
      "Ġmusical": 5204,
      "ĠTV": 5205,
      "top": 5206,
      "formation": 5207,
      "ĠSea": 5208,
      "Ġfalse": 5209,
      "ĠPost": 5210,
      "Ġproport": 5211,
      "Ġabsol": 5212,
      "Ġtor": 5213,
      "Ġparagraph": 5214,
      "Fr": 5215,
      "ĠLouis": 5216,
      "ĠKore": 5217,
      "Ġindeed": 5218,
      "Ġbra": 5219,
      "Ġinterested": 5220,
      "Ġtasks": 5221,
      "Ġdiagn": 5222,
      "igen": 5223,
      "((": 5224,
      "Ġagreed": 5225,
      "Ġscientists": 5226,
      "Ġflat": 5227,
      "mir": 5228,
      "Ġidentified": 5229,
      "Ġrough": 5230,
      "ada": 5231,
      "Ġvess": 5232,
      "orter": 5233,
      "Name": 5234,
      "plate": 5235,
      "Ġplanning": 5236,
      "ĠEven": 5237,
      "ĠSuper": 5238,
      "Ġdut": 5239,
      "ocation": 5240,
      "ĠVol": 5241,
      "....": 5242,
      "ĠSou": 5243,
      "Ġlibrary": 5244,
      "Ġcomprehens": 5245,
      "Ġonto": 5246,
      "Ġseconds": 5247,
      "Ġtoward": 5248,
      "ĠForce": 5249,
      "Ġbeautiful": 5250,
      "ls": 5251,
      "Ġcrucial": 5252,
      "igr": 5253,
      "apers": 5254,
      "Ġmph": 5255,
      "ĠPacific": 5256,
      "Ġdepart": 5257,
      "ping": 5258,
      "zy": 5259,
      "Ġpaid": 5260,
      "Ġcere": 5261,
      "Ġcomponents": 5262,
      "ĠItalian": 5263,
      "Ġlegisl": 5264,
      "Ġproced": 5265,
      "wargs": 5266,
      "Ġfrequently": 5267,
      "Ġrecording": 5268,
      "orrow": 5269,
      "Ġwinds": 5270,
      "ategy": 5271,
      "ipped": 5272,
      "pective": 5273,
      "Ġamb": 5274,
      "Ġcausing": 5275,
      "ĠDevelop": 5276,
      "Ġsoldiers": 5277,
      "Ġattacks": 5278,
      "onna": 5279,
      "igan": 5280,
      "ĠFore": 5281,
      "Ġdistrict": 5282,
      "Ġprocesses": 5283,
      "ĠAmericans": 5284,
      "Ġisol": 5285,
      "peror": 5286,
      ">>": 5287,
      "version": 5288,
      "ocol": 5289,
      "Ġsites": 5290,
      "inger": 5291,
      "ighter": 5292,
      "Ġparallel": 5293,
      "Ġlargely": 5294,
      "Ġmath": 5295,
      "Ġmix": 5296,
      "Ġmob": 5297,
      "Ġeconomy": 5298,
      "isher": 5299,
      "ĠÂ°": 5300,
      "ĠSum": 5301,
      "Ġbillion": 5302,
      "Ġidentity": 5303,
      "iled": 5304,
      "term": 5305,
      "OM": 5306,
      "Ġglass": 5307,
      "Ġpun": 5308,
      "osh": 5309,
      "ynomial": 5310,
      "ĠÂł": 5311,
      "Ġrelative": 5312,
      "CC": 5313,
      "ĠVictor": 5314,
      "Ġdestroyed": 5315,
      "Ġaw": 5316,
      "gal": 5317,
      "jango": 5318,
      "Ġdiam": 5319,
      "Ġknew": 5320,
      "ya": 5321,
      "ĠVirginia": 5322,
      "Ġbegins": 5323,
      "Ġdataset": 5324,
      "abase": 5325,
      "ĠDel": 5326,
      "step": 5327,
      "Field": 5328,
      "ifies": 5329,
      "that": 5330,
      "Ġunf": 5331,
      "Ġconclusion": 5332,
      "Ġfill": 5333,
      "rome": 5334,
      "ĠMa": 5335,
      "ãĤ": 5336,
      "Ġbackground": 5337,
      "ogue": 5338,
      "ini": 5339,
      "ffect": 5340,
      "ĠForm": 5341,
      "Ġeastern": 5342,
      "lam": 5343,
      "Ġinvolve": 5344,
      "ĠMont": 5345,
      "rapy": 5346,
      "Ġpicture": 5347,
      "ĠChicago": 5348,
      "ĠĠĠĠĊ": 5349,
      "Ġobtained": 5350,
      "Ġappropriate": 5351,
      "Ġhighway": 5352,
      "Ġreaction": 5353,
      "Ġwa": 5354,
      "Ġpatient": 5355,
      "enses": 5356,
      "Ġboy": 5357,
      "ĠDet": 5358,
      "Ġdepression": 5359,
      "burg": 5360,
      "Ġgets": 5361,
      "Ġdegrees": 5362,
      "erved": 5363,
      "uses": 5364,
      "arp": 5365,
      "ĠIII": 5366,
      "tes": 5367,
      "ĠOnce": 5368,
      "ĠScot": 5369,
      "Ġsac": 5370,
      "Ġlinks": 5371,
      "Ġdial": 5372,
      "Ġ$(": 5373,
      "ĠRo": 5374,
      "Ġlayer": 5375,
      "hester": 5376,
      "ĠChampionship": 5377,
      "ĠKh": 5378,
      "bed": 5379,
      "AG": 5380,
      "Ġfixed": 5381,
      "Ġoptim": 5382,
      "Ġsen": 5383,
      "From": 5384,
      "Ġprepar": 5385,
      "Ġsend": 5386,
      "Ġing": 5387,
      "Ġsplit": 5388,
      "Ġnative": 5389,
      "ĠMass": 5390,
      "Ġthy": 5391,
      "andon": 5392,
      "Ġdepending": 5393,
      "coh": 5394,
      "Ġfrequency": 5395,
      "Ġ$$\\": 5396,
      "ĠRel": 5397,
      "Note": 5398,
      "UN": 5399,
      "Ġinstrument": 5400,
      "useum": 5401,
      "Ġdevices": 5402,
      "Ġarguments": 5403,
      "Ġpositions": 5404,
      "ĠLike": 5405,
      "life": 5406,
      "gebra": 5407,
      "Ġ(-": 5408,
      "Ġincome": 5409,
      "Ġdoctor": 5410,
      "Ġspeech": 5411,
      "Ġemployees": 5412,
      "Ste": 5413,
      "ishes": 5414,
      "Ġbelief": 5415,
      "ship": 5416,
      "Ġemp": 5417,
      "Ġeasier": 5418,
      "First": 5419,
      "ĠÂ£": 5420,
      "Ġwave": 5421,
      "Ġsufficient": 5422,
      "Ġchallenges": 5423,
      "Ġwit": 5424,
      "Ġcomposed": 5425,
      "Ġprimarily": 5426,
      "ãģ": 5427,
      "ricult": 5428,
      "Ġsand": 5429,
      "ading": 5430,
      "Ġspring": 5431,
      "Ġthou": 5432,
      "Ġchosen": 5433,
      "Ġcommunities": 5434,
      "ĠAward": 5435,
      "Ġcore": 5436,
      "ENT": 5437,
      "onic": 5438,
      "ĠTexas": 5439,
      "Ġsymbol": 5440,
      "ĠBet": 5441,
      "Ġmouth": 5442,
      "Val": 5443,
      "iments": 5444,
      "Ġstudio": 5445,
      "Ġrain": 5446,
      "Type": 5447,
      "Ġexperiences": 5448,
      "oding": 5449,
      "Ġexists": 5450,
      "Qu": 5451,
      "Ġguid": 5452,
      "Ġacadem": 5453,
      "yself": 5454,
      "ĠGra": 5455,
      "Ġsolid": 5456,
      "ona": 5457,
      "iations": 5458,
      "Ġcontem": 5459,
      "osure": 5460,
      "ĠSpe": 5461,
      "uzz": 5462,
      "Ġhappy": 5463,
      "Ġbreed": 5464,
      "ĠOper": 5465,
      "ĠJesus": 5466,
      "iform": 5467,
      "apes": 5468,
      "Ġadvantage": 5469,
      "IG": 5470,
      "Ġhus": 5471,
      "ĠUsing": 5472,
      "elta": 5473,
      "ĠLake": 5474,
      "Ġbomb": 5475,
      "ĠParis": 5476,
      "ounded": 5477,
      "lymp": 5478,
      "****": 5479,
      "Ġinh": 5480,
      "}$$": 5481,
      "ĠRad": 5482,
      "mary": 5483,
      "ĠAdditionally": 5484,
      "Cont": 5485,
      "bridge": 5486,
      "ĠJournal": 5487,
      "Ġjourney": 5488,
      "iples": 5489,
      "ogen": 5490,
      "rat": 5491,
      "standing": 5492,
      "Ġjoint": 5493,
      "Ġstone": 5494,
      "eline": 5495,
      "Ġunivers": 5496,
      "reate": 5497,
      "These": 5498,
      "Ġstrategy": 5499,
      "crete": 5500,
      "Ġaspects": 5501,
      "See": 5502,
      "Ġaccepted": 5503,
      "ĠDi": 5504,
      "ophy": 5505,
      "Ġotherwise": 5506,
      "Ġunable": 5507,
      "Ġbacter": 5508,
      "Ġplays": 5509,
      "ĠService": 5510,
      "Ġsin": 5511,
      "Ġfruit": 5512,
      "Ġhun": 5513,
      "iences": 5514,
      "aph": 5515,
      "Ġextremely": 5516,
      "Ġwinning": 5517,
      "utch": 5518,
      "while": 5519,
      "pping": 5520,
      "ĠJohnson": 5521,
      "Ġwithd": 5522,
      "rons": 5523,
      "EM": 5524,
      "Ġschem": 5525,
      "Ġwonder": 5526,
      "Ġcalls": 5527,
      "Ġmissing": 5528,
      "md": 5529,
      "Ġtrib": 5530,
      "Ġcreation": 5531,
      "ĠTechn": 5532,
      "Ġviews": 5533,
      "ologies": 5534,
      "Ġattend": 5535,
      "Ġwindow": 5536,
      "ĠEnter": 5537,
      "ĠBig": 5538,
      "Ġvoc": 5539,
      "Ġtraffic": 5540,
      "Ġsettle": 5541,
      "Ind": 5542,
      "Ġinternal": 5543,
      "rightarrow": 5544,
      "ĠÐ": 5545,
      "ĠTor": 5546,
      "Ġappointed": 5547,
      "length": 5548,
      "ographic": 5549,
      "nam": 5550,
      "ildren": 5551,
      "ĠCarol": 5552,
      "Ġcommission": 5553,
      "Ġlearned": 5554,
      "Ġbudget": 5555,
      "inations": 5556,
      "ĠJose": 5557,
      "mas": 5558,
      "}{\\": 5559,
      "Ġagricult": 5560,
      "Ġconducted": 5561,
      "pers": 5562,
      "ette": 5563,
      "Ġmedian": 5564,
      "Ġchallenge": 5565,
      "Ġlisted": 5566,
      "Ġtwenty": 5567,
      "Ġfloor": 5568,
      "gent": 5569,
      "lines": 5570,
      "Ġtrip": 5571,
      "ĠOur": 5572,
      "ĠEarly": 5573,
      "ML": 5574,
      "Ġcomposition": 5575,
      "Ġpolynomial": 5576,
      "Ġ{}": 5577,
      "Ġxml": 5578,
      "uations": 5579,
      "Ġrepeated": 5580,
      "Ġportion": 5581,
      "ĠMcC": 5582,
      "sen": 5583,
      "Ġshell": 5584,
      "Ġsusp": 5585,
      "ĠCanadian": 5586,
      "Ġguitar": 5587,
      "imp": 5588,
      "Ġpowers": 5589,
      "Ġcateg": 5590,
      "Ġkids": 5591,
      "'],": 5592,
      "Â°": 5593,
      "apping": 5594,
      "Ġpit": 5595,
      "stream": 5596,
      "New": 5597,
      "Ġspecifically": 5598,
      "Ġjoin": 5599,
      "Ġexistence": 5600,
      "stances": 5601,
      "stone": 5602,
      "Not": 5603,
      "ĠĠĠĠĠĠĠĠĠ": 5604,
      "anes": 5605,
      "leq": 5606,
      "ĠMem": 5607,
      "EL": 5608,
      "Ġapproaches": 5609,
      "Ġequivalent": 5610,
      "Ġcycle": 5611,
      "Pl": 5612,
      "Ġran": 5613,
      "cs": 5614,
      "Ġbatt": 5615,
      "spec": 5616,
      "ĠRh": 5617,
      "BN": 5618,
      "Ġfundamental": 5619,
      "Ġtail": 5620,
      "Ġborder": 5621,
      "ĠMer": 5622,
      "align": 5623,
      "ĠRoute": 5624,
      "ih": 5625,
      "Ġauth": 5626,
      "Ġconsists": 5627,
      "comes": 5628,
      "ĠWood": 5629,
      "Ġsexual": 5630,
      "Ġremainder": 5631,
      "ĠLater": 5632,
      "ĠEdward": 5633,
      "ĠFrancis": 5634,
      "ĠAN": 5635,
      "Ġobtain": 5636,
      "ĠEduc": 5637,
      "Ġconvert": 5638,
      "valid": 5639,
      "Ġprepared": 5640,
      "Ġelimin": 5641,
      "Ġtrial": 5642,
      "Ġsurvey": 5643,
      "ĠOlymp": 5644,
      "Ġerrors": 5645,
      "pg": 5646,
      "Ġmatches": 5647,
      "Ġindicate": 5648,
      "Ġadop": 5649,
      "Ġmagazine": 5650,
      "othing": 5651,
      "Ġcomfort": 5652,
      "Ġplanned": 5653,
      "Ġanyone": 5654,
      "Ġmarked": 5655,
      "ĠLos": 5656,
      "Ġshared": 5657,
      "Ġimproved": 5658,
      "oday": 5659,
      "Ġrevealed": 5660,
      "ĠNY": 5661,
      "ĠReturn": 5662,
      "tem": 5663,
      "Ġatmosphere": 5664,
      "claim": 5665,
      "Ġconcerns": 5666,
      "ums": 5667,
      "Ġsyn": 5668,
      "Ġassigned": 5669,
      "Ġsell": 5670,
      "Ġevolution": 5671,
      "Ġdistributed": 5672,
      "ĠFlorida": 5673,
      "Ġhurricane": 5674,
      "ystem": 5675,
      "request": 5676,
      "ita": 5677,
      "Ġformation": 5678,
      "Ġcaptured": 5679,
      "Ġlaun": 5680,
      "Ġbodies": 5681,
      "Ġbreath": 5682,
      "Ġdivide": 5683,
      "orph": 5684,
      "Ġutil": 5685,
      "Ġcouple": 5686,
      "Ġprompt": 5687,
      "Ġsister": 5688,
      "display": 5689,
      "ĠMuseum": 5690,
      "Ġcompetition": 5691,
      "Ð°": 5692,
      "iday": 5693,
      "ĠCamp": 5694,
      "Ġmodule": 5695,
      "^\\": 5696,
      "Ġpoly": 5697,
      "Ġpassing": 5698,
      "een": 5699,
      "Ġreports": 5700,
      "mathbf": 5701,
      "Ġmainly": 5702,
      "ĠHot": 5703,
      "Ġprogramming": 5704,
      "Ġproceed": 5705,
      "but": 5706,
      "ĠOx": 5707,
      "node": 5708,
      "Ġsuppl": 5709,
      "ĠKn": 5710,
      "Ġcatch": 5711,
      "Ġphase": 5712,
      "words": 5713,
      "Ġ\\).": 5714,
      "ĠLatin": 5715,
      "Ġprotein": 5716,
      "ĠHy": 5717,
      "fields": 5718,
      "Ġentry": 5719,
      "Ġphen": 5720,
      "Ġclosely": 5721,
      "Ġinterval": 5722,
      "stance": 5723,
      "ims": 5724,
      "ĠHarr": 5725,
      "illa": 5726,
      "ossible": 5727,
      "ĠPeople": 5728,
      "ĠCO": 5729,
      "create": 5730,
      "$\\": 5731,
      "atically": 5732,
      "Cons": 5733,
      "Ġpraised": 5734,
      "Ġrevised": 5735,
      "ĠStep": 5736,
      "Ġhouses": 5737,
      "Ġwaste": 5738,
      "ructure": 5739,
      "Ġarms": 5740,
      "Ġconfir": 5741,
      "erg": 5742,
      "ĠAcadem": 5743,
      "eper": 5744,
      "Ġnotice": 5745,
      "ĠCro": 5746,
      "Ġtransition": 5747,
      "po": 5748,
      "Ġwaters": 5749,
      "aid": 5750,
      "Ġnearby": 5751,
      "Ġfifth": 5752,
      "ĠYear": 5753,
      "Ġring": 5754,
      "Ġdecisions": 5755,
      "Ġcas": 5756,
      "Ġauthority": 5757,
      "ĠLife": 5758,
      "Ġclaims": 5759,
      "Ġsignal": 5760,
      "Ġleads": 5761,
      "Ġissued": 5762,
      "position": 5763,
      "ĠClub": 5764,
      "Ġcharacteristics": 5765,
      "Ġdeviation": 5766,
      "Ġmarriage": 5767,
      "Ġselection": 5768,
      "Ġparameters": 5769,
      "ĠFin": 5770,
      "ĠMexico": 5771,
      "Ġpolic": 5772,
      "duction": 5773,
      "Ġnarrow": 5774,
      "Ġdict": 5775,
      "Ġusage": 5776,
      "ĠBack": 5777,
      "case": 5778,
      "ĠArab": 5779,
      "Ġofficers": 5780,
      "Ġholds": 5781,
      "Ġgall": 5782,
      "Ġnewsp": 5783,
      "Ġsustain": 5784,
      "gency": 5785,
      "Ġlooks": 5786,
      "ĠQueen": 5787,
      "Ġindicates": 5788,
      "ayer": 5789,
      "iser": 5790,
      "Ġyellow": 5791,
      "ota": 5792,
      "Ġapparent": 5793,
      "Ġleaders": 5794,
      "uster": 5795,
      "Ġtrig": 5796,
      "image": 5797,
      "ĠCap": 5798,
      "px": 5799,
      "omic": 5800,
      "Ġartist": 5801,
      "aud": 5802,
      "Ġcalculated": 5803,
      "Ġsounds": 5804,
      "Ġresistance": 5805,
      "Ġinnov": 5806,
      "Ġtur": 5807,
      "()`": 5808,
      "ano": 5809,
      "Ġleague": 5810,
      "ani": 5811,
      "ĠLong": 5812,
      "ĠGal": 5813,
      "Ġpairs": 5814,
      "ĠDemoc": 5815,
      "Ġpractices": 5816,
      "sembly": 5817,
      "greg": 5818,
      "Ġiter": 5819,
      "Ġske": 5820,
      "Ġfailure": 5821,
      "Col": 5822,
      "ittle": 5823,
      "ĠAnn": 5824,
      "ĠAtlantic": 5825,
      "Ġneut": 5826,
      "Ġstock": 5827,
      "Ġconcert": 5828,
      "itt": 5829,
      "aming": 5830,
      "ĠFort": 5831,
      "ĠCur": 5832,
      "Ġstarts": 5833,
      "ĠOpen": 5834,
      "bin": 5835,
      "Sub": 5836,
      "izer": 5837,
      "Ġconsidering": 5838,
      "ĠIre": 5839,
      "alls": 5840,
      "Ġtells": 5841,
      "Ġmanaged": 5842,
      "Ġlies": 5843,
      "Ġflag": 5844,
      "ĠVer": 5845,
      "Ġdrug": 5846,
      "ĠWater": 5847,
      "ĠNews": 5848,
      "Ġdefeated": 5849,
      "Ġgarden": 5850,
      "orry": 5851,
      "ĠAD": 5852,
      "Ġstream": 5853,
      "Ġopportunities": 5854,
      "ifications": 5855,
      "Ġinfl": 5856,
      "][": 5857,
      "Ġexplained": 5858,
      "omer": 5859,
      "Ġsuitable": 5860,
      "istical": 5861,
      "Ġultimately": 5862,
      "map": 5863,
      "Ġtiss": 5864,
      "Ġextreme": 5865,
      "olve": 5866,
      "Ġbroadcast": 5867,
      "Ġspecified": 5868,
      "Ġexperienced": 5869,
      "ĠJim": 5870,
      "Ġfleet": 5871,
      "ĠMartin": 5872,
      "Ġswitch": 5873,
      "ĠCD": 5874,
      "Ġlie": 5875,
      "Ġproof": 5876,
      "color": 5877,
      "item": 5878,
      "oma": 5879,
      "Ġwidth": 5880,
      "ca": 5881,
      "Ġliber": 5882,
      "ĠJackson": 5883,
      "Ġahead": 5884,
      "Ġlists": 5885,
      "hips": 5886,
      "ĠSet": 5887,
      "ipl": 5888,
      "Ġrh": 5889,
      "orted": 5890,
      "ĠBob": 5891,
      "Ġtheme": 5892,
      "Ġconstructed": 5893,
      "Ġshowing": 5894,
      "ormal": 5895,
      "Ġwalls": 5896,
      "Ġrequirements": 5897,
      "bi": 5898,
      "Ġexpansion": 5899,
      "Ġemotional": 5900,
      "rich": 5901,
      "Ġnuclear": 5902,
      "Ġprove": 5903,
      "ĠFurther": 5904,
      "sk": 5905,
      "pat": 5906,
      "rad": 5907,
      "Ġpercentage": 5908,
      "Ġtal": 5909,
      "bal": 5910,
      "sup": 5911,
      "Ġreality": 5912,
      "FA": 5913,
      "urance": 5914,
      "ĠAdd": 5915,
      "raction": 5916,
      "Ġcapture": 5917,
      "ĠTim": 5918,
      "abled": 5919,
      "Ġinequ": 5920,
      "Ġteaching": 5921,
      "Ġpromin": 5922,
      "Ġextract": 5923,
      "Ġinspired": 5924,
      "Ġlyr": 5925,
      "Ġcrow": 5926,
      "ĠAtt": 5927,
      "Ġelected": 5928,
      "Ġkilomet": 5929,
      "Ġadults": 5930,
      "Ġshop": 5931,
      "Ġtun": 5932,
      "pol": 5933,
      "Ġcert": 5934,
      "ĠTem": 5935,
      "clude": 5936,
      "values": 5937,
      "ested": 5938,
      "Ġmanage": 5939,
      "Ġsigns": 5940,
      "Ġsurrounding": 5941,
      "Ġcopies": 5942,
      "ĠMax": 5943,
      "label": 5944,
      "Ġopposite": 5945,
      "Ġrepresentation": 5946,
      "ygen": 5947,
      "Ġsuffered": 5948,
      "Ġemail": 5949,
      "ĠHaw": 5950,
      "Ã¤": 5951,
      "matrix": 5952,
      "Ġmathematics": 5953,
      "IR": 5954,
      "Ġcup": 5955,
      "Ġrelevant": 5956,
      "Ġdrawn": 5957,
      "Ġbehavi": 5958,
      "(),": 5959,
      "Ġsuc": 5960,
      "Ġfocused": 5961,
      "Ġhusband": 5962,
      "Ġera": 5963,
      "Be": 5964,
      "Ġreject": 5965,
      "wid": 5966,
      "Ġabsor": 5967,
      "Ġradius": 5968,
      "Ġscenes": 5969,
      "CD": 5970,
      "Ġexception": 5971,
      "essage": 5972,
      "Ġresulted": 5973,
      ")\\": 5974,
      "Ġofficer": 5975,
      ")/": 5976,
      "Ġdefine": 5977,
      "Ġnavig": 5978,
      "default": 5979,
      "Ġliterature": 5980,
      "inet": 5981,
      "Ġfighting": 5982,
      "Ġfilled": 5983,
      "Ġfirm": 5984,
      "ĠGen": 5985,
      "rum": 5986,
      "Ġliqu": 5987,
      "ĠWho": 5988,
      "Str": 5989,
      "Ġdeclared": 5990,
      "Ġthir": 5991,
      "Ġmyself": 5992,
      "orders": 5993,
      "Ġhousehold": 5994,
      "ĠFle": 5995,
      "ĠBas": 5996,
      "ĠMur": 5997,
      "Ġenemy": 5998,
      "zing": 5999,
      "Ġaccurate": 6000,
      "ĠCatholic": 6001,
      "Ġbenefit": 6002,
      "Ġnob": 6003,
      "ĠTer": 6004,
      "Ġcentre": 6005,
      "LO": 6006,
      "hetic": 6007,
      "Ġmathematical": 6008,
      "ĠSk": 6009,
      "Ġocean": 6010,
      "Ġtechnique": 6011,
      "ĠBre": 6012,
      "Ġends": 6013,
      "Ġassign": 6014,
      "Ġconvey": 6015,
      "Ġpaint": 6016,
      "Ġcalling": 6017,
      "Ġtechnical": 6018,
      "Ġfounded": 6019,
      "Ġpages": 6020,
      "Ġstrings": 6021,
      "bury": 6022,
      "Ġreform": 6023,
      "ĠEvery": 6024,
      "Ġcrop": 6025,
      "Ġtopic": 6026,
      "osaur": 6027,
      "Ġteacher": 6028,
      "Ġchanging": 6029,
      "Ġimplic": 6030,
      "Ġclearly": 6031,
      "ĠOb": 6032,
      "Ġlaunched": 6033,
      "Ġdistingu": 6034,
      "Ġ//": 6035,
      "itors": 6036,
      "Ġcurve": 6037,
      "Ġsmooth": 6038,
      "dat": 6039,
      "ĠLeg": 6040,
      "Ġcitizens": 6041,
      "ĠMel": 6042,
      "Ġrect": 6043,
      "Ġderived": 6044,
      "Ġfreedom": 6045,
      "ĠInstead": 6046,
      "ishop": 6047,
      "Ġawarded": 6048,
      "Ġcustomer": 6049,
      "Ġdamaged": 6050,
      "related": 6051,
      "Ġlooked": 6052,
      "Ġgeneration": 6053,
      "Ġepisodes": 6054,
      "Ġnumer": 6055,
      "Ġyield": 6056,
      "Ġderivative": 6057,
      "Ġtons": 6058,
      "Ġfigures": 6059,
      "Ġdin": 6060,
      "ĠLove": 6061,
      "Ġbright": 6062,
      "ĠGet": 6063,
      "After": 6064,
      "Ġvit": 6065,
      "Ġcontrovers": 6066,
      "Ġpossess": 6067,
      "upp": 6068,
      "Ġwel": 6069,
      "estival": 6070,
      "talion": 6071,
      "Ġcomponent": 6072,
      "Ġgenerated": 6073,
      "uten": 6074,
      "Ġsucceed": 6075,
      "Ġdebut": 6076,
      "cohol": 6077,
      "ĠGovernment": 6078,
      "ĠViet": 6079,
      "ĠJewish": 6080,
      "ĠItaly": 6081,
      "Some": 6082,
      "pes": 6083,
      "Ġelev": 6084,
      "center": 6085,
      "Ġbrown": 6086,
      "models": 6087,
      "ĠFound": 6088,
      "Rem": 6089,
      "names": 6090,
      "Ġbroken": 6091,
      "Ġhospital": 6092,
      "Ġstandards": 6093,
      "flow": 6094,
      "]]&": 6095,
      "Ġstreet": 6096,
      "stract": 6097,
      "yal": 6098,
      "ĠFind": 6099,
      "ĠData": 6100,
      "Data": 6101,
      "}+": 6102,
      "olars": 6103,
      "Ġwealth": 6104,
      "Ġhappen": 6105,
      "ĠPhys": 6106,
      "Ð¾": 6107,
      "Ġabandon": 6108,
      "Ġcoff": 6109,
      "kins": 6110,
      "Ġresource": 6111,
      "Ġthrow": 6112,
      "ĠJul": 6113,
      "Ġcomplexity": 6114,
      "ses": 6115,
      "ĠFe": 6116,
      "Ġinner": 6117,
      "ĠLicense": 6118,
      "Ġfans": 6119,
      "Ġstudied": 6120,
      "ologist": 6121,
      "izon": 6122,
      "ĠTri": 6123,
      "Ġdomain": 6124,
      "Ġtracks": 6125,
      "Ġmo": 6126,
      "Ġsymmet": 6127,
      "ĠPenn": 6128,
      "Ġcolors": 6129,
      "ĠFree": 6130,
      "Ġfoods": 6131,
      "ptions": 6132,
      "doc": 6133,
      "Ã¨": 6134,
      "Ġattempts": 6135,
      "Ġachieved": 6136,
      "Ġreader": 6137,
      "Ġdance": 6138,
      "ĠDirect": 6139,
      "Id": 6140,
      "Ġinjury": 6141,
      "ĠCommission": 6142,
      "Ġspaces": 6143,
      "Ġchain": 6144,
      "Ġrestaur": 6145,
      "Ġdescribes": 6146,
      "ĠFre": 6147,
      "ĠSupp": 6148,
      "Des": 6149,
      "Ġinfluenced": 6150,
      "Ġoperating": 6151,
      "Ġstorage": 6152,
      "ĠUN": 6153,
      "Ġ!=": 6154,
      "ĠCivil": 6155,
      "Ġpros": 6156,
      "ĠMinister": 6157,
      "Ġcenturies": 6158,
      "quare": 6159,
      "Ġversions": 6160,
      "Ġserver": 6161,
      "Ġregarding": 6162,
      "ĠRome": 6163,
      "ĠAngeles": 6164,
      "Le": 6165,
      "ĠDen": 6166,
      "ĠAP": 6167,
      "ĠAwards": 6168,
      "Ġoccasion": 6169,
      "raint": 6170,
      "Ġmultip": 6171,
      "Ġbeat": 6172,
      "ĠAsia": 6173,
      "ĠIreland": 6174,
      "cular": 6175,
      "Test": 6176,
      "ĠCa": 6177,
      "Ġkid": 6178,
      "ĠColumb": 6179,
      "dule": 6180,
      "Ġsession": 6181,
      "ĠElect": 6182,
      "Ġedition": 6183,
      "ipal": 6184,
      "Ġdraft": 6185,
      "Ġfre": 6186,
      "ĠZeal": 6187,
      "va": 6188,
      "Ġexcess": 6189,
      "uable": 6190,
      "ĠDNA": 6191,
      "Ġpossibly": 6192,
      "Ġcollected": 6193,
      "ĠTown": 6194,
      "Ġrein": 6195,
      "orses": 6196,
      "Ġmotiv": 6197,
      "ugh": 6198,
      "ructions": 6199,
      "Ġpul": 6200,
      "Ġadvice": 6201,
      "Sp": 6202,
      "ĠLine": 6203,
      "lig": 6204,
      "Ġentirely": 6205,
      "appe": 6206,
      ")]": 6207,
      "press": 6208,
      "Ġcombat": 6209,
      "Ġhomes": 6210,
      "Ġdetail": 6211,
      "Ġaid": 6212,
      "preserve": 6213,
      "Yes": 6214,
      "ja": 6215,
      "umin": 6216,
      "iders": 6217,
      "Ġ->": 6218,
      "uple": 6219,
      "Ġhappened": 6220,
      "Ġtypical": 6221,
      "Ġclient": 6222,
      "Ġteachers": 6223,
      "ĠCapt": 6224,
      "âĢī": 6225,
      "main": 6226,
      "Ġagreement": 6227,
      "Ġmeters": 6228,
      "onent": 6229,
      "Ġpoet": 6230,
      "ĠJud": 6231,
      "Ġgrav": 6232,
      "().": 6233,
      "Ġ['": 6234,
      "check": 6235,
      "Ġmort": 6236,
      "Ġdensity": 6237,
      "Ġstanding": 6238,
      "Ġharm": 6239,
      "Ġcoal": 6240,
      "Ġuniverse": 6241,
      "Ġmountain": 6242,
      "ĠList": 6243,
      "Ġye": 6244,
      "Ġbattles": 6245,
      "cell": 6246,
      "ĠSong": 6247,
      "ĠSar": 6248,
      "eless": 6249,
      "long": 6250,
      "ĠCare": 6251,
      "ĠStand": 6252,
      "Ġrefers": 6253,
      "Ġstrategies": 6254,
      "While": 6255,
      "status": 6256,
      "ĠProf": 6257,
      "ĠId": 6258,
      "Ġadvent": 6259,
      "iveness": 6260,
      "ĠLu": 6261,
      ".__": 6262,
      "Ġcars": 6263,
      "ocked": 6264,
      "ĠCommit": 6265,
      "Ġhero": 6266,
      "ician": 6267,
      "dden": 6268,
      "Ðµ": 6269,
      "Ġreducing": 6270,
      "Ġphone": 6271,
      "ĠZealand": 6272,
      "ĠCross": 6273,
      "gments": 6274,
      "ĠSil": 6275,
      "ĠPet": 6276,
      "ĠNet": 6277,
      "Ġsecure": 6278,
      "Ġdiseases": 6279,
      "ba": 6280,
      "Ġresidents": 6281,
      "Ġconcepts": 6282,
      "ĠBi": 6283,
      "ceived": 6284,
      "Ġpretty": 6285,
      "Ġconsec": 6286,
      "Ġtemperatures": 6287,
      "var": 6288,
      "ĠFour": 6289,
      "zen": 6290,
      "ĠBow": 6291,
      "Ġsports": 6292,
      "awn": 6293,
      "Ġopinion": 6294,
      "itan": 6295,
      "Ġrecommended": 6296,
      "ĠRail": 6297,
      "ĠMiddle": 6298,
      "Ġindustrial": 6299,
      "cers": 6300,
      "Ġexchange": 6301,
      "Ġpassage": 6302,
      "ĠMain": 6303,
      "ĠThree": 6304,
      "John": 6305,
      "theta": 6306,
      "oston": 6307,
      "Ġescape": 6308,
      "lers": 6309,
      "pop": 6310,
      "gener": 6311,
      "Ġheads": 6312,
      "Ġearned": 6313,
      "ĠIll": 6314,
      "Ġexcell": 6315,
      "Ġbird": 6316,
      "ĠProgram": 6317,
      "Ġexpert": 6318,
      "ĠWal": 6319,
      "Ġdelay": 6320,
      "Ġcustomers": 6321,
      "ĠProv": 6322,
      "Ġthousands": 6323,
      "Ġeating": 6324,
      "Ġvision": 6325,
      "ĠOF": 6326,
      "uting": 6327,
      "ĠÃĹ": 6328,
      "VD": 6329,
      "Ġwriters": 6330,
      "mathrm": 6331,
      "ashion": 6332,
      "Ġattempted": 6333,
      "tering": 6334,
      "ĠBefore": 6335,
      "Ġorders": 6336,
      "Ġban": 6337,
      "iat": 6338,
      "lib": 6339,
      "ĠLand": 6340,
      "Ġbranch": 6341,
      "Mod": 6342,
      "Ġperforming": 6343,
      "ĠHur": 6344,
      "Ġsubsequently": 6345,
      "Ġsugar": 6346,
      "ĠJoseph": 6347,
      "ican": 6348,
      "Ġseemed": 6349,
      "vol": 6350,
      "Ġoverl": 6351,
      "mony": 6352,
      "Ġapprec": 6353,
      "ĠCat": 6354,
      "icial": 6355,
      "real": 6356,
      "Ġinterests": 6357,
      "Ġbinary": 6358,
      "Ġconsc": 6359,
      "ĠPan": 6360,
      "ĠISBN": 6361,
      "Pr": 6362,
      "ĠSeries": 6363,
      "Ġcart": 6364,
      "isters": 6365,
      "ĠDevelopment": 6366,
      "aded": 6367,
      "ĠPlan": 6368,
      "ora": 6369,
      "Ġdriving": 6370,
      "king": 6371,
      "Ġclarity": 6372,
      "sects": 6373,
      "culate": 6374,
      "Ġpush": 6375,
      "ĠAS": 6376,
      "Ġintroduction": 6377,
      "json": 6378,
      "split": 6379,
      "Ġconsistent": 6380,
      "ĠPop": 6381,
      "ĠWhere": 6382,
      "ĠYe": 6383,
      "Ġsquad": 6384,
      "]]</": 6385,
      "Ġreact": 6386,
      "oub": 6387,
      "Ġending": 6388,
      "-\\": 6389,
      "AA": 6390,
      ";[[": 6391,
      "hist": 6392,
      "Ġnomin": 6393,
      "anda": 6394,
      "Ġsubsequent": 6395,
      "Ġvel": 6396,
      "Ġproducer": 6397,
      "attr": 6398,
      "zer": 6399,
      "Ġparameter": 6400,
      "ĠSouthern": 6401,
      "PS": 6402,
      "Ġsudden": 6403,
      "ĠWork": 6404,
      "ĠHome": 6405,
      "Ġwait": 6406,
      "poses": 6407,
      "illing": 6408,
      "Ġteeth": 6409,
      "method": 6410,
      "Ġarrest": 6411,
      "Another": 6412,
      "Ġgone": 6413,
      "numbers": 6414,
      "organ": 6415,
      "Ġgal": 6416,
      "Ġurban": 6417,
      "Ġclin": 6418,
      "Ġspend": 6419,
      "Ġcomplic": 6420,
      "Ġfaster": 6421,
      "Ġmotor": 6422,
      "Ġartists": 6423,
      "Ġexplicit": 6424,
      "Ġanx": 6425,
      "ĠHor": 6426,
      "ĠHistor": 6427,
      "vals": 6428,
      "plot": 6429,
      "ĠProject": 6430,
      "Ġteach": 6431,
      "Ġcontrolled": 6432,
      "Set": 6433,
      "Ġcards": 6434,
      "Ġexternal": 6435,
      "uh": 6436,
      "Ġexplanation": 6437,
      "Ġprocessing": 6438,
      "Ġpure": 6439,
      "Ġcategory": 6440,
      "ĠSpr": 6441,
      "Ġturns": 6442,
      "Ġsupposed": 6443,
      "Ġassume": 6444,
      "ushed": 6445,
      "antasy": 6446,
      "Ġeggs": 6447,
      "oung": 6448,
      "Ġtalking": 6449,
      "Ġtheorem": 6450,
      "Ġdiscussion": 6451,
      "ras": 6452,
      "Ġhighlight": 6453,
      "pute": 6454,
      "Ġgained": 6455,
      "ĠAny": 6456,
      "ections": 6457,
      "ensor": 6458,
      "perial": 6459,
      "oured": 6460,
      "Ġgrass": 6461,
      "Ġconversation": 6462,
      "Ġroyal": 6463,
      "Bl": 6464,
      "Ġremark": 6465,
      "Ġengineering": 6466,
      "Ġcorrelation": 6467,
      "?\"": 6468,
      "}_{": 6469,
      "Ġdownload": 6470,
      "Ġproved": 6471,
      "ĠEducation": 6472,
      "}(": 6473,
      "à¸": 6474,
      "Ġperman": 6475,
      "Ġapart": 6476,
      "roph": 6477,
      "Ġofficials": 6478,
      "Ġphenomen": 6479,
      "ĠWall": 6480,
      "Ġlocations": 6481,
      "sole": 6482,
      "Ġaccident": 6483,
      "Ġreaching": 6484,
      "ĠType": 6485,
      "Ġunus": 6486,
      "Ġguard": 6487,
      "Ġconve": 6488,
      "anguage": 6489,
      "ĠShak": 6490,
      "obj": 6491,
      "Ġadopted": 6492,
      "friend": 6493,
      "Ġlinked": 6494,
      "Ġstack": 6495,
      "cor": 6496,
      "Ġdepends": 6497,
      "amily": 6498,
      "script": 6499,
      "ua": 6500,
      "Ġoxygen": 6501,
      "Ġconfidence": 6502,
      "Ġdesired": 6503,
      "Ġholding": 6504,
      "Ġupdate": 6505,
      "ibilities": 6506,
      "ĠScotland": 6507,
      "Ġlaunch": 6508,
      "igration": 6509,
      "Ġconsult": 6510,
      "Ġdiscover": 6511,
      "Ġgenetic": 6512,
      "Ġcredit": 6513,
      "Ġvote": 6514,
      "Ġflex": 6515,
      "Ġcf": 6516,
      "Ġmyth": 6517,
      "orough": 6518,
      "ĠKent": 6519,
      "api": 6520,
      "Ġintelligence": 6521,
      "Ġalle": 6522,
      "find": 6523,
      "{(": 6524,
      "Ġlaid": 6525,
      "foot": 6526,
      "Ġsegment": 6527,
      "Ġnone": 6528,
      "ĠDar": 6529,
      "Ġpromote": 6530,
      "Ġselling": 6531,
      "Ġoutcomes": 6532,
      "Ġcontained": 6533,
      "ĠCy": 6534,
      "Ġherself": 6535,
      "hedule": 6536,
      "Ġrelation": 6537,
      "ĠSecret": 6538,
      "coming": 6539,
      "Ġsnow": 6540,
      "Or": 6541,
      "Ġsubstant": 6542,
      "tra": 6543,
      "output": 6544,
      "Ġcapable": 6545,
      "Ge": 6546,
      "}.": 6547,
      "ĠPlease": 6548,
      "Ġdropped": 6549,
      "ĠAcademy": 6550,
      "Ġunto": 6551,
      "Ġdecades": 6552,
      "Ġauthors": 6553,
      "Ġpopulations": 6554,
      "bsp": 6555,
      "Ġwants": 6556,
      "open": 6557,
      "Ġcraft": 6558,
      "ĠShow": 6559,
      "Ġmir": 6560,
      "Ġhonor": 6561,
      "Ġgramm": 6562,
      "Ã¶l": 6563,
      "Ð¸": 6564,
      "Ġstret": 6565,
      "abil": 6566,
      "Ġextensive": 6567,
      "ĠRussia": 6568,
      "number": 6569,
      "roid": 6570,
      "Ġec": 6571,
      "Ġsevent": 6572,
      "Ġrapidly": 6573,
      ")=": 6574,
      "PA": 6575,
      "Ġsched": 6576,
      "ĠCommittee": 6577,
      "ĠFinally": 6578,
      "Ġorganizations": 6579,
      "Ġimplies": 6580,
      "Ġsilver": 6581,
      "igade": 6582,
      "Ġdefeat": 6583,
      "ĠValue": 6584,
      "Ġwilling": 6585,
      "ĠOxford": 6586,
      "Ġpolicies": 6587,
      "Ġnegot": 6588,
      "Ġintegral": 6589,
      "ĠTop": 6590,
      "Ġfinds": 6591,
      "Ġpurchase": 6592,
      "Ġspeaking": 6593,
      "++": 6594,
      "Ġfeat": 6595,
      "ĠIN": 6596,
      "ĠOtt": 6597,
      "Ġdrawing": 6598,
      "Ġdollars": 6599,
      "Ġyouth": 6600,
      "Ġcond": 6601,
      "Ġshut": 6602,
      "kwargs": 6603,
      "Ġce": 6604,
      "lambda": 6605,
      "Ġgrew": 6606,
      "Ġcorner": 6607,
      "ĠMichigan": 6608,
      "jpg": 6609,
      "Ġrefused": 6610,
      "Step": 6611,
      "Ġenhance": 6612,
      "Ġmere": 6613,
      "going": 6614,
      "Ġperspective": 6615,
      "Ġ{{": 6616,
      "CE": 6617,
      "Ġtermin": 6618,
      "pir": 6619,
      "cknow": 6620,
      "Ġmoves": 6621,
      "hi": 6622,
      "Ġsuccessfully": 6623,
      "Ġacting": 6624,
      "kes": 6625,
      "Ġestimate": 6626,
      "uilding": 6627,
      "ĠPrince": 6628,
      "xy": 6629,
      "Ġpull": 6630,
      "Ġviolence": 6631,
      "Ġthousand": 6632,
      "Ob": 6633,
      "Sim": 6634,
      "ĠParliament": 6635,
      "akers": 6636,
      "Ġreligion": 6637,
      "nic": 6638,
      "Ġkg": 6639,
      "car": 6640,
      "ORD": 6641,
      "alysis": 6642,
      "}=": 6643,
      "Ġhyper": 6644,
      "Ġaccompl": 6645,
      "ĠSpain": 6646,
      "thlet": 6647,
      "fall": 6648,
      "Ġuns": 6649,
      "using": 6650,
      "amma": 6651,
      "asket": 6652,
      "Ġsought": 6653,
      "Ġgent": 6654,
      "ĠCrit": 6655,
      "Ġneither": 6656,
      "dist": 6657,
      "source": 6658,
      "rip": 6659,
      "Ġvul": 6660,
      "Ġattacked": 6661,
      "Ġprices": 6662,
      "Ġgoods": 6663,
      "Ġengaging": 6664,
      "Ġyards": 6665,
      "ĠPers": 6666,
      "ato": 6667,
      "Ġuniversity": 6668,
      "adium": 6669,
      "ĠOnly": 6670,
      "Ġfavorite": 6671,
      "Ġsail": 6672,
      "imensional": 6673,
      ".;": 6674,
      "Ġportray": 6675,
      "Ġrecognized": 6676,
      "Ġvehicles": 6677,
      "table": 6678,
      "Ġsections": 6679,
      "Ġdatabase": 6680,
      "client": 6681,
      "ĠKenn": 6682,
      "ĠMajor": 6683,
      "ĠMake": 6684,
      "nbsp": 6685,
      "Ġlandsc": 6686,
      "Ġpackage": 6687,
      "Ġalgebra": 6688,
      "Ġtall": 6689,
      "Ġsamples": 6690,
      "CL": 6691,
      "ĠThrough": 6692,
      "Ġbot": 6693,
      "Ġclick": 6694,
      "Ġpasseng": 6695,
      "Ġinfection": 6696,
      "update": 6697,
      "Ġsq": 6698,
      "onym": 6699,
      "ala": 6700,
      "ensus": 6701,
      "Ġbaby": 6702,
      "racy": 6703,
      "Ġsoul": 6704,
      "Ġhuge": 6705,
      "Ġeditor": 6706,
      "Why": 6707,
      "Ġacademic": 6708,
      "rition": 6709,
      "Ġfly": 6710,
      "ĠCle": 6711,
      "Ġslowly": 6712,
      "Ġfamiliar": 6713,
      "Ġgather": 6714,
      "Ġthoughts": 6715,
      "ograp": 6716,
      "Ġworldwide": 6717,
      "thur": 6718,
      "abeth": 6719,
      "zil": 6720,
      "Ġcompare": 6721,
      "ĠOcean": 6722,
      "Ġparties": 6723,
      "Ġboat": 6724,
      "inity": 6725,
      "Ġassistance": 6726,
      "ĠSeveral": 6727,
      "ĠGeorg": 6728,
      "Ġcaught": 6729,
      "clusive": 6730,
      "erent": 6731,
      "ĠJeff": 6732,
      "ĉĉĉ": 6733,
      "Ġphysics": 6734,
      "Ġrevolution": 6735,
      "ĠSwed": 6736,
      "Ġmodified": 6737,
      "Ġtreated": 6738,
      "Ġlyrics": 6739,
      "Ġmeasured": 6740,
      "Ġpossibility": 6741,
      "oul": 6742,
      "ĠDra": 6743,
      "Ġheavily": 6744,
      "Ġexposure": 6745,
      "Ġfeelings": 6746,
      "Ġterritory": 6747,
      "^(": 6748,
      "ĠSquad": 6749,
      "ĠBoston": 6750,
      "Ġpurposes": 6751,
      "'(": 6752,
      "istan": 6753,
      "rog": 6754,
      "process": 6755,
      "aylor": 6756,
      "BS": 6757,
      "Ġpron": 6758,
      "Ġnort": 6759,
      "Ġdefense": 6760,
      "Ġvacc": 6761,
      "ĠRom": 6762,
      "Ġsweet": 6763,
      "Ġkeeping": 6764,
      "*''": 6765,
      "yles": 6766,
      "Ġwitness": 6767,
      "aked": 6768,
      "ads": 6769,
      "tan": 6770,
      "Ġmock": 6771,
      "ĠSant": 6772,
      "ĠWales": 6773,
      "Zo": 6774,
      "Ġsubs": 6775,
      "arser": 6776,
      "Ġasking": 6777,
      "ĠTre": 6778,
      "Ġleadership": 6779,
      "parent": 6780,
      "Ġdecor": 6781,
      "rot": 6782,
      "range": 6783,
      "older": 6784,
      "Ġpasses": 6785,
      "Ġopposed": 6786,
      "wo": 6787,
      "Ġroles": 6788,
      "Ġgar": 6789,
      "mathbb": 6790,
      "Ġabsolute": 6791,
      "fit": 6792,
      "Ġgirls": 6793,
      "Ġtheat": 6794,
      "amber": 6795,
      "Ġextension": 6796,
      "ESS": 6797,
      "TR": 6798,
      "Ġserving": 6799,
      "Ġhelpful": 6800,
      "Ġgeometric": 6801,
      "Ġvac": 6802,
      "Ġmuse": 6803,
      "Ġvisited": 6804,
      "ĠRef": 6805,
      "Ġattended": 6806,
      "Ġevening": 6807,
      "umes": 6808,
      "Ġintersection": 6809,
      "cho": 6810,
      "inson": 6811,
      "ĠReview": 6812,
      "Ġideal": 6813,
      "ĠKar": 6814,
      "Ġproperly": 6815,
      "TER": 6816,
      "ĠBul": 6817,
      "ocket": 6818,
      "inem": 6819,
      "function": 6820,
      "Of": 6821,
      "Ġorganized": 6822,
      "Ġvent": 6823,
      "ĠUs": 6824,
      "abetes": 6825,
      "Ġprinciples": 6826,
      "ĠBus": 6827,
      "connect": 6828,
      "ĠStan": 6829,
      "thumb": 6830,
      "osc": 6831,
      "Ġwing": 6832,
      "Ġgrade": 6833,
      "Ġthee": 6834,
      "base": 6835,
      "Ġkeys": 6836,
      "ye": 6837,
      "Ġimpossible": 6838,
      "arant": 6839,
      "ĠPoint": 6840,
      "Do": 6841,
      "Ġreput": 6842,
      "HO": 6843,
      "ĠSocial": 6844,
      "Ġexceed": 6845,
      "Ġbroke": 6846,
      "ĠOrig": 6847,
      "Ġparticles": 6848,
      "Ġvehicle": 6849,
      "Ġyes": 6850,
      "ĠNorthern": 6851,
      "ĠCommon": 6852,
      "Ġ[],": 6853,
      "ĠJones": 6854,
      "Ġsky": 6855,
      "BA": 6856,
      "ributes": 6857,
      "Ġmine": 6858,
      "yer": 6859,
      "Ġincreasingly": 6860,
      "Ġmedium": 6861,
      "Ġhelping": 6862,
      "Ġsinger": 6863,
      "kay": 6864,
      "Ġweapons": 6865,
      "ella": 6866,
      "Ġarticles": 6867,
      "stood": 6868,
      "Ġdefend": 6869,
      "tex": 6870,
      "Ġneighbor": 6871,
      "Ġpainting": 6872,
      "ĠĠĠĠĠĠĠĠĠĠĠĠĠĠĠĠĠĠĠĠĠĠĠĠĠĠĠ": 6873,
      "Ġfeedback": 6874,
      "Ġvast": 6875,
      "Ġargs": 6876,
      "ĠValley": 6877,
      "ĠJo": 6878,
      "rid": 6879,
      "antic": 6880,
      "Ġcoin": 6881,
      "care": 6882,
      "Ġrenew": 6883,
      "quar": 6884,
      "Ġhorses": 6885,
      "Ġhappens": 6886,
      "FL": 6887,
      "oral": 6888,
      "!âĢĿ": 6889,
      "Ġton": 6890,
      "div": 6891,
      "Ġdim": 6892,
      "Ġfellow": 6893,
      "Ġquiet": 6894,
      "exp": 6895,
      "Ġranked": 6896,
      "Ġcreates": 6897,
      "ĠJac": 6898,
      "craft": 6899,
      "Ġdram": 6900,
      "--------------------------------": 6901,
      "Ġcoffee": 6902,
      "Ġefficiency": 6903,
      "Ġsight": 6904,
      "Cal": 6905,
      "dig": 6906,
      "Ġquery": 6907,
      "Ġagree": 6908,
      "pack": 6909,
      "ĠLear": 6910,
      "Ġobvious": 6911,
      "last": 6912,
      "igma": 6913,
      "Ġseat": 6914,
      "ĠWeb": 6915,
      "edu": 6916,
      "Ġcommander": 6917,
      "Par": 6918,
      "ipping": 6919,
      "Ġdedicated": 6920,
      "Ġseeing": 6921,
      "Ġanalyze": 6922,
      "Ġconfirmed": 6923,
      "Ġwish": 6924,
      "esc": 6925,
      "Ġreprodu": 6926,
      "abs": 6927,
      "ighth": 6928,
      "ĠSpace": 6929,
      "Ġprinciple": 6930,
      "Ġconcluded": 6931,
      "Ġrepresenting": 6932,
      "Ġconsumption": 6933,
      "Ġbacteria": 6934,
      "Ġfraction": 6935,
      "Ġproducing": 6936,
      "Ġactor": 6937,
      "Ġpractical": 6938,
      "Ġturning": 6939,
      "ĠIrish": 6940,
      "Ġdiscovery": 6941,
      "ĠLee": 6942,
      "Ġacknow": 6943,
      "ĠPower": 6944,
      "ĠLy": 6945,
      "IA": 6946,
      "ĠThough": 6947,
      "pool": 6948,
      "Ġminim": 6949,
      "Ġsupporting": 6950,
      "Ġstatistics": 6951,
      "Ġalcohol": 6952,
      "atever": 6953,
      "ĠEngine": 6954,
      "Ġvan": 6955,
      "Ġunderlying": 6956,
      "ĠJava": 6957,
      "DF": 6958,
      "ĠLittle": 6959,
      "Ġlose": 6960,
      "iams": 6961,
      "Ġtransferred": 6962,
      "unte": 6963,
      "SS": 6964,
      "Acc": 6965,
      "iner": 6966,
      "PE": 6967,
      "PL": 6968,
      "ĠCaptain": 6969,
      "ĠOutput": 6970,
      "Ġfinish": 6971,
      "ĠLight": 6972,
      "keys": 6973,
      "Ġpregn": 6974,
      "elve": 6975,
      "Ġowned": 6976,
      "Ġdrugs": 6977,
      "Ġ\\),": 6978,
      "ĠDev": 6979,
      "Äģ": 6980,
      "ĠFig": 6981,
      "ĠEnd": 6982,
      "Ġcloser": 6983,
      "tri": 6984,
      "iano": 6985,
      "weight": 6986,
      "outs": 6987,
      "Ġvaluable": 6988,
      "Ġchannel": 6989,
      "uan": 6990,
      "Ġadministration": 6991,
      "Ġacts": 6992,
      "Ġreaders": 6993,
      "Ab": 6994,
      "ĠMean": 6995,
      "Ġsettings": 6996,
      "rient": 6997,
      "Â·Â·Â·Â·": 6998,
      "Ġsteel": 6999,
      "Ġyounger": 7000,
      "Get": 7001,
      "Ġislands": 7002,
      "ĠCorps": 7003,
      "ĠWay": 7004,
      "post": 7005,
      "Ġthin": 7006,
      "pm": 7007,
      "Ġbought": 7008,
      "ĠOrgan": 7009,
      "Ġcoefficient": 7010,
      "ĠInternet": 7011,
      "Ġdigits": 7012,
      "Ġnarrative": 7013,
      "Ġcounty": 7014,
      "ĠRevolution": 7015,
      "hent": 7016,
      "overrightarrow": 7017,
      "issions": 7018,
      "anna": 7019,
      "ĠPo": 7020,
      "ĠLook": 7021,
      "ATE": 7022,
      "gence": 7023,
      "tenance": 7024,
      "ĠFoot": 7025,
      "cons": 7026,
      "ĠTour": 7027,
      "ĠLo": 7028,
      "ZoÃ¶l": 7029,
      "track": 7030,
      "ĠFar": 7031,
      "Ġmilk": 7032,
      "ocity": 7033,
      "Ġinequality": 7034,
      "xture": 7035,
      "Ġconcerned": 7036,
      "Ġflav": 7037,
      "HT": 7038,
      "Ġdeploy": 7039,
      "gest": 7040,
      "icular": 7041,
      "break": 7042,
      "Ġdogs": 7043,
      "rates": 7044,
      "ĠIslands": 7045,
      "Ġcontribute": 7046,
      "world": 7047,
      "Ġhence": 7048,
      "ications": 7049,
      "Ġinvolving": 7050,
      "Ġperiods": 7051,
      "ounter": 7052,
      "Ġstatements": 7053,
      "Ġstable": 7054,
      "Ġadvert": 7055,
      "ĠTeam": 7056,
      "Ġdigit": 7057,
      "Ġdangerous": 7058,
      "Ġprotected": 7059,
      "Ġsole": 7060,
      "ĠDutch": 7061,
      "Ġindicating": 7062,
      "Ġemployed": 7063,
      "context": 7064,
      "Ġextent": 7065,
      "Ġastron": 7066,
      "Ġmanufacture": 7067,
      "olving": 7068,
      "Ġmaintained": 7069,
      "ĠSaint": 7070,
      "Ġcreative": 7071,
      "Ġuncertain": 7072,
      "Ġamounts": 7073,
      "Char": 7074,
      "ĠEll": 7075,
      "Ġcub": 7076,
      "Ġfiction": 7077,
      "Ġreturning": 7078,
      "Ġvisible": 7079,
      "Ġstatistical": 7080,
      "Ġsalt": 7081,
      "ĠLiber": 7082,
      "ylvan": 7083,
      "antly": 7084,
      "Ġgenus": 7085,
      "================": 7086,
      "lets": 7087,
      "itis": 7088,
      "axis": 7089,
      "Ġshift": 7090,
      "Ġconsecutive": 7091,
      "Ġchair": 7092,
      "Ġdesire": 7093,
      "ĠHung": 7094,
      "Ġshel": 7095,
      "ĠEastern": 7096,
      "Ġagent": 7097,
      "Ġflowers": 7098,
      "Ġclassic": 7099,
      "ĠJan": 7100,
      "Ġgene": 7101,
      "Ġscholars": 7102,
      "izabeth": 7103,
      "stack": 7104,
      "ĠMen": 7105,
      "model": 7106,
      "oking": 7107,
      "Ġcontemporary": 7108,
      "ĠSimilar": 7109,
      "Ġjump": 7110,
      "fra": 7111,
      "address": 7112,
      "ura": 7113,
      "Ġmeat": 7114,
      "Ġaxis": 7115,
      "ran": 7116,
      "Ġstruck": 7117,
      "Ġfashion": 7118,
      "Ġroof": 7119,
      "Ġprominent": 7120,
      "ampl": 7121,
      "ĠFilm": 7122,
      "FF": 7123,
      "They": 7124,
      "rant": 7125,
      "Ġspin": 7126,
      "ictions": 7127,
      "ĠBillboard": 7128,
      "Ġeducational": 7129,
      "Ġfert": 7130,
      "ĠEqu": 7131,
      "ĠChristmas": 7132,
      "agues": 7133,
      "Ġfoss": 7134,
      "ifier": 7135,
      "Ġprofit": 7136,
      "ĠGoogle": 7137,
      "Ġrational": 7138,
      "ĠGree": 7139,
      "ĠâĢ¦": 7140,
      "ĠHighway": 7141,
      "Ġvirus": 7142,
      "Ġcomparison": 7143,
      "Ġfan": 7144,
      "\\\\": 7145,
      "anger": 7146,
      "Ġchoices": 7147,
      "ĠMuslim": 7148,
      "iana": 7149,
      "elines": 7150,
      "Ġsecondary": 7151,
      "Ġpounds": 7152,
      "Ġchecks": 7153,
      "Ġelectron": 7154,
      "Ġconsequences": 7155,
      "âĢĺ": 7156,
      "Ġregarded": 7157,
      "Ġfacilities": 7158,
      "Ġfloat": 7159,
      "Ġsport": 7160,
      "ĠBoy": 7161,
      "Add": 7162,
      "Ġcou": 7163,
      "neg": 7164,
      ".),": 7165,
      "ĠBudd": 7166,
      "Ġnoise": 7167,
      "roke": 7168,
      "ĠTaylor": 7169,
      "adow": 7170,
      "Time": 7171,
      "Ġillness": 7172,
      "ificial": 7173,
      "Ġreduction": 7174,
      "ĠPerson": 7175,
      "ĠWrit": 7176,
      "Ġcolumns": 7177,
      "ĠJews": 7178,
      "ĠVan": 7179,
      "ocated": 7180,
      "lie": 7181,
      "ĠOffice": 7182,
      "Ġbear": 7183,
      "rieved": 7184,
      "Ġrom": 7185,
      "Ġessay": 7186,
      "Ġresponsibility": 7187,
      "ĠBir": 7188,
      "ĠBank": 7189,
      "ĠGiven": 7190,
      "ĠWilliams": 7191,
      "Ġseed": 7192,
      "Ġdeliver": 7193,
      "ded": 7194,
      "bered": 7195,
      "ÑĢ": 7196,
      "adel": 7197,
      "Ġanswers": 7198,
      "ĠStone": 7199,
      "response": 7200,
      "inction": 7201,
      "Ġshif": 7202,
      "how": 7203,
      "nings": 7204,
      "TP": 7205,
      "Ġrecip": 7206,
      "Ġsubjects": 7207,
      "after": 7208,
      "ĠAut": 7209,
      "Ġstations": 7210,
      "Ġcoach": 7211,
      "gery": 7212,
      "obe": 7213,
      "onents": 7214,
      "Ġconvent": 7215,
      "Ġinvestment": 7216,
      "Ġregularly": 7217,
      "Ġinfinite": 7218,
      "ĠFinal": 7219,
      "displaystyle": 7220,
      "Americ": 7221,
      "Ġpublication": 7222,
      "Ġseparated": 7223,
      "Ġcaptain": 7224,
      "Ġpotentially": 7225,
      "Ġdress": 7226,
      "Ġperp": 7227,
      "ĠChief": 7228,
      "Ġsomewhat": 7229,
      "Ġdepartment": 7230,
      "Ġaccounts": 7231,
      "Ġuniform": 7232,
      "Ġdirectory": 7233,
      "Ġsummary": 7234,
      "Ġnick": 7235,
      "Ġnormally": 7236,
      "Ġaccel": 7237,
      "Ġtox": 7238,
      "Ġsmallest": 7239,
      "Over": 7240,
      "ucky": 7241,
      "Ġnecessarily": 7242,
      "Ġcryst": 7243,
      "Ġcorpor": 7244,
      "Ġobservations": 7245,
      "Ġexcellent": 7246,
      "Ġprepare": 7247,
      "Using": 7248,
      "Ġfaced": 7249,
      "Eng": 7250,
      "ĠAndrew": 7251,
      "Hello": 7252,
      "Ġwhereas": 7253,
      "Ġhttps": 7254,
      "ĠGar": 7255,
      "Ġbrand": 7256,
      "Ġdomestic": 7257,
      "Ġreign": 7258,
      "uled": 7259,
      "App": 7260,
      "etch": 7261,
      "perty": 7262,
      "ĠÂłĠÂł": 7263,
      "ĠDVD": 7264,
      "Ġliquid": 7265,
      "Ġyard": 7266,
      ";,": 7267,
      "ĠFox": 7268,
      "ova": 7269,
      "Ġradiation": 7270,
      "Ġtaught": 7271,
      "Ġtherm": 7272,
      "Ġperformances": 7273,
      "Ġhypothesis": 7274,
      "Ġ(\"": 7275,
      "Ġfilter": 7276,
      "Ġconnections": 7277,
      "Ġgreatly": 7278,
      "Ġstick": 7279,
      "Ġinteract": 7280,
      "Thus": 7281,
      "soft": 7282,
      "Ġbattery": 7283,
      "Ġwaves": 7284,
      "Ġstating": 7285,
      "Ġcamera": 7286,
      "Ġstrike": 7287,
      "eria": 7288,
      "Ġcab": 7289,
      "Ġinformed": 7290,
      "Ġcris": 7291,
      "Ġconverted": 7292,
      "Ġtruly": 7293,
      "Åį": 7294,
      "ĠAlexander": 7295,
      "Te": 7296,
      "Ġthread": 7297,
      "Ġbreast": 7298,
      "Ġrevenue": 7299,
      "Ġrating": 7300,
      "sim": 7301,
      "miral": 7302,
      "Ġtag": 7303,
      "Ġowner": 7304,
      "ĠFoundation": 7305,
      "Ġresc": 7306,
      "Ġguess": 7307,
      "ologists": 7308,
      "puter": 7309,
      "har": 7310,
      "Ġencourage": 7311,
      "Ġoperator": 7312,
      "Ġsituations": 7313,
      "ME": 7314,
      "Ġentr": 7315,
      "ĠDistrict": 7316,
      "Ġlosing": 7317,
      "Ġbeauty": 7318,
      "Ġpartner": 7319,
      "infall": 7320,
      "Ġexped": 7321,
      "Ġsubtract": 7322,
      "ĠNever": 7323,
      "ĠGames": 7324,
      "Ġcertainly": 7325,
      "Ġinch": 7326,
      "expected": 7327,
      "Ġdeaths": 7328,
      "Ġengage": 7329,
      "Ġcircul": 7330,
      "content": 7331,
      "hell": 7332,
      "Ġcrime": 7333,
      "Ġdocuments": 7334,
      "ĠExt": 7335,
      "Ġdecline": 7336,
      "width": 7337,
      "Ġauthorities": 7338,
      "DI": 7339,
      "ĠHuman": 7340,
      "Ġmedicine": 7341,
      "File": 7342,
      "Ġtank": 7343,
      "ĠYoung": 7344,
      "asty": 7345,
      "Ġ``": 7346,
      "Ġreverse": 7347,
      "hered": 7348,
      "Ġstored": 7349,
      "ima": 7350,
      "ickets": 7351,
      "ĠAbout": 7352,
      "Ġdiscussed": 7353,
      "Ġarchitecture": 7354,
      "ĠWhe": 7355,
      "ĠBlue": 7356,
      "cules": 7357,
      "azz": 7358,
      "utely": 7359,
      "Ġpilot": 7360,
      "Ġverb": 7361,
      "wing": 7362,
      "Ġfindings": 7363,
      "Ġsuit": 7364,
      "Ġopposition": 7365,
      "Ġquadratic": 7366,
      "Ġengaged": 7367,
      "Ġjobs": 7368,
      "Ġlogical": 7369,
      "bot": 7370,
      "Ġlimits": 7371,
      "ĠCarolina": 7372,
      "Ġtang": 7373,
      "Ġdoubt": 7374,
      "asp": 7375,
      "aven": 7376,
      "Ġnom": 7377,
      "Ġment": 7378,
      "'])": 7379,
      "Ġtherapy": 7380,
      "Ġflying": 7381,
      "iox": 7382,
      "ingly": 7383,
      "ĠMicro": 7384,
      "Ġstages": 7385,
      "PO": 7386,
      "django": 7387,
      "Ġhidden": 7388,
      "Ġelectricity": 7389,
      "Ġconstitution": 7390,
      "Ġurl": 7391,
      "Ġobj": 7392,
      "orous": 7393,
      "Ġplate": 7394,
      "Ġargued": 7395,
      "XX": 7396,
      "fty": 7397,
      "rine": 7398,
      "Ġnewly": 7399,
      "phone": 7400,
      "Ġpy": 7401,
      "Ġtrained": 7402,
      "Ġangles": 7403,
      "Ġmovements": 7404,
      "erman": 7405,
      "Ġproportion": 7406,
      "Ġlatest": 7407,
      "Ġaccompan": 7408,
      "ĠChris": 7409,
      "ANT": 7410,
      "Ġcompr": 7411,
      "comple": 7412,
      "ĠBridge": 7413,
      "Ġdates": 7414,
      "Ġinfect": 7415,
      "iki": 7416,
      "Ġisinstance": 7417,
      "ĠHind": 7418,
      "Ġcastle": 7419,
      "Ġprincipal": 7420,
      "'},": 7421,
      "Per": 7422,
      "United": 7423,
      "Ġpig": 7424,
      "ĠCreek": 7425,
      "Ã¦": 7426,
      "items": 7427,
      "Ġschedule": 7428,
      "ĠInc": 7429,
      "Ġinstalled": 7430,
      "ylvania": 7431,
      "ker": 7432,
      "ĠDun": 7433,
      "ĠRay": 7434,
      "Ġfix": 7435,
      "geq": 7436,
      "Ġstrict": 7437,
      "Ð½": 7438,
      "ithmetic": 7439,
      "ĠInit": 7440,
      "Ġhorizon": 7441,
      "Ġflo": 7442,
      "Ġexposed": 7443,
      "Ġmassive": 7444,
      "Ġcloud": 7445,
      "eller": 7446,
      "Ġexpensive": 7447,
      "Ġsenior": 7448,
      "ĠBoard": 7449,
      "Ġorganic": 7450,
      "Ġzone": 7451,
      "Ġlegs": 7452,
      "ilit": 7453,
      "Ġinvasion": 7454,
      "iler": 7455,
      "Ġpp": 7456,
      "ĠIslam": 7457,
      "call": 7458,
      "rh": 7459,
      "rows": 7460,
      "Ġpersons": 7461,
      "Ġnoting": 7462,
      "Ġindependence": 7463,
      "Int": 7464,
      "Ġsorted": 7465,
      "Ġstim": 7466,
      "initely": 7467,
      "ko": 7468,
      "Ġreceiving": 7469,
      "utenant": 7470,
      "Don": 7471,
      "Ġtopics": 7472,
      "iot": 7473,
      "Ġseasons": 7474,
      "Ġsurf": 7475,
      "Ġfoundation": 7476,
      "Ġsupplies": 7477,
      "ĠArm": 7478,
      "iro": 7479,
      "ĠCheck": 7480,
      "Ġincident": 7481,
      "CR": 7482,
      "ĠRam": 7483,
      "ï¿": 7484,
      "essions": 7485,
      "Please": 7486,
      "ools": 7487,
      "Ġtechnologies": 7488,
      "Ġinterpre": 7489,
      "Ġtrouble": 7490,
      "Ġcommented": 7491,
      "ĠĠĠĠĠĠĠĠĠĠĠĠ": 7492,
      "ĠColl": 7493,
      "yan": 7494,
      "Ġgentle": 7495,
      "pson": 7496,
      "Ġbread": 7497,
      "ĠLie": 7498,
      "ĠToday": 7499,
      "ĠPen": 7500,
      "Ġinterf": 7501,
      "Ġvot": 7502,
      "Ġvulner": 7503,
      "Ġwear": 7504,
      "Ġparticipants": 7505,
      "beta": 7506,
      "Ġexecutive": 7507,
      "erring": 7508,
      "ĠCard": 7509,
      "arks": 7510,
      "Ġimprovement": 7511,
      "Ġmanip": 7512,
      "Ġclassical": 7513,
      "ĠDuke": 7514,
      "ĠSpec": 7515,
      "Ġdesignated": 7516,
      "Ġbullet": 7517,
      "Ġlisten": 7518,
      "non": 7519,
      "ĠSquadron": 7520,
      "acent": 7521,
      "Ġmaintaining": 7522,
      "stein": 7523,
      "ĠWat": 7524,
      "Ġprofession": 7525,
      "Ġbond": 7526,
      "ogether": 7527,
      "Ġgranted": 7528,
      "Ġexpanded": 7529,
      "Ġblocks": 7530,
      "iary": 7531,
      "Ġquantum": 7532,
      "Ġattached": 7533,
      "Value": 7534,
      "isted": 7535,
      "icious": 7536,
      "oster": 7537,
      "ĠSand": 7538,
      "Ġbes": 7539,
      "roc": 7540,
      "inding": 7541,
      "ï¿½": 7542,
      "mond": 7543,
      "Ġru": 7544,
      "Ġevaluate": 7545,
      "has": 7546,
      "Ġsignificance": 7547,
      "ĠBrazil": 7548,
      "Ġrecurs": 7549,
      "Ġwet": 7550,
      "Ġwasn": 7551,
      "Ġbone": 7552,
      "icians": 7553,
      "ĠDam": 7554,
      "aser": 7555,
      "Ġdifficulty": 7556,
      "ĠDaniel": 7557,
      "ournament": 7558,
      "ĠMD": 7559,
      "Ġinsert": 7560,
      "Ġstands": 7561,
      "ĠHT": 7562,
      "Ġrelax": 7563,
      "Ġvert": 7564,
      "ĠJoe": 7565,
      "Ġkit": 7566,
      "itter": 7567,
      "rick": 7568,
      "Ġhall": 7569,
      "Ġnice": 7570,
      "Ġalongside": 7571,
      "root": 7572,
      "ader": 7573,
      "ĠCarl": 7574,
      "Go": 7575,
      "ĠIV": 7576,
      "Ġweaken": 7577,
      "Ġrainfall": 7578,
      "Ġemergency": 7579,
      "Ġmoon": 7580,
      "Ġintensity": 7581,
      "chen": 7582,
      "ĠPass": 7583,
      "Ġchose": 7584,
      "\"),": 7585,
      "ĠOl": 7586,
      "Ġthemes": 7587,
      "ĠâĪĴ": 7588,
      "first": 7589,
      "itage": 7590,
      "aa": 7591,
      "oln": 7592,
      "ĠCoast": 7593,
      "arts": 7594,
      "Ġnations": 7595,
      "ĠWomen": 7596,
      "Ġmuscle": 7597,
      ".&": 7598,
      "udes": 7599,
      "Ed": 7600,
      "ĠPot": 7601,
      "inth": 7602,
      "ĠElizabeth": 7603,
      "ĠNumber": 7604,
      "Ġdepos": 7605,
      "ĠÏ": 7606,
      "ĠGre": 7607,
      "Ġlands": 7608,
      "contin": 7609,
      "Ġsorry": 7610,
      "ĠVe": 7611,
      "Ġsir": 7612,
      "Ġunless": 7613,
      "ĠWindows": 7614,
      "Ġmoral": 7615,
      "Ġdecrease": 7616,
      "oto": 7617,
      "Ġmales": 7618,
      "Ġelectrical": 7619,
      "Ġtriang": 7620,
      "ĠMath": 7621,
      "cat": 7622,
      "heim": 7623,
      "Ġplus": 7624,
      "TE": 7625,
      "Ġneck": 7626,
      ")}": 7627,
      "Ġcarefully": 7628,
      "ĠNote": 7629,
      "Ġserves": 7630,
      "Ġroughly": 7631,
      "ĠSS": 7632,
      "ĠWeek": 7633,
      "illy": 7634,
      "illery": 7635,
      "pace": 7636,
      "ln": 7637,
      "Ġmal": 7638,
      "lik": 7639,
      "]:": 7640,
      "Ġque": 7641,
      "Ġouter": 7642,
      "Ġmetres": 7643,
      "Ġconscious": 7644,
      "ĠKey": 7645,
      "Ġcarrying": 7646,
      "mm": 7647,
      "eli": 7648,
      "swer": 7649,
      "Ġfluid": 7650,
      "PR": 7651,
      "Ġped": 7652,
      "Ġpoem": 7653,
      "Ġcomprehensive": 7654,
      "amil": 7655,
      "Ġsan": 7656,
      "Ġforg": 7657,
      "Ġoutcome": 7658,
      "Ġexplos": 7659,
      "Ġaccommod": 7660,
      "Me": 7661,
      "sor": 7662,
      "Ġtissue": 7663,
      "dec": 7664,
      "ĠWild": 7665,
      "liers": 7666,
      "Ġroads": 7667,
      "Ġfeaturing": 7668,
      "Ġrural": 7669,
      "Ġcolour": 7670,
      "Ġregional": 7671,
      "olt": 7672,
      "ĠHard": 7673,
      "Ġbusinesses": 7674,
      "free": 7675,
      "Ġhearing": 7676,
      "ĠEp": 7677,
      "Ġmessages": 7678,
      "Ġinstructions": 7679,
      "Ġmurder": 7680,
      "ĠRecords": 7681,
      "ĠVen": 7682,
      "ĠManc": 7683,
      "Ġoffering": 7684,
      "Ġregist": 7685,
      "Ġdecide": 7686,
      "Ġpolitics": 7687,
      "Ġentertain": 7688,
      "Ġunusual": 7689,
      "OD": 7690,
      "erves": 7691,
      "agers": 7692,
      "TC": 7693,
      "Ġantib": 7694,
      "ithms": 7695,
      "Remember": 7696,
      "Gu": 7697,
      "Ġancest": 7698,
      "Ġingred": 7699,
      "Ġprotest": 7700,
      "ĠBBC": 7701,
      "rive": 7702,
      "Ġknows": 7703,
      "theless": 7704,
      "Ġmaintenance": 7705,
      "Ġdeck": 7706,
      "Ġmanif": 7707,
      "ĠNorm": 7708,
      "Ġvocal": 7709,
      "Ġforth": 7710,
      "alo": 7711,
      "Ġemotions": 7712,
      "Ġgradually": 7713,
      "htm": 7714,
      "Ġguarant": 7715,
      "Ġswim": 7716,
      "Ġacquired": 7717,
      "Ġnewspaper": 7718,
      "Ġnit": 7719,
      "ĠLar": 7720,
      "conf": 7721,
      "Ġcontributed": 7722,
      "di": 7723,
      "Ġlogic": 7724,
      "nergy": 7725,
      "Ġchapter": 7726,
      "Ġofficially": 7727,
      "ĠRos": 7728,
      "ĠAmong": 7729,
      "ĠCambridge": 7730,
      "Ġvo": 7731,
      "ivered": 7732,
      "Ġpreced": 7733,
      "Ġsmart": 7734,
      "low": 7735,
      "ione": 7736,
      "Ġnull": 7737,
      "Ġdisappe": 7738,
      "Ġraw": 7739,
      "ĠRun": 7740,
      "ĠProfess": 7741,
      "MA": 7742,
      "ĠStephen": 7743,
      "ĠDec": 7744,
      ".\"\"\"": 7745,
      "Last": 7746,
      "quarters": 7747,
      "message": 7748,
      "ellect": 7749,
      "Ġviewed": 7750,
      "ĠTreat": 7751,
      "Ġsick": 7752,
      "ĠAge": 7753,
      "Ġrisks": 7754,
      "ĠHaving": 7755,
      "hire": 7756,
      "Are": 7757,
      "ĠMult": 7758,
      "search": 7759,
      "oly": 7760,
      "Ġresolution": 7761,
      "ĠLuc": 7762,
      "ĠCub": 7763,
      "Ġcogn": 7764,
      "erior": 7765,
      "ĠLew": 7766,
      "?ăā": 7767,
      "eren": 7768,
      "Ġsector": 7769,
      "ĠSat": 7770,
      "Ġsteam": 7771,
      "Ġconcentration": 7772,
      "Ġinterpretation": 7773,
      "night": 7774,
      "onia": 7775,
      "Ġconference": 7776,
      "TV": 7777,
      "Ġgrown": 7778,
      "tic": 7779,
      "Ġemployee": 7780,
      "mes": 7781,
      "ali": 7782,
      "Ġstuff": 7783,
      "Ġju": 7784,
      "Key": 7785,
      "Ġinsights": 7786,
      "Ġdriven": 7787,
      "ĠSenate": 7788,
      "Ġadds": 7789,
      "Ġdesigns": 7790,
      "Ġspr": 7791,
      "ao": 7792,
      "opes": 7793,
      "Ġunderstood": 7794,
      "RA": 7795,
      "dy": 7796,
      "ĠField": 7797,
      "aine": 7798,
      "ĠMic": 7799,
      "OC": 7800,
      "Ġrig": 7801,
      "Ġrub": 7802,
      "Ġkilling": 7803,
      "Ġdisorder": 7804,
      "ulating": 7805,
      "Consider": 7806,
      "Ġcommitted": 7807,
      "ÑĤ": 7808,
      "Ġinstitutions": 7809,
      "Ġreaches": 7810,
      "Number": 7811,
      "ĠGall": 7812,
      "Ġsquares": 7813,
      "aria": 7814,
      "Ġdebate": 7815,
      "Ġdispl": 7816,
      "Ġhundreds": 7817,
      "^{\\": 7818,
      "Man": 7819,
      "ells": 7820,
      "ĠJon": 7821,
      "shape": 7822,
      "born": 7823,
      "Ġcircuit": 7824,
      "QL": 7825,
      "Ġduty": 7826,
      "Ġassumed": 7827,
      "âĢĿ.": 7828,
      "ĠPenns": 7829,
      "ĠFrancisco": 7830,
      "Ġtitled": 7831,
      "Ġdecade": 7832,
      "this": 7833,
      "ĠConsider": 7834,
      "iminal": 7835,
      "Ġballs": 7836,
      "ĠColumbia": 7837,
      "ilation": 7838,
      "Ġnotable": 7839,
      "Ġrecognition": 7840,
      "Next": 7841,
      "Ġmarketing": 7842,
      "Ġcandidate": 7843,
      "ĠEmperor": 7844,
      "Ġreferences": 7845,
      "Ġwalking": 7846,
      "Ġcasual": 7847,
      "ĠEnvironment": 7848,
      "rc": 7849,
      "ĠSup": 7850,
      "ĠConst": 7851,
      "Ġcategories": 7852,
      "asters": 7853,
      "ĠLibrary": 7854,
      "Ġscoring": 7855,
      "Ġrows": 7856,
      "Ġjudge": 7857,
      "ĠSpecial": 7858,
      "Ġsimplify": 7859,
      "Ġ<<": 7860,
      "ĠUSA": 7861,
      "Ġjoy": 7862,
      "Ġcorrectly": 7863,
      "Ġsemi": 7864,
      "Ġlic": 7865,
      "Ġstudying": 7866,
      "Ġmile": 7867,
      "DA": 7868,
      "ĠAM": 7869,
      "Ġcomments": 7870,
      "umps": 7871,
      "alog": 7872,
      "String": 7873,
      "Ġpurchased": 7874,
      "Ġdiameter": 7875,
      "Ġreputation": 7876,
      "Ġcoins": 7877,
      "pread": 7878,
      "Form": 7879,
      "aturally": 7880,
      "Ġconsisting": 7881,
      "''.": 7882,
      "aws": 7883,
      "Ġcircumstances": 7884,
      "Ġnetworks": 7885,
      "Ġaer": 7886,
      "Ġtwelve": 7887,
      "ĠEconom": 7888,
      "Ġconstraint": 7889,
      "Ġduplic": 7890,
      "opher": 7891,
      "oven": 7892,
      "Ġmyst": 7893,
      "Ġboys": 7894,
      "Ġtaste": 7895,
      "ĠLab": 7896,
      "ĠMars": 7897,
      "lar": 7898,
      "Ġconj": 7899,
      "incoln": 7900,
      "was": 7901,
      "cosystem": 7902,
      "elly": 7903,
      "Ġstruggle": 7904,
      "Ġusual": 7905,
      "ĠConstitution": 7906,
      "Ġbin": 7907,
      "Ġprecise": 7908,
      "Ġfought": 7909,
      "uts": 7910,
      "rast": 7911,
      "Ġimmediate": 7912,
      "auc": 7913,
      "oir": 7914,
      "Ġtower": 7915,
      "Ġoccupied": 7916,
      "Ġadministr": 7917,
      "Ġbreaking": 7918,
      "Ġvelocity": 7919,
      "gra": 7920,
      "Ġshortly": 7921,
      "idespread": 7922,
      "wall": 7923,
      ";.": 7924,
      "apse": 7925,
      "Ġupdated": 7926,
      "Ġlowest": 7927,
      "Ġmonit": 7928,
      "ĠExpl": 7929,
      "Ġstem": 7930,
      "Ġbom": 7931,
      "Ġuncle": 7932,
      "Ġdemoc": 7933,
      "Ġchampionship": 7934,
      "worth": 7935,
      "ĠMot": 7936,
      "Fig": 7937,
      "Ġgrid": 7938,
      "ĠWilson": 7939,
      "Ġfunds": 7940,
      "Ġvertical": 7941,
      "Ġdynamic": 7942,
      "hus": 7943,
      "sv": 7944,
      "iration": 7945,
      "cluding": 7946,
      "ĠShort": 7947,
      "Ġstrongly": 7948,
      "success": 7949,
      "Ġanxiety": 7950,
      "ĠChildren": 7951,
      "Äĩ": 7952,
      "Ġslope": 7953,
      "Ġven": 7954,
      "She": 7955,
      "áĥ": 7956,
      "Ġunion": 7957,
      "ĠVis": 7958,
      "sg": 7959,
      "Ser": 7960,
      "ĠDE": 7961,
      "Ġfemales": 7962,
      "Hist": 7963,
      "ĠAh": 7964,
      "ultane": 7965,
      "person": 7966,
      "Ġprofile": 7967,
      "Ġstores": 7968,
      "Ġvariation": 7969,
      "Ġinvestigation": 7970,
      "Ġwaiting": 7971,
      "Ġarmed": 7972,
      "Ġtips": 7973,
      "Ġmaybe": 7974,
      "ĠScient": 7975,
      "apped": 7976,
      "ĠâĨ": 7977,
      "core": 7978,
      "Ġseeking": 7979,
      "Ġsixth": 7980,
      "Ġcontrad": 7981,
      "Ġconqu": 7982,
      "Ġarc": 7983,
      "cribed": 7984,
      "Ne": 7985,
      "rency": 7986,
      "Up": 7987,
      "Ġstood": 7988,
      "Ġmagnetic": 7989,
      "Ġaccuracy": 7990,
      "Ġlanding": 7991,
      "OP": 7992,
      "Ġundert": 7993,
      "Ġinstruction": 7994,
      "Trans": 7995,
      "Ġinher": 7996,
      "iest": 7997,
      "Ġchallenging": 7998,
      "Ġages": 7999,
      "Ġwatching": 8000,
      "Ġelectronic": 8001,
      "mann": 8002,
      "wind": 8003,
      "Ġresemb": 8004,
      "Ġpermanent": 8005,
      "ĠOrder": 8006,
      "frame": 8007,
      "Ġmodify": 8008,
      "ortunately": 8009,
      "Ġconven": 8010,
      "TH": 8011,
      "Ġspiritual": 8012,
      "Ġconservation": 8013,
      "ĠJun": 8014,
      "Ġphrases": 8015,
      "Out": 8016,
      "Ġstead": 8017,
      "Ġfer": 8018,
      "ĠDou": 8019,
      "SP": 8020,
      "Ġdiabetes": 8021,
      "CA": 8022,
      "Ġguest": 8023,
      "Ġwithdraw": 8024,
      "icing": 8025,
      "grade": 8026,
      "Ġpurs": 8027,
      "Ġvocals": 8028,
      "vard": 8029,
      "Am": 8030,
      "ĠSuch": 8031,
      "ĠBu": 8032,
      "Ġjustice": 8033,
      "Ġmerch": 8034,
      "Ġfro": 8035,
      "ync": 8036,
      "Ġbass": 8037,
      "ĠGuard": 8038,
      "Ġiniti": 8039,
      "ieval": 8040,
      "Ġcompos": 8041,
      "Ġdelivered": 8042,
      "Ġdisturb": 8043,
      "ĠRod": 8044,
      "Ġsequences": 8045,
      "Ġimmune": 8046,
      "Ġfunding": 8047,
      "Ġsensitive": 8048,
      "current": 8049,
      "Ġphilosophy": 8050,
      "close": 8051,
      "SA": 8052,
      "Ġrose": 8053,
      "Ġsubstance": 8054,
      "UM": 8055,
      "Ġabandoned": 8056,
      "Ġsuffering": 8057,
      "Ġrelief": 8058,
      "Ġstopped": 8059,
      "okes": 8060,
      "float": 8061,
      "ĠFederal": 8062,
      "Ġblog": 8063,
      "ĠPennsylvania": 8064,
      "Ġcrown": 8065,
      "Ġsatell": 8066,
      "Ġconsiderable": 8067,
      "ĠMid": 8068,
      "acher": 8069,
      "ĠColor": 8070,
      "Ġmit": 8071,
      "Ġemissions": 8072,
      "Ġchat": 8073,
      "Ġasc": 8074,
      "Ġcharged": 8075,
      "Ġcoordinates": 8076,
      "ĠBrad": 8077,
      "Ġviewers": 8078,
      "wed": 8079,
      "Ġmac": 8080,
      "CON": 8081,
      "Ġpromoted": 8082,
      "power": 8083,
      "ĠConference": 8084,
      "ĠTake": 8085,
      "Ġtowns": 8086,
      "icken": 8087,
      "called": 8088,
      "IO": 8089,
      "Ġfasc": 8090,
      "Ġ{\\": 8091,
      "ourse": 8092,
      "Ġplastic": 8093,
      "ĠBern": 8094,
      "Ġprocedure": 8095,
      "Ġscheme": 8096,
      "ĠMoon": 8097,
      "ĠDig": 8098,
      "Ġresid": 8099,
      "Ġgovernor": 8100,
      "outheast": 8101,
      "Ġcoastal": 8102,
      "ĠNations": 8103,
      "ifferent": 8104,
      "oom": 8105,
      "Ġspending": 8106,
      "orters": 8107,
      "agan": 8108,
      "ĠRog": 8109,
      "Ġtrav": 8110,
      "Ġvolunte": 8111,
      "Ġgender": 8112,
      "Ġdiverse": 8113,
      "Ġindicated": 8114,
      "infty": 8115,
      "Ġestate": 8116,
      "you": 8117,
      "Ġorbit": 8118,
      "Ġfewer": 8119,
      "orus": 8120,
      "Ġwire": 8121,
      "being": 8122,
      "ĠNaz": 8123,
      "Ġevil": 8124,
      "aga": 8125,
      "ASA": 8126,
      "Ġnaval": 8127,
      "mu": 8128,
      "mut": 8129,
      "ĠAst": 8130,
      "Ġfalls": 8131,
      "Ġintent": 8132,
      "ĠManchester": 8133,
      "Ġinternet": 8134,
      "Ġvessels": 8135,
      "ĠStart": 8136,
      "ĠBon": 8137,
      "Ġproduces": 8138,
      "aka": 8139,
      "Ġrid": 8140,
      "ivery": 8141,
      "Ġtitles": 8142,
      "Ġdream": 8143,
      "Ġfib": 8144,
      "ĠEst": 8145,
      "Ġwidespread": 8146,
      "Ġsolving": 8147,
      "Ġtrends": 8148,
      "ĠHarry": 8149,
      "Ġdriver": 8150,
      "ĠNight": 8151,
      "ideos": 8152,
      "gian": 8153,
      "Ġresident": 8154,
      "jection": 8155,
      "ilton": 8156,
      "Ġsacr": 8157,
      "Ġdependent": 8158,
      "Ġarithmetic": 8159,
      "ĠVictoria": 8160,
      "Ġrejected": 8161,
      "Ġquantity": 8162,
      "etts": 8163,
      "Ġbringing": 8164,
      "Ġcommittee": 8165,
      "oz": 8166,
      "Ġoperated": 8167,
      "ĠMah": 8168,
      "achus": 8169,
      "Ġrestaurant": 8170,
      "azing": 8171,
      "'):": 8172,
      "phi": 8173,
      "small": 8174,
      "ĠAdmiral": 8175,
      "ĠVari": 8176,
      "ternatively": 8177,
      "Ġapproved": 8178,
      "Ġinterface": 8179,
      "Ġboundary": 8180,
      "link": 8181,
      "Ġwine": 8182,
      "Ġsys": 8183,
      "uating": 8184,
      "Ġpip": 8185,
      "Ġearliest": 8186,
      "Ġfavour": 8187,
      "Ġinterior": 8188,
      "ĠMarsh": 8189,
      "Ġtrend": 8190,
      "Ġcrisis": 8191
    },
    "merges": [
      [
        "Ġ",
        "t"
      ],
      [
        "h",
        "e"
      ],
      [
        "Ġ",
        "a"
      ],
      [
        "i",
        "n"
      ],
      [
        "Ġ",
        "Ġ"
      ],
      [
        "r",
        "e"
      ],
      [
        "Ġt",
        "he"
      ],
      [
        "o",
        "n"
      ],
      [
        "e",
        "r"
      ],
      [
        "Ġ",
        "s"
      ],
      [
        "a",
        "t"
      ],
      [
        "Ġ",
        "o"
      ],
      [
        "e",
        "n"
      ],
      [
        "Ġ",
        "w"
      ],
      [
        "Ġ",
        "c"
      ],
      [
        "i",
        "s"
      ],
      [
        "a",
        "n"
      ],
      [
        "e",
        "s"
      ],
      [
        "o",
        "r"
      ],
      [
        "i",
        "t"
      ],
      [
        "e",
        "d"
      ],
      [
        "Ġ",
        "f"
      ],
      [
        "a",
        "l"
      ],
      [
        "Ġa",
        "n"
      ],
      [
        "Ġ",
        "b"
      ],
      [
        "Ġ",
        "p"
      ],
      [
        "Ġo",
        "f"
      ],
      [
        "a",
        "r"
      ],
      [
        "in",
        "g"
      ],
      [
        "Ġ",
        "in"
      ],
      [
        "o",
        "u"
      ],
      [
        "Ġ",
        "m"
      ],
      [
        "Ġan",
        "d"
      ],
      [
        "Ġt",
        "o"
      ],
      [
        "Ġ",
        "d"
      ],
      [
        "i",
        "c"
      ],
      [
        "i",
        "on"
      ],
      [
        "ĠĠ",
        "ĠĠ"
      ],
      [
        "l",
        "e"
      ],
      [
        "a",
        "s"
      ],
      [
        "r",
        "o"
      ],
      [
        "Ġ",
        "h"
      ],
      [
        "Ġ",
        ","
      ],
      [
        "Ġt",
        "h"
      ],
      [
        "en",
        "t"
      ],
      [
        "Ġ",
        "re"
      ],
      [
        "e",
        "l"
      ],
      [
        "c",
        "t"
      ],
      [
        "Ġ",
        "n"
      ],
      [
        "s",
        "t"
      ],
      [
        "Ġ",
        "e"
      ],
      [
        "i",
        "l"
      ],
      [
        "Ġ",
        "l"
      ],
      [
        "Ġ",
        "."
      ],
      [
        "o",
        "m"
      ],
      [
        "Ġ",
        "T"
      ],
      [
        "e",
        "t"
      ],
      [
        "a",
        "m"
      ],
      [
        "i",
        "m"
      ],
      [
        "o",
        "t"
      ],
      [
        "i",
        "d"
      ],
      [
        "Ġ",
        "is"
      ],
      [
        "Ġ",
        "g"
      ],
      [
        "v",
        "e"
      ],
      [
        "Ġ",
        "A"
      ],
      [
        "Ġ",
        "S"
      ],
      [
        "o",
        "l"
      ],
      [
        "u",
        "t"
      ],
      [
        "Ġ",
        "="
      ],
      [
        "c",
        "e"
      ],
      [
        "Ġ",
        "I"
      ],
      [
        "u",
        "s"
      ],
      [
        "u",
        "r"
      ],
      [
        "l",
        "y"
      ],
      [
        "i",
        "g"
      ],
      [
        "o",
        "w"
      ],
      [
        "Ġf",
        "or"
      ],
      [
        "a",
        "d"
      ],
      [
        "Ġb",
        "e"
      ],
      [
        "at",
        "ion"
      ],
      [
        "c",
        "h"
      ],
      [
        "Ġ",
        "on"
      ],
      [
        "Ġ",
        "C"
      ],
      [
        "u",
        "n"
      ],
      [
        "v",
        "er"
      ],
      [
        "Ġs",
        "t"
      ],
      [
        "Ġth",
        "at"
      ],
      [
        "i",
        "r"
      ],
      [
        "a",
        "y"
      ],
      [
        "ĠĠ",
        "Ġ"
      ],
      [
        "Ġa",
        "s"
      ],
      [
        "it",
        "h"
      ],
      [
        "u",
        "l"
      ],
      [
        "Ġ",
        "y"
      ],
      [
        "r",
        "a"
      ],
      [
        "Ġ",
        "("
      ],
      [
        "Ġ",
        "\""
      ],
      [
        "ĠT",
        "he"
      ],
      [
        "Ġ",
        "M"
      ],
      [
        "Ġ",
        "Ċ"
      ],
      [
        "s",
        "e"
      ],
      [
        "Ġw",
        "ith"
      ],
      [
        "he",
        "r"
      ],
      [
        "Ġc",
        "on"
      ],
      [
        "i",
        "f"
      ],
      [
        "u",
        "m"
      ],
      [
        "t",
        "er"
      ],
      [
        "Ġ",
        "B"
      ],
      [
        "Ġ",
        "it"
      ],
      [
        "Ġw",
        "h"
      ],
      [
        "â",
        "Ģ"
      ],
      [
        "Ġa",
        "l"
      ],
      [
        "Ġw",
        "as"
      ],
      [
        "o",
        "d"
      ],
      [
        "q",
        "u"
      ],
      [
        "Ġ",
        "P"
      ],
      [
        "g",
        "e"
      ],
      [
        "Ġp",
        "ro"
      ],
      [
        "t",
        "h"
      ],
      [
        "Ġ",
        "H"
      ],
      [
        "is",
        "t"
      ],
      [
        "ĠĠĠĠ",
        "ĠĠĠĠ"
      ],
      [
        "Ġ",
        "'"
      ],
      [
        "r",
        "i"
      ],
      [
        "Ġo",
        "r"
      ],
      [
        "Ġy",
        "ou"
      ],
      [
        "Ġd",
        "e"
      ],
      [
        "er",
        "s"
      ],
      [
        "e",
        "re"
      ],
      [
        "at",
        "e"
      ],
      [
        "es",
        "t"
      ],
      [
        "an",
        "d"
      ],
      [
        "Ġ",
        "he"
      ],
      [
        "Ġb",
        "y"
      ],
      [
        "Ġ",
        "v"
      ],
      [
        "Ġ",
        "W"
      ],
      [
        "a",
        "c"
      ],
      [
        "Ġa",
        "re"
      ],
      [
        "p",
        "e"
      ],
      [
        "o",
        "re"
      ],
      [
        "Ġ",
        "D"
      ],
      [
        "Ġe",
        "x"
      ],
      [
        "a",
        "b"
      ],
      [
        "Ġ",
        "F"
      ],
      [
        "Ġ",
        "R"
      ],
      [
        "e",
        "m"
      ],
      [
        "Ġa",
        "t"
      ],
      [
        "Ġc",
        "om"
      ],
      [
        "ro",
        "m"
      ],
      [
        "a",
        "in"
      ],
      [
        "o",
        "s"
      ],
      [
        "re",
        "s"
      ],
      [
        "ou",
        "n"
      ],
      [
        "l",
        "d"
      ],
      [
        "Ġ",
        "@"
      ],
      [
        "ig",
        "h"
      ],
      [
        "Ġs",
        "e"
      ],
      [
        "i",
        "v"
      ],
      [
        "il",
        "l"
      ],
      [
        "es",
        "s"
      ],
      [
        "Ġ",
        "r"
      ],
      [
        "k",
        "e"
      ],
      [
        "o",
        "p"
      ],
      [
        "Ġs",
        "u"
      ],
      [
        "Ġ",
        "E"
      ],
      [
        "m",
        "ent"
      ],
      [
        "Ġ",
        "L"
      ],
      [
        "Ġ",
        "N"
      ],
      [
        "Ġ",
        "G"
      ],
      [
        "it",
        "y"
      ],
      [
        "i",
        "es"
      ],
      [
        "an",
        "t"
      ],
      [
        "Ġf",
        "rom"
      ],
      [
        "or",
        "t"
      ],
      [
        "p",
        "p"
      ],
      [
        "Ġ",
        "["
      ],
      [
        "o",
        "c"
      ],
      [
        "i",
        "ve"
      ],
      [
        "ar",
        "t"
      ],
      [
        "ct",
        "ion"
      ],
      [
        "al",
        "l"
      ],
      [
        "Ġn",
        "e"
      ],
      [
        "Ġc",
        "h"
      ],
      [
        "Ġ",
        "us"
      ],
      [
        "]",
        "]"
      ],
      [
        "ĠĠĠĠ",
        "ĠĠĠ"
      ],
      [
        "p",
        "t"
      ],
      [
        "Ġn",
        "ot"
      ],
      [
        "Ġh",
        "a"
      ],
      [
        "Ġs",
        "h"
      ],
      [
        "Ġc",
        "an"
      ],
      [
        "ic",
        "h"
      ],
      [
        "u",
        "d"
      ],
      [
        "igh",
        "t"
      ],
      [
        "Ġ",
        "un"
      ],
      [
        "en",
        "d"
      ],
      [
        "-",
        "@"
      ],
      [
        "Ġ@",
        "-@"
      ],
      [
        "Ġ",
        "O"
      ],
      [
        "am",
        "e"
      ],
      [
        "Ġ",
        "J"
      ],
      [
        "Ġ",
        "le"
      ],
      [
        "i",
        "al"
      ],
      [
        "u",
        "re"
      ],
      [
        "ĠI",
        "n"
      ],
      [
        "p",
        "l"
      ],
      [
        "Ġ",
        "\\"
      ],
      [
        "Ġw",
        "e"
      ],
      [
        "ar",
        "d"
      ],
      [
        "a",
        "g"
      ],
      [
        "ou",
        "r"
      ],
      [
        "b",
        "er"
      ],
      [
        "in",
        "e"
      ],
      [
        "ou",
        "ld"
      ],
      [
        "t",
        "e"
      ],
      [
        "g",
        "h"
      ],
      [
        "Ġp",
        "l"
      ],
      [
        "el",
        "l"
      ],
      [
        "Ġth",
        "is"
      ],
      [
        "ic",
        "al"
      ],
      [
        "u",
        "st"
      ],
      [
        "u",
        "e"
      ],
      [
        "a",
        "ge"
      ],
      [
        "Ġwh",
        "ich"
      ],
      [
        "Ġha",
        "ve"
      ],
      [
        "o",
        "g"
      ],
      [
        "at",
        "ed"
      ],
      [
        "Ġh",
        "is"
      ],
      [
        "Ġ",
        "k"
      ],
      [
        "o",
        "st"
      ],
      [
        "p",
        "er"
      ],
      [
        "a",
        "k"
      ],
      [
        "t",
        "her"
      ],
      [
        "as",
        "t"
      ],
      [
        "'",
        "s"
      ],
      [
        "i",
        "e"
      ],
      [
        "on",
        "g"
      ],
      [
        "e",
        "ct"
      ],
      [
        "i",
        "p"
      ],
      [
        "c",
        "l"
      ],
      [
        "om",
        "e"
      ],
      [
        "Ġw",
        "or"
      ],
      [
        "oun",
        "d"
      ],
      [
        "el",
        "f"
      ],
      [
        "ou",
        "t"
      ],
      [
        "Ġa",
        "r"
      ],
      [
        "ou",
        "gh"
      ],
      [
        "Ġ",
        "âĢ"
      ],
      [
        "Ġ[",
        "["
      ],
      [
        "Ġa",
        "b"
      ],
      [
        "Ġin",
        "t"
      ],
      [
        "Ġ",
        "-"
      ],
      [
        "Ġw",
        "he"
      ],
      [
        "f",
        "f"
      ],
      [
        "Ġ",
        ")"
      ],
      [
        "as",
        "s"
      ],
      [
        "id",
        "e"
      ],
      [
        "ul",
        "t"
      ],
      [
        "Ġ",
        "$"
      ],
      [
        "Ġ",
        "im"
      ],
      [
        "a",
        "re"
      ],
      [
        "Ġ",
        "U"
      ],
      [
        "i",
        "z"
      ],
      [
        "d",
        "er"
      ],
      [
        "an",
        "s"
      ],
      [
        "Ġcom",
        "p"
      ],
      [
        "u",
        "p"
      ],
      [
        "ar",
        "y"
      ],
      [
        "or",
        "m"
      ],
      [
        "Ġw",
        "ere"
      ],
      [
        "ou",
        "s"
      ],
      [
        "i",
        "re"
      ],
      [
        "a",
        "ct"
      ],
      [
        "ac",
        "k"
      ],
      [
        "Ġre",
        "s"
      ],
      [
        "in",
        "d"
      ],
      [
        "c",
        "c"
      ],
      [
        "a",
        "p"
      ],
      [
        "Ġa",
        "d"
      ],
      [
        "Ġal",
        "l"
      ],
      [
        "Ġc",
        "l"
      ],
      [
        "ĠT",
        "h"
      ],
      [
        "Ġm",
        "e"
      ],
      [
        "r",
        "y"
      ],
      [
        "Ġb",
        "ut"
      ],
      [
        "Ġ",
        "en"
      ],
      [
        "it",
        "ion"
      ],
      [
        "s",
        "o"
      ],
      [
        "Ġcon",
        "t"
      ],
      [
        "Ġthe",
        "ir"
      ],
      [
        "i",
        "a"
      ],
      [
        "im",
        "e"
      ],
      [
        "an",
        "ce"
      ],
      [
        "ation",
        "s"
      ],
      [
        "Ġ",
        "K"
      ],
      [
        "a",
        "ch"
      ],
      [
        "in",
        "t"
      ],
      [
        "a",
        "v"
      ],
      [
        "d",
        "u"
      ],
      [
        "T",
        "he"
      ],
      [
        "o",
        "k"
      ],
      [
        "r",
        "it"
      ],
      [
        "ig",
        "n"
      ],
      [
        "ab",
        "le"
      ],
      [
        "i",
        "b"
      ],
      [
        "en",
        "ce"
      ],
      [
        "r",
        "u"
      ],
      [
        "an",
        "g"
      ],
      [
        "âĢ",
        "Ļ"
      ],
      [
        "i",
        "le"
      ],
      [
        "e",
        "ar"
      ],
      [
        "on",
        "e"
      ],
      [
        "Ġh",
        "as"
      ],
      [
        "Ġon",
        "e"
      ],
      [
        "Ġm",
        "ore"
      ],
      [
        "Ġp",
        "er"
      ],
      [
        "Ġh",
        "ad"
      ],
      [
        "u",
        "b"
      ],
      [
        "or",
        "d"
      ],
      [
        "Ġ",
        "j"
      ],
      [
        "ic",
        "e"
      ],
      [
        "Ġal",
        "so"
      ],
      [
        "c",
        "on"
      ],
      [
        "n",
        "t"
      ],
      [
        "as",
        "e"
      ],
      [
        "Ġyou",
        "r"
      ],
      [
        "Ġd",
        "o"
      ],
      [
        "al",
        "ly"
      ],
      [
        "ur",
        "n"
      ],
      [
        "Ġ",
        "+"
      ],
      [
        "Ġthe",
        "y"
      ],
      [
        "is",
        "h"
      ],
      [
        "Ġo",
        "ut"
      ],
      [
        "at",
        "er"
      ],
      [
        "Ġm",
        "an"
      ],
      [
        "ion",
        "s"
      ],
      [
        "ĠS",
        "t"
      ],
      [
        "p",
        "ort"
      ],
      [
        "res",
        "s"
      ],
      [
        "Ġd",
        "is"
      ],
      [
        "Ġ",
        "if"
      ],
      [
        "el",
        "y"
      ],
      [
        "o",
        "od"
      ],
      [
        "a",
        "ke"
      ],
      [
        "or",
        "y"
      ],
      [
        "Ġo",
        "ther"
      ],
      [
        "e",
        "p"
      ],
      [
        "ir",
        "st"
      ],
      [
        "i",
        "an"
      ],
      [
        "Ġs",
        "c"
      ],
      [
        "a",
        "ce"
      ],
      [
        "Ġt",
        "w"
      ],
      [
        "Ġit",
        "s"
      ],
      [
        "Ġwh",
        "o"
      ],
      [
        "oun",
        "t"
      ],
      [
        "am",
        "p"
      ],
      [
        "Ġt",
        "r"
      ],
      [
        "v",
        "el"
      ],
      [
        "Ġt",
        "e"
      ],
      [
        "Ġ",
        "V"
      ],
      [
        "ĠC",
        "h"
      ],
      [
        "ow",
        "n"
      ],
      [
        "Ġn",
        "um"
      ],
      [
        "-",
        "-"
      ],
      [
        "k",
        "s"
      ],
      [
        "p",
        "h"
      ],
      [
        "Ġw",
        "ill"
      ],
      [
        "f",
        "orm"
      ],
      [
        "re",
        "e"
      ],
      [
        "Ġp",
        "re"
      ],
      [
        "at",
        "h"
      ],
      [
        "ĠĠĠĠĠĠĠĠ",
        "ĠĠĠ"
      ],
      [
        "Ġ",
        "up"
      ],
      [
        "Ġp",
        "art"
      ],
      [
        "en",
        "s"
      ],
      [
        "Ġ",
        "ro"
      ],
      [
        "Ġ",
        "Y"
      ],
      [
        "n",
        "e"
      ],
      [
        "Ġs",
        "o"
      ],
      [
        "ĠI",
        "t"
      ],
      [
        "x",
        "t"
      ],
      [
        "Ġf",
        "e"
      ],
      [
        "ol",
        "l"
      ],
      [
        "e",
        "f"
      ],
      [
        "c",
        "es"
      ],
      [
        "ent",
        "s"
      ],
      [
        "Ġe",
        "v"
      ],
      [
        "Ġs",
        "p"
      ],
      [
        "Ġ",
        "qu"
      ],
      [
        "Ġf",
        "irst"
      ],
      [
        "a",
        "il"
      ],
      [
        "at",
        "es"
      ],
      [
        "Ġtw",
        "o"
      ],
      [
        "Ġs",
        "pe"
      ],
      [
        "f",
        "ter"
      ],
      [
        "o",
        "se"
      ],
      [
        "'",
        "'"
      ],
      [
        "or",
        "s"
      ],
      [
        "m",
        "er"
      ],
      [
        "ic",
        "t"
      ],
      [
        "Ġo",
        "ver"
      ],
      [
        "Ġt",
        "ime"
      ],
      [
        "w",
        "e"
      ],
      [
        "Ġbe",
        "c"
      ],
      [
        "Ġ",
        "her"
      ],
      [
        "c",
        "k"
      ],
      [
        "ver",
        "s"
      ],
      [
        "it",
        "e"
      ],
      [
        "Ġw",
        "ould"
      ],
      [
        "l",
        "l"
      ],
      [
        "Ġre",
        "t"
      ],
      [
        "Ġint",
        "o"
      ],
      [
        "Ġbe",
        "en"
      ],
      [
        "Ġl",
        "i"
      ],
      [
        ")",
        ","
      ],
      [
        "Ġab",
        "out"
      ],
      [
        "er",
        "m"
      ],
      [
        "Ġg",
        "r"
      ],
      [
        "o",
        "ok"
      ],
      [
        "#",
        "#"
      ],
      [
        "o",
        "ve"
      ],
      [
        "Ġa",
        "pp"
      ],
      [
        "cl",
        "ud"
      ],
      [
        "il",
        "d"
      ],
      [
        "ĠTh",
        "is"
      ],
      [
        "ri",
        "b"
      ],
      [
        "Ġa",
        "g"
      ],
      [
        "Ġre",
        "c"
      ],
      [
        "a",
        "us"
      ],
      [
        "he",
        "d"
      ],
      [
        "Ġd",
        "es"
      ],
      [
        "Ġs",
        "ome"
      ],
      [
        "ing",
        "s"
      ],
      [
        "Ġcom",
        "m"
      ],
      [
        "Ġb",
        "et"
      ],
      [
        "Ġs",
        "elf"
      ],
      [
        "if",
        "f"
      ],
      [
        "ay",
        "s"
      ],
      [
        ".",
        "."
      ],
      [
        "ver",
        "y"
      ],
      [
        "Ġy",
        "ear"
      ],
      [
        "Ġthe",
        "m"
      ],
      [
        "o",
        "v"
      ],
      [
        "f",
        "t"
      ],
      [
        "re",
        "at"
      ],
      [
        "Ġth",
        "an"
      ],
      [
        "Ġk",
        "n"
      ],
      [
        "Ġthe",
        "re"
      ],
      [
        "Ġg",
        "o"
      ],
      [
        "Ġwhe",
        "n"
      ],
      [
        ")",
        "."
      ],
      [
        "ĠA",
        "n"
      ],
      [
        "o",
        "b"
      ],
      [
        "Ġf",
        "un"
      ],
      [
        "Ġs",
        "er"
      ],
      [
        "Ġde",
        "f"
      ],
      [
        "ĠH",
        "e"
      ],
      [
        "l",
        "es"
      ],
      [
        "Ġcon",
        "s"
      ],
      [
        "ter",
        "n"
      ],
      [
        "re",
        "d"
      ],
      [
        "Ġs",
        "y"
      ],
      [
        "Ġp",
        "r"
      ],
      [
        "[",
        "["
      ],
      [
        "Ġof",
        "f"
      ],
      [
        ".",
        "ă"
      ],
      [
        "w",
        "n"
      ],
      [
        "ad",
        "e"
      ],
      [
        ")",
        ":"
      ],
      [
        "Ġne",
        "w"
      ],
      [
        "j",
        "ect"
      ],
      [
        "on",
        "s"
      ],
      [
        "Ġp",
        "o"
      ],
      [
        "g",
        "r"
      ],
      [
        "ar",
        "k"
      ],
      [
        "re",
        "n"
      ],
      [
        "Ġin",
        "d"
      ],
      [
        "er",
        "t"
      ],
      [
        "ic",
        "k"
      ],
      [
        "r",
        "ough"
      ],
      [
        "at",
        "a"
      ],
      [
        "Ġin",
        "clud"
      ],
      [
        "Ġwor",
        "k"
      ],
      [
        "ol",
        "d"
      ],
      [
        "y",
        "s"
      ],
      [
        "Ġf",
        "l"
      ],
      [
        "if",
        "ic"
      ],
      [
        "Ġp",
        "e"
      ],
      [
        "Ġsu",
        "ch"
      ],
      [
        "c",
        "ed"
      ],
      [
        "ar",
        "i"
      ],
      [
        "Ġre",
        "l"
      ],
      [
        "ĠâĢ",
        "ĵ"
      ],
      [
        "Ġv",
        "al"
      ],
      [
        "Ġan",
        "y"
      ],
      [
        "u",
        "al"
      ],
      [
        "t",
        "y"
      ],
      [
        "Ġun",
        "der"
      ],
      [
        "Ġfor",
        "m"
      ],
      [
        "ur",
        "ing"
      ],
      [
        "Ġc",
        "o"
      ],
      [
        "Ġd",
        "iff"
      ],
      [
        "Ġat",
        "t"
      ],
      [
        "ot",
        "h"
      ],
      [
        "`",
        "`"
      ],
      [
        "*",
        "*"
      ],
      [
        "Ġret",
        "urn"
      ],
      [
        "Ġp",
        "os"
      ],
      [
        "=",
        "="
      ],
      [
        "i",
        "ed"
      ],
      [
        "c",
        "re"
      ],
      [
        "Ġa",
        "cc"
      ],
      [
        "ic",
        "s"
      ],
      [
        "Ġ",
        "<"
      ],
      [
        "en",
        "er"
      ],
      [
        "Ġ",
        ":"
      ],
      [
        "Ġs",
        "a"
      ],
      [
        "g",
        "et"
      ],
      [
        "Ġnum",
        "ber"
      ],
      [
        "Ġt",
        "ra"
      ],
      [
        "ĠU",
        "n"
      ],
      [
        "we",
        "en"
      ],
      [
        "Ġas",
        "s"
      ],
      [
        "Ġon",
        "ly"
      ],
      [
        "ul",
        "ar"
      ],
      [
        "Ġn",
        "o"
      ],
      [
        "as",
        "ed"
      ],
      [
        "Ġre",
        "m"
      ],
      [
        "is",
        "e"
      ],
      [
        "od",
        "e"
      ],
      [
        "Ġa",
        "m"
      ],
      [
        "Ġm",
        "ost"
      ],
      [
        "ere",
        "d"
      ],
      [
        "Ġim",
        "p"
      ],
      [
        "le",
        "ct"
      ],
      [
        "Ġa",
        "fter"
      ],
      [
        "s",
        "elf"
      ],
      [
        "at",
        "ing"
      ],
      [
        "Ġbet",
        "ween"
      ],
      [
        "Ġ",
        "ra"
      ],
      [
        "âĢ",
        "Ŀ"
      ],
      [
        "Ġh",
        "im"
      ],
      [
        "Ġh",
        "ow"
      ],
      [
        "Ġsu",
        "b"
      ],
      [
        "Ġspe",
        "c"
      ],
      [
        "Ġus",
        "e"
      ],
      [
        "et",
        "h"
      ],
      [
        "Ġ",
        "x"
      ],
      [
        "Ġus",
        "ed"
      ],
      [
        "f",
        "ore"
      ],
      [
        "Ġm",
        "ay"
      ],
      [
        "Ġb",
        "l"
      ],
      [
        "Ġwhe",
        "re"
      ],
      [
        "Ġthe",
        "se"
      ],
      [
        "Ġs",
        "he"
      ],
      [
        "an",
        "ge"
      ],
      [
        "Ġli",
        "ke"
      ],
      [
        "Ġs",
        "et"
      ],
      [
        "Ġm",
        "y"
      ],
      [
        "oll",
        "ow"
      ],
      [
        "Ġpro",
        "du"
      ],
      [
        "Ġad",
        "d"
      ],
      [
        "al",
        "s"
      ],
      [
        "Ġa",
        "ct"
      ],
      [
        "is",
        "s"
      ],
      [
        "l",
        "and"
      ],
      [
        "ĠS",
        "e"
      ],
      [
        "Ġo",
        "b"
      ],
      [
        "Ġst",
        "ud"
      ],
      [
        "v",
        "ed"
      ],
      [
        "n",
        "ing"
      ],
      [
        "ĠĠĠĠĠĠĠĠ",
        "ĠĠĠĠĠĠĠĠ"
      ],
      [
        "ol",
        "og"
      ],
      [
[...]
