{
  "version": "1.0",
  "truncation": null,
  "padding": null,
  "added_tokens": [
    {
      "id": 0,
      "content": "\u0000",
      "single_word": false,
      "lstrip": false,
      "rstrip": false,
      "normalized": false,
      "special": true
    },
    {
      "id": 1,
      "content": "\u0001",
      "single_word": false,
      "lstrip": false,
      "rstrip": false,
      "normalized": false,
      "special": true
    },
    {
      "id": 2,
      "content": "\u0002",
      "single_word": false,
      "lstrip": false,
      "rstrip": false,
      "normalized": false,
      "special": true
    },
    {
      "id": 3,
      "content": "\u0003",
      "single_word": false,
      "lstrip": false,
      "rstrip": false,
      "normalized": false,
      "special": true
    },
    {
      "id": 4,
      "content": "\u0004",
      "single_word": false,
      "lstrip": false,
      "rstrip": false,
      "normalized": false,
      "special": true
    }
  ],
  "normalizer": null,
  "pre_tokenizer": {
    "type": "Sequence",
    "pretokenizers": [
      {
        "type": "Split",
        "pattern": {
          "Regex": "\\d"
        },
        "behavior": "Isolated",
        "invert": false
      },
      {
        "type": "ByteLevel",
        "add_prefix_space": false,
        "trim_offsets": true,
        "use_regex": true
      }
    ]
  },
  "post_processor": null,
  "decoder": {
    "type": "ByteLevel",
    "add_prefix_space": true,
    "trim_offsets": true,
    "use_regex": true
  },
  "model": {
    "type": "BPE",
    "dropout": null,
    "unk_token": null,
    "continuing_subword_prefix": null,
    "end_of_word_suffix": null,
    "fuse_unk": false,
    "byte_fallback": false,
    "ignore_merges": false,
    "vocab": {
      "\u0000": 0,
      "\u0001": 1,
      "\u0002": 2,
      "\u0003": 3,
      "\u0004": 4,
      "!": 5,
      "\"": 6,
      "#": 7,
      "$": 8,
      "%": 9,
      "&": 10,
      "'": 11,
      "(": 12,
      ")": 13,
      "*": 14,
      "+": 15,
      ",": 16,
      "-": 17,
      ".": 18,
      "/": 19,
      "0": 20,
      "1": 21,
      "2": 22,
      "3": 23,
      "4": 24,
      "5": 25,
      "6": 26,
      "7": 27,
      "8": 28,
      "9": 29,
      ":": 30,
      ";": 31,
      "<": 32,
      "=": 33,
      ">": 34,
      "?": 35,
      "@": 36,
      "A": 37,
      "B": 38,
      "C": 39,
      "D": 40,
      "E": 41,
      "F": 42,
      "G": 43,
      "H": 44,
      "I": 45,
      "J": 46,
      "K": 47,
      "L": 48,
      "M": 49,
      "N": 50,
      "O": 51,
      "P": 52,
      "Q": 53,
      "R": 54,
      "S": 55,
      "T": 56,
      "U": 57,
      "V": 58,
      "W": 59,
      "X": 60,
      "Y": 61,
      "Z": 62,
      "[": 63,
      "\\": 64,
      "]": 65,
      "^": 66,
      "_": 67,
      "`": 68,
      "a": 69,
      "b": 70,
      "c": 71,
      "d": 72,
      "e": 73,
      "f": 74,
      "g": 75,
      "h": 76,
      "i": 77,
      "j": 78,
      "k": 79,
      "l": 80,
      "m": 81,
      "n": 82,
      "o": 83,
      "p": 84,
      "q": 85,
      "r": 86,
      "s": 87,
      "t": 88,
      "u": 89,
      "v": 90,
      "w": 91,
      "x": 92,
      "y": 93,
      "z": 94,
      "{": 95,
      "|": 96,
      "}": 97,
      "~": 98,
      "¡": 99,
      "¢": 100,
      "£": 101,
      "¤": 102,
      "¥": 103,
      "¦": 104,
      "§": 105,
      "¨": 106,
      "©": 107,
      "ª": 108,
      "«": 109,
      "¬": 110,
      "®": 111,
      "¯": 112,
      "°": 113,
      "±": 114,
      "²": 115,
      "³": 116,
      "´": 117,
      "µ": 118,
      "¶": 119,
      "·": 120,
      "¸": 121,
      "¹": 122,
      "º": 123,
      "»": 124,
      "¼": 125,
      "½": 126,
      "¾": 127,
      "¿": 128,
      "À": 129,
      "Á": 130,
      "Â": 131,
      "Ã": 132,
      "Ä": 133,
      "Å": 134,
      "Æ": 135,
      "Ç": 136,
      "È": 137,
      "É": 138,
      "Ê": 139,
      "Ë": 140,
      "Ì": 141,
      "Í": 142,
      "Î": 143,
      "Ï": 144,
      "Ð": 145,
      "Ñ": 146,
      "Ò": 147,
      "Ó": 148,
      "Ô": 149,
      "Õ": 150,
      "Ö": 151,
      "×": 152,
      "Ø": 153,
      "Ù": 154,
      "Ú": 155,
      "Û": 156,
      "Ü": 157,
      "Ý": 158,
      "Þ": 159,
      "ß": 160,
      "à": 161,
      "á": 162,
      "â": 163,
      "ã": 164,
      "ä": 165,
      "å": 166,
      "æ": 167,
      "ç": 168,
      "è": 169,
      "é": 170,
      "ê": 171,
      "ë": 172,
      "ì": 173,
      "í": 174,
      "î": 175,
      "ï": 176,
      "ð": 177,
      "ñ": 178,
      "ò": 179,
      "ó": 180,
      "ô": 181,
      "õ": 182,
      "ö": 183,
      "÷": 184,
      "ø": 185,
      "ù": 186,
      "ú": 187,
      "û": 188,
      "ü": 189,
      "ý": 190,
      "þ": 191,
      "ÿ": 192,
      "Ā": 193,
      "ā": 194,
      "Ă": 195,
      "ă": 196,
      "Ą": 197,
      "ą": 198,
      "Ć": 199,
      "ć": 200,
      "Ĉ": 201,
      "ĉ": 202,
      "Ċ": 203,
      "ċ": 204,
      "Č": 205,
      "č": 206,
      "Ď": 207,
      "ď": 208,
      "Đ": 209,
      "đ": 210,
      "Ē": 211,
      "ē": 212,
      "Ĕ": 213,
      "ĕ": 214,
      "Ė": 215,
      "ė": 216,
      "Ę": 217,
      "ę": 218,
      "Ě": 219,
      "ě": 220,
      "Ĝ": 221,
      "ĝ": 222,
      "Ğ": 223,
      "ğ": 224,
      "Ġ": 225,
      "ġ": 226,
      "Ģ": 227,
      "ģ": 228,
      "Ĥ": 229,
      "ĥ": 230,
      "Ħ": 231,
      "ħ": 232,
      "Ĩ": 233,
      "ĩ": 234,
      "Ī": 235,
      "ī": 236,
      "Ĭ": 237,
      "ĭ": 238,
      "Į": 239,
      "į": 240,
      "İ": 241,
      "ı": 242,
      "Ĳ": 243,
      "ĳ": 244,
      "Ĵ": 245,
      "ĵ": 246,
      "Ķ": 247,
      "ķ": 248,
      "ĸ": 249,
      "Ĺ": 250,
      "ĺ": 251,
      "Ļ": 252,
      "ļ": 253,
      "Ľ": 254,
      "ľ": 255,
      "Ŀ": 256,
      "ŀ": 257,
      "Ł": 258,
      "ł": 259,
      "Ń": 260,
      "Ġt": 261,
      "Ġa": 262,
      "he": 263,
      "in": 264,
      "ĠĠ": 265,
      "re": 266,
      "on": 267,
      "Ġthe": 268,
      "er": 269,
      "Ġs": 270,
      "at": 271,
      "Ġo": 272,
      "Ġc": 273,
      "en": 274,
      "Ġw": 275,
      "es": 276,
      "nd": 277,
      "or": 278,
      "is": 279,
      "it": 280,
      "al": 281,
      "Ġf": 282,
      "ing": 283,
      "ed": 284,
      "Ġp": 285,
      "an": 286,
      "Ġb": 287,
      "ar": 288,
      "ou": 289,
      "Ġof": 290,
      "ĠĠĠĠ": 291,
      "Ġin": 292,
      "Ġand": 293,
      "ion": 294,
      "Ġm": 295,
      "Ġto": 296,
      "Ġd": 297,
      "ic": 298,
      "le": 299,
      "as": 300,
      "ro": 301,
      "Ġ,": 302,
      "Ġh": 303,
      "ent": 304,
      "ct": 305,
      "Ġre": 306,
      "Ġe": 307,
      "Ġth": 308,
      "Ġn": 309,
      "st": 310,
      "el": 311,
      "et": 312,
      "Ġl": 313,
      "om": 314,
      "il": 315,
      "Ġ.": 316,
      "ĠT": 317,
      "am": 318,
      "im": 319,
      "id": 320,
      "ve": 321,
      "ot": 322,
      "ce": 323,
      "Ġ=": 324,
      "ol": 325,
      "ut": 326,
      "Ġg": 327,
      "Ġis": 328,
      "ĠĠĠ": 329,
      "us": 330,
      "ation": 331,
      "ur": 332,
      "Ġfor": 333,
      "ig": 334,
      "ra": 335,
      "Ġ\"": 336,
      "ow": 337,
      "ĠA": 338,
      "Ġbe": 339,
      "ch": 340,
      "Ġst": 341,
      "ĠI": 342,
      "ly": 343,
      "ĠS": 344,
      "Ġon": 345,
      "ers": 346,
      "Ġy": 347,
      "Ġthat": 348,
      "ad": 349,
      "ith": 350,
      "ir": 351,
      "Ġcon": 352,
      "ul": 353,
      "Ġas": 354,
      "un": 355,
      "if": 356,
      "ĠC": 357,
      "um": 358,
      "Ġwith": 359,
      "ĠĊ": 360,
      "ay": 361,
      "her": 362,
      "qu": 363,
      "se": 364,
      "ĠĠĠĠĠĠĠĠ": 365,
      "Ġyou": 366,
      "Ġv": 367,
      "Ġ(": 368,
      "Ġan": 369,
      "Ġor": 370,
      "ĠThe": 371,
      "Ġit": 372,
      "ist": 373,
      "Ġpro": 374,
      "ate": 375,
      "ri": 376,
      "ĠM": 377,
      "Ġal": 378,
      "ag": 379,
      "od": 380,
      "ver": 381,
      "Ġwh": 382,
      "Ġ'": 383,
      "est": 384,
      "Ġex": 385,
      "pe": 386,
      "ĠB": 387,
      "Ġde": 388,
      "ter": 389,
      "th": 390,
      "ore": 391,
      "Ġwas": 392,
      "ld": 393,
      "iv": 394,
      "ab": 395,
      "ere": 396,
      "ke": 397,
      "ĠP": 398,
      "Ġcom": 399,
      "em": 400,
      "ac": 401,
      "ĠH": 402,
      "ess": 403,
      "res": 404,
      "Ġhe": 405,
      "Ġsu": 406,
      "ity": 407,
      "ain": 408,
      "pt": 409,
      "igh": 410,
      "and": 411,
      "ction": 412,
      "Ġare": 413,
      "Ġby": 414,
      "ĠĠĠĠĠĠĠ": 415,
      "os": 416,
      "Ġse": 417,
      "ies": 418,
      "pp": 419,
      "rom": 420,
      "Ġ@": 421,
      "ive": 422,
      "Ġat": 423,
      "ĠW": 424,
      "ĠF": 425,
      "Ġcan": 426,
      "ment": 427,
      "ĠD": 428,
      "ĠR": 429,
      "ill": 430,
      "all": 431,
      "Ġch": 432,
      "ort": 433,
      "'s": 434,
      "Ġus": 435,
      "oc": 436,
      "ant": 437,
      "Ġr": 438,
      "Ġne": 439,
      "nt": 440,
      "ĠE": 441,
      "Ġ[": 442,
      "op": 443,
      "ial": 444,
      "ould": 445,
      "pl": 446,
      "art": 447,
      "Ġfrom": 448,
      "ĠL": 449,
      "ight": 450,
      "ame": 451,
      "ĠN": 452,
      "Ġint": 453,
      "Ġsh": 454,
      "ĠG": 455,
      "end": 456,
      "ud": 457,
      "]]": 458,
      "ue": 459,
      "âĢ": 460,
      "ich": 461,
      "Ġwe": 462,
      "ure": 463,
      "ge": 464,
      "Ġnot": 465,
      "Ġle": 466,
      "ect": 467,
      "per": 468,
      "\":": 469,
      "Ġha": 470,
      "-@": 471,
      "Ġ@-@": 472,
      "Ġ\\": 473,
      "ine": 474,
      "Ġu": 475,
      "ber": 476,
      "ple": 477,
      "ard": 478,
      "rou": 479,
      "elf": 480,
      "our": 481,
      "ust": 482,
      "int": 483,
      "Ġpl": 484,
      "act": 485,
      "out": 486,
      "ical": 487,
      "**": 488,
      "ĠO": 489,
      "iz": 490,
      "cl": 491,
      "Ġthis": 492,
      "ĠJ": 493,
      "ult": 494,
      "age": 495,
      "Ġyour": 496,
      "Ġim": 497,
      "og": 498,
      "Ġwor": 499,
      "ak": 500,
      "ide": 501,
      "ations": 502,
      "ast": 503,
      "ie": 504,
      "gh": 505,
      "Ġen": 506,
      "Ġwhich": 507,
      "ions": 508,
      "Ġhave": 509,
      "Ġhis": 510,
      "ass": 511,
      "Ġ$": 512,
      "ip": 513,
      "ther": 514,
      "orm": 515,
      "are": 516,
      "ff": 517,
      "ell": 518,
      "Ġad": 519,
      "ance": 520,
      "Ġun": 521,
      "ome": 522,
      "ex": 523,
      "ated": 524,
      "Ġwhe": 525,
      "ost": 526,
      "Ġ-": 527,
      "ĠTh": 528,
      "Ġres": 529,
      "Ġtheir": 530,
      "ack": 531,
      "ence": 532,
      "ind": 533,
      "Ġab": 534,
      "Ġk": 535,
      "ire": 536,
      "cc": 537,
      "so": 538,
      "Ġcont": 539,
      "Ġ[[": 540,
      "ach": 541,
      "ong": 542,
      "ary": 543,
      "Ġcl": 544,
      "Ġ)": 545,
      "Ġar": 546,
      "Ġmore": 547,
      "able": 548,
      "low": 549,
      "ĠIn": 550,
      "ime": 551,
      "ans": 552,
      "Ġme": 553,
      "du": 554,
      "The": 555,
      "rit": 556,
      "ign": 557,
      "ile": 558,
      "ap": 559,
      "ake": 560,
      "ib": 561,
      "ry": 562,
      "ru": 563,
      "av": 564,
      "ous": 565,
      "ang": 566,
      "Ġif": 567,
      "Ġalso": 568,
      "Ġ+": 569,
      "ory": 570,
      "ĠĠĠĠĠĠĠĠĠĠĠ": 571,
      "urn": 572,
      "Ġbut": 573,
      "ĠU": 574,
      "\",": 575,
      "ase": 576,
      "ok": 577,
      "Ġnum": 578,
      "Ġcomp": 579,
      "one": 580,
      "Ġout": 581,
      "ord": 582,
      "con": 583,
      ".ă": 584,
      "unction": 585,
      "ount": 586,
      "ep": 587,
      "Ġj": 588,
      "ef": 589,
      "Ġfe": 590,
      "ice": 591,
      "Ġwere": 592,
      "Ġhas": 593,
      "form": 594,
      "ĠThis": 595,
      "ition": 596,
      "Ġsc": 597,
      "``": 598,
      "ces": 599,
      "Ġ{": 600,
      "Ġqu": 601,
      "ress": 602,
      "Ġper": 603,
      "ents": 604,
      "ub": 605,
      "ely": 606,
      "Ġone": 607,
      "--": 608,
      "Ġits": 609,
      "ĠK": 610,
      "vel": 611,
      "Ġher": 612,
      "Ġdis": 613,
      "Ġcre": 614,
      "Ġthey": 615,
      "ia": 616,
      "ace": 617,
      "Ġev": 618,
      "Ġdo": 619,
      "Ġother": 620,
      "ne": 621,
      "ty": 622,
      "Ġret": 623,
      "Ġhad": 624,
      "port": 625,
      "Ġro": 626,
      "ph": 627,
      "ĠSt": 628,
      "ally": 629,
      "Ġtw": 630,
      "ata": 631,
      "ck": 632,
      "Ġman": 633,
      "ĠâĢ": 634,
      "ict": 635,
      "ound": 636,
      "irst": 637,
      "ail": 638,
      "Ġapp": 639,
      "ear": 640,
      "Ġfunction": 641,
      "ens": 642,
      "Ġsp": 643,
      "we": 644,
      "Ġself": 645,
      "ath": 646,
      "Ġup": 647,
      "ext": 648,
      "Ġwould": 649,
      "Ġwho": 650,
      "Ġwill": 651,
      "Ġpre": 652,
      "ors": 653,
      "Ġval": 654,
      "Ġcons": 655,
      "Ġspe": 656,
      "clud": 657,
      "Ġli": 658,
      "Ġtra": 659,
      "ates": 660,
      "ject": 661,
      "Ġbet": 662,
      "Ġinto": 663,
      "ish": 664,
      "Ġall": 665,
      "Ġpart": 666,
      "ree": 667,
      "ater": 668,
      "ian": 669,
      "Ġcould": 670,
      "Ġgo": 671,
      "ating": 672,
      "):": 673,
      "Ġtime": 674,
      "own": 675,
      "Ġem": 676,
      "nder": 677,
      "oint": 678,
      "Ġpr": 679,
      "Ġtr": 680,
      "ks": 681,
      "ĠV": 682,
      "Ġdes": 683,
      "Ġcomm": 684,
      "ific": 685,
      "Ġabout": 686,
      "Ġform": 687,
      "Ġte": 688,
      "Ġover": 689,
      "rib": 690,
      "fere": 691,
      "ption": 692,
      "Ġtwo": 693,
      "arg": 694,
      "Ġthem": 695,
      "ode": 696,
      "Ġreturn": 697,
      "''": 698,
      "Ġrel": 699,
      "Ġnew": 700,
      "Ġsuch": 701,
      "ll": 702,
      "Ġfirst": 703,
      "ose": 704,
      "Ġra": 705,
      "ook": 706,
      "Ġdef": 707,
      "ĠY": 708,
      "erm": 709,
      "Ġsome": 710,
      "ari": 711,
      "Ġ`": 712,
      "ov": 713,
      "ys": 714,
      "##": 715,
      "ob": 716,
      "ft": 717,
      "Ġacc": 718,
      "Ġinclud": 719,
      "les": 720,
      "ĠCh": 721,
      "ove": 722,
      "ĠIt": 723,
      "fter": 724,
      "put": 725,
      "ert": 726,
      "Ġind": 727,
      "Ġrec": 728,
      "ark": 729,
      "ring": 730,
      "ough": 731,
      "Ġso": 732,
      "ite": 733,
      "),": 734,
      "Ġser": 735,
      "wn": 736,
      "ween": 737,
      "Ġset": 738,
      "Ġ<": 739,
      "Ġunder": 740,
      "Ġpos": 741,
      "Ġbeen": 742,
      "Ġchar": 743,
      "eg": 744,
      "Ġcol": 745,
      "Ġbec": 746,
      "Ġnumber": 747,
      "Ġbetween": 748,
      "ative": 749,
      "yst": 750,
      "ollow": 751,
      "ics": 752,
      "Ġwork": 753,
      "ise": 754,
      "self": 755,
      "ual": 756,
      "hed": 757,
      "}}": 758,
      "Ġadd": 759,
      "Ġlike": 760,
      "Ġprov": 761,
      "ons": 762,
      "Ġmake": 763,
      "Ġwhere": 764,
      "cre": 765,
      "Ġdif": 766,
      "Ġdata": 767,
      "ool": 768,
      "ild": 769,
      "te": 770,
      "()": 771,
      "Ġag": 772,
      "[[": 773,
      "Ġoff": 774,
      "ays": 775,
      "Ġwhen": 776,
      "name": 777,
      "rough": 778,
      "Ġ**": 779,
      "Ġinter": 780,
      "Ġhel": 781,
      "ities": 782,
      "Ġkn": 783,
      "Ġneed": 784,
      "Ġspec": 785,
      "ced": 786,
      "ings": 787,
      "ăĂ": 788,
      "old": 789,
      "Ġfollow": 790,
      "Ġatt": 791,
      "ased": 792,
      "Ġthere": 793,
      "Ġx": 794,
      "Ġshe": 795,
      "Ġthan": 796,
      "==": 797,
      "Ġass": 798,
      "Ġany": 799,
      "ility": 800,
      "Ġhelp": 801,
      "ider": 802,
      "Ġimp": 803,
      "ng": 804,
      "val": 805,
      "ues": 806,
      "ments": 807,
      "Ġpoint": 808,
      "eth": 809,
      "Ġthese": 810,
      "Ġam": 811,
      "aus": 812,
      "ize": 813,
      "Ġob": 814,
      "pect": 815,
      "Ġco": 816,
      "ener": 817,
      "Ġcharact": 818,
      "Ġyear": 819,
      "oth": 820,
      "Ąā": 821,
      "hip": 822,
      "Ġmod": 823,
      "Ġuse": 824,
      "hat": 825,
      "Ġused": 826,
      "Ġke": 827,
      "ood": 828,
      "In": 829,
      "cess": 830,
      "Ġele": 831,
      "Ġsub": 832,
      "ular": 833,
      "Ġ:": 834,
      "uring": 835,
      "',": 836,
      "ĠĠĠĠĠĠĠĠĠĠĠĠĠĠĠĠ": 837,
      "ient": 838,
      "..": 839,
      "Ġeach": 840,
      "Ġhow": 841,
      "oy": 842,
      "Ġrem": 843,
      "get": 844,
      "ick": 845,
      "ied": 846,
      "ample": 847,
      "ange": 848,
      "Ġlist": 849,
      "ĠHe": 850,
      "Ġmy": 851,
      "Ġcall": 852,
      "Ġprodu": 853,
      "round": 854,
      "ential": 855,
      "ax": 856,
      "amp": 857,
      "Ġvari": 858,
      "Ġ#": 859,
      "Ġeff": 860,
      "ystem": 861,
      "Ġexper": 862,
      "ning": 863,
      "row": 864,
      "ĠâĢĵ": 865,
      "Ġinv": 866,
      "ond": 867,
      ").": 868,
      "Ġusing": 869,
      "red": 870,
      "hes": 871,
      "cri": 872,
      "ink": 873,
      "Ġpe": 874,
      "ever": 875,
      "ward": 876,
      "Ġno": 877,
      "als": 878,
      "Ġdiffere": 879,
      "ram": 880,
      "Ġdist": 881,
      "lic": 882,
      "Ġmay": 883,
      "Ġsa": 884,
      "ible": 885,
      "Ġpers": 886,
      "Ġthrough": 887,
      "Ġreg": 888,
      "ful": 889,
      "Ġequ": 890,
      "Ġafter": 891,
      "its": 892,
      "tern": 893,
      "Ġhim": 894,
      "Ġcomple": 895,
      "ution": 896,
      "```": 897,
      "Ġonly": 898,
      "com": 899,
      "ered": 900,
      "hen": 901,
      "Ġmat": 902,
      "iel": 903,
      "ric": 904,
      "iven": 905,
      "aking": 906,
      "ble": 907,
      "Ġfl": 908,
      "fore": 909,
      "iew": 910,
      "ade": 911,
      "ix": 912,
      "Ġact": 913,
      "Ġph": 914,
      "ten": 915,
      "Ġexp": 916,
      "Ġstud": 917,
      "ures": 918,
      "Ġplay": 919,
      "Ġfind": 920,
      "ock": 921,
      "velop": 922,
      "bers": 923,
      "Ġdet": 924,
      "inal": 925,
      "**:": 926,
      "Ġwhile": 927,
      "Ġtrans": 928,
      "olog": 929,
      "iss": 930,
      "ars": 931,
      "Ġmost": 932,
      "rac": 933,
      "Ġstr": 934,
      "ited": 935,
      "Ġexpl": 936,
      "Ġwhat": 937,
      "Ġ/": 938,
      "Ġwrit": 939,
      "Ġget": 940,
      "ily": 941,
      "reat": 942,
      "ĠĠĠĠĠ": 943,
      "Ġsim": 944,
      "Ġour": 945,
      "ident": 946,
      "ved": 947,
      "arch": 948,
      "?ăĂ": 949,
      "eng": 950,
      "ery": 951,
      "Ġbu": 952,
      "Ġthen": 953,
      "ience": 954,
      "pport": 955,
      "Ġsm": 956,
      "mer": 957,
      "land": 958,
      "type": 959,
      "Ġresult": 960,
      "ower": 961,
      "yth": 962,
      "roup": 963,
      "ious": 964,
      "Ġbl": 965,
      "ract": 966,
      "Ġcor": 967,
      "ctions": 968,
      "Ġpar": 969,
      "ield": 970,
      "gg": 971,
      "Ġwell": 972,
      "resent": 973,
      "ting": 974,
      "Ġinst": 975,
      "Ġsign": 976,
      "ew": 977,
      "ision": 978,
      "Ġ&": 979,
      "----": 980,
      "Ġappro": 981,
      "cept": 982,
      "other": 983,
      "Ġrequ": 984,
      "Ġloc": 985,
      "ational": 986,
      "cond": 987,
      "Ġty": 988,
      "Ġcreate": 989,
      "pr": 990,
      "ĠAs": 991,
      "Ġsystem": 992,
      "par": 993,
      "Ġent": 994,
      "Ġ;": 995,
      "ify": 996,
      "Ġdevelop": 997,
      "quot": 998,
      "gan": 999,
      "ving": 1000,
      "ired": 1001,
      "ife": 1002,
      "Ġmain": 1003,
      "ĠHow": 1004,
      "Ġshould": 1005,
      "Ġstart": 1006,
      "Ġhigh": 1007,
      "ts": 1008,
      "âĢĻ": 1009,
      "Ġsol": 1010,
      "fl": 1011,
      "ruct": 1012,
      "Ġgener": 1013,
      "ĠSe": 1014,
      "Ġdec": 1015,
      "Ġconsider": 1016,
      "ĠĠĠĠĠĠĠĠĠĠĠĠĠĠĠ": 1017,
      "{\"": 1018,
      "ron": 1019,
      "Ġvalue": 1020,
      "aw": 1021,
      "ince": 1022,
      "Ġcur": 1023,
      "Ġcharacter": 1024,
      "__": 1025,
      "ĠUn": 1026,
      "ople": 1027,
      "Ġpol": 1028,
      "ense": 1029,
      "frac": 1030,
      "Ġrev": 1031,
      ".\"": 1032,
      "Ġlead": 1033,
      "Ġfil": 1034,
      "cription": 1035,
      "any": 1036,
      "ren": 1037,
      "Ġboth": 1038,
      "ather": 1039,
      ".ăĂ": 1040,
      "}{": 1041,
      "ern": 1042,
      "ines": 1043,
      "ĠIf": 1044,
      "ature": 1045,
      "ause": 1046,
      "Ġsur": 1047,
      "Ġback": 1048,
      "Ġexample": 1049,
      "Ġend": 1050,
      "ĠAl": 1051,
      "Ġins": 1052,
      "Ġdisc": 1053,
      "(\"": 1054,
      "Ġgiven": 1055,
      "lect": 1056,
      "des": 1057,
      "up": 1058,
      "Ġref": 1059,
      "Ġrep": 1060,
      "Ġmight": 1061,
      "Ġbeing": 1062,
      "\":\"": 1063,
      "imes": 1064,
      "Ġmany": 1065,
      "Ġperson": 1066,
      "Ġworld": 1067,
      "Ġquest": 1068,
      "Ġac": 1069,
      "ins": 1070,
      "enc": 1071,
      "ork": 1072,
      "Ġclass": 1073,
      "cul": 1074,
      "Ġfollowing": 1075,
      "Ġ{\"": 1076,
      "ĠFor": 1077,
      "Ġcent": 1078,
      "Ġmin": 1079,
      "Ġread": 1080,
      "ec": 1081,
      "))": 1082,
      "Ġmem": 1083,
      "Ġdifferent": 1084,
      "Ġart": 1085,
      "Ġ|": 1086,
      "</": 1087,
      "att": 1088,
      "els": 1089,
      "Ġway": 1090,
      "tt": 1091,
      "ros": 1092,
      "raph": 1093,
      "def": 1094,
      ".ăĄā": 1095,
      "led": 1096,
      "iqu": 1097,
      "Ġdep": 1098,
      "Ġown": 1099,
      "Ġear": 1100,
      "Ġsent": 1101,
      "stand": 1102,
      "ner": 1103,
      "ness": 1104,
      "ason": 1105,
      "ethod": 1106,
      "Ġpeople": 1107,
      "ython": 1108,
      "Ġimport": 1109,
      "Ġap": 1110,
      "Ġthree": 1111,
      "Ġsecond": 1112,
      "Ġposs": 1113,
      ".ăā": 1114,
      "Ġlong": 1115,
      "Ġagain": 1116,
      "der": 1117,
      "ror": 1118,
      "ier": 1119,
      "Ġreal": 1120,
      "Ġshow": 1121,
      "]],": 1122,
      "Ġ*": 1123,
      "ms": 1124,
      "Ġpass": 1125,
      "Ġkey": 1126,
      "io": 1127,
      "cial": 1128,
      "Ġel": 1129,
      "Ġprog": 1130,
      "hem": 1131,
      "Ġknow": 1132,
      "nce": 1133,
      "Ġext": 1134,
      "ument": 1135,
      "Ġgroup": 1136,
      "ĠWe": 1137,
      "air": 1138,
      "ices": 1139,
      "Ġconc": 1140,
      "'t": 1141,
      "ves": 1142,
      ".@": 1143,
      "Ġduring": 1144,
      "Ġeffect": 1145,
      "Ġjust": 1146,
      "Ġ@.@": 1147,
      "Ġeven": 1148,
      "ences": 1149,
      "Ġtext": 1150,
      "ublic": 1151,
      "Ġdire": 1152,
      "Ġsee": 1153,
      "Ġgu": 1154,
      "Ġincluding": 1155,
      "ability": 1156,
      "Ġanal": 1157,
      "Ġhand": 1158,
      "Ġinform": 1159,
      "ined": 1160,
      "Ġide": 1161,
      "ral": 1162,
      "Ġmade": 1163,
      "ray": 1164,
      "ox": 1165,
      "read": 1166,
      "Ġresp": 1167,
      "ized": 1168,
      "very": 1169,
      "ĠYou": 1170,
      "Th": 1171,
      "'re": 1172,
      "vers": 1173,
      "ug": 1174,
      "Ġed": 1175,
      "chn": 1176,
      "Ġplan": 1177,
      "Ġline": 1178,
      "Ġstate": 1179,
      "ives": 1180,
      "ĠAr": 1181,
      "Ġop": 1182,
      "ribut": 1183,
      "Ġfact": 1184,
      "amet": 1185,
      "Ġsum": 1186,
      "lt": 1187,
      "Ġwant": 1188,
      "Ġbefore": 1189,
      "ank": 1190,
      "Ġfound": 1191,
      "description": 1192,
      "ional": 1193,
      "ively": 1194,
      "way": 1195,
      "ically": 1196,
      "Ġyears": 1197,
      "Ġeng": 1198,
      "Ġtest": 1199,
      "ym": 1200,
      "Ġmon": 1201,
      "To": 1202,
      ",@": 1203,
      "Ġ@,@": 1204,
      "Ġperform": 1205,
      "ames": 1206,
      "Ġsame": 1207,
      "':": 1208,
      "Ġconst": 1209,
      "ĠAn": 1210,
      "yn": 1211,
      "Ġallow": 1212,
      "},": 1213,
      "Ġterm": 1214,
      "rent": 1215,
      "Ġincre": 1216,
      "Ġstory": 1217,
      "Âł": 1218,
      "Ġmed": 1219,
      "\",\"": 1220,
      "Ġday": 1221,
      "ateg": 1222,
      "ural": 1223,
      "ale": 1224,
      "dition": 1225,
      "Ġdoes": 1226,
      "Ġcount": 1227,
      "Ġsupport": 1228,
      "alcul": 1229,
      "Ġdiv": 1230,
      "Ġinteg": 1231,
      "str": 1232,
      "ted": 1233,
      "ĠCom": 1234,
      "ases": 1235,
      "Ġrelations": 1236,
      "ave": 1237,
      "de": 1238,
      "to": 1239,
      "ides": 1240,
      "Ġtri": 1241,
      "Ġteam": 1242,
      "Ġprocess": 1243,
      "ash": 1244,
      "Ġsmall": 1245,
      "Ġpartic": 1246,
      "Ġunderstand": 1247,
      "Ġcontin": 1248,
      "oh": 1249,
      "Ġmethod": 1250,
      "Ġsaid": 1251,
      "au": 1252,
      "Ġvis": 1253,
      "Ġadv": 1254,
      "pro": 1255,
      "ets": 1256,
      "oun": 1257,
      "ism": 1258,
      "sw": 1259,
      "line": 1260,
      "ĠCon": 1261,
      "Ġcommun": 1262,
      "Ġrele": 1263,
      "apt": 1264,
      "Ġest": 1265,
      "Ġtake": 1266,
      "ator": 1267,
      "ists": 1268,
      "und": 1269,
      "ared": 1270,
      "Ġbel": 1271,
      "Ġorig": 1272,
      "Ġpot": 1273,
      "Ġname": 1274,
      "Ġaut": 1275,
      "Ġconf": 1276,
      "Ġthough": 1277,
      "You": 1278,
      "Ġtechn": 1279,
      "ven": 1280,
      "Ġgame": 1281,
      "Ġfam": 1282,
      "Ġcomplex": 1283,
      "Ġmus": 1284,
      "erg": 1285,
      "ull": 1286,
      "ser": 1287,
      "ages": 1288,
      "Ġinput": 1289,
      "Ġdown": 1290,
      "Ġlife": 1291,
      "uss": 1292,
      "itive": 1293,
      "man": 1294,
      "Ġpop": 1295,
      "\"\"": 1296,
      "Ġrelationship": 1297,
      "Ġword": 1298,
      "app": 1299,
      "heck": 1300,
      "Ġappe": 1301,
      "tool": 1302,
      "Ġdesign": 1303,
      "meric": 1304,
      "Ġprovide": 1305,
      "Ġmult": 1306,
      "ĠHowever": 1307,
      "ĠSh": 1308,
      "xt": 1309,
      "right": 1310,
      "Ġinc": 1311,
      "ĠDe": 1312,
      "akes": 1313,
      "the": 1314,
      "ĠNew": 1315,
      "Ġprint": 1316,
      "Ġident": 1317,
      "Ġsoc": 1318,
      "ault": 1319,
      "Ġproble": 1320,
      "Ġoper": 1321,
      "ately": 1322,
      "ross": 1323,
      "Ġpower": 1324,
      "ton": 1325,
      "ĠBy": 1326,
      "tain": 1327,
      "ished": 1328,
      "Ġthink": 1329,
      "son": 1330,
      "irc": 1331,
      "ights": 1332,
      "Ġhist": 1333,
      "over": 1334,
      "('": 1335,
      "bs": 1336,
      "ĠRe": 1337,
      "Ġmet": 1338,
      "ocus": 1339,
      "li": 1340,
      "erest": 1341,
      "}$": 1342,
      "_{": 1343,
      "Ġvalues": 1344,
      "Ġtop": 1345,
      "Ġmean": 1346,
      "Ġpur": 1347,
      "Ġsk": 1348,
      "ided": 1349,
      "ality": 1350,
      "Ġfin": 1351,
      "Ġcle": 1352,
      "text": 1353,
      "ĠAmeric": 1354,
      "ually": 1355,
      "Ġpotential": 1356,
      "Ġess": 1357,
      "Ġnumbers": 1358,
      "uch": 1359,
      "Ġpat": 1360,
      "ccess": 1361,
      "Ġbre": 1362,
      "Ġcar": 1363,
      "angu": 1364,
      "Ġarg": 1365,
      "Ġobject": 1366,
      "tal": 1367,
      "Ġlook": 1368,
      "Ġspecific": 1369,
      "Ġ}": 1370,
      "Ġsing": 1371,
      "Ġer": 1372,
      "Ġseries": 1373,
      "crib": 1374,
      "omet": 1375,
      "Ġbecause": 1376,
      "orth": 1377,
      "Ġ\\(": 1378,
      "How": 1379,
      "Ġsignific": 1380,
      "Ġi": 1381,
      "Ġremain": 1382,
      "Ġhum": 1383,
      "ling": 1384,
      "\")": 1385,
      "ouse": 1386,
      "ants": 1387,
      "atic": 1388,
      "num": 1389,
      "ĠOn": 1390,
      "mon": 1391,
      "ird": 1392,
      "Ġcode": 1393,
      "Ġoften": 1394,
      "ology": 1395,
      "Ġquestion": 1396,
      "Ġopen": 1397,
      "iet": 1398,
      "gt": 1399,
      "arr": 1400,
      "Ġ==": 1401,
      "Ġgra": 1402,
      "ised": 1403,
      "Ġmark": 1404,
      "####": 1405,
      "uc": 1406,
      "oot": 1407,
      "Ġav": 1408,
      "Ġ''": 1409,
      "ggest": 1410,
      "ivers": 1411,
      "Ġdirect": 1412,
      "ining": 1413,
      "Ġaround": 1414,
      "Ġdid": 1415,
      "Ġrun": 1416,
      "Ġproduct": 1417,
      "\":{\"": 1418,
      "anc": 1419,
      "Ġwithout": 1420,
      "Ġfocus": 1421,
      "Ġprogram": 1422,
      "What": 1423,
      "Ġlater": 1424,
      "Ġsuggest": 1425,
      "St": 1426,
      "Ġpri": 1427,
      "Ġinformation": 1428,
      "ah": 1429,
      "Ġbuild": 1430,
      "Ġfeel": 1431,
      "Ġinterest": 1432,
      "Ġstring": 1433,
      "lish": 1434,
      "Ġcare": 1435,
      "Ġimpro": 1436,
      "vent": 1437,
      "Ġfour": 1438,
      "ique": 1439,
      "Ġcorre": 1440,
      "ĠPro": 1441,
      "outh": 1442,
      "Def": 1443,
      "Ġ$\\": 1444,
      "alth": 1445,
      "pos": 1446,
      "iness": 1447,
      "riend": 1448,
      "Ġapproach": 1449,
      "sc": 1450,
      "ek": 1451,
      "arge": 1452,
      "ĠWhat": 1453,
      "'ve": 1454,
      "Ġsever": 1455,
      "aj": 1456,
      "az": 1457,
      "Ġbeh": 1458,
      "Ġmaking": 1459,
      "ization": 1460,
      "Ġsense": 1461,
      "ĠAd": 1462,
      "ead": 1463,
      "ement": 1464,
      "iron": 1465,
      "ann": 1466,
      "Ġ%": 1467,
      "Ġstruct": 1468,
      "ustom": 1469,
      "ĠQ": 1470,
      "Ġlet": 1471,
      "ified": 1472,
      "Ġrecord": 1473,
      "Ġtool": 1474,
      "Ġchang": 1475,
      "ĠThey": 1476,
      "Ġknown": 1477,
      "],": 1478,
      "ĠShe": 1479,
      "ĠWh": 1480,
      "Ġarea": 1481,
      "Ġvers": 1482,
      "Ġmust": 1483,
      "urther": 1484,
      "here": 1485,
      "Ġstand": 1486,
      "ived": 1487,
      "Ġz": 1488,
      "Ġfilm": 1489,
      "Ġproject": 1490,
      "Ġlangu": 1491,
      "ression": 1492,
      "Ġseveral": 1493,
      "ency": 1494,
      "ăĄā": 1495,
      "itions": 1496,
      "vice": 1497,
      "ury": 1498,
      "Ġocc": 1499,
      "ĠTo": 1500,
      "Ġpossible": 1501,
      "Ġcalcul": 1502,
      "rop": 1503,
      "Ġansw": 1504,
      "rid": 1505,
      "Ġstre": 1506,
      "Ġcity": 1507,
      "Ġtry": 1508,
      "Ġcase": 1509,
      "ane": 1510,
      "Ġcontain": 1511,
      "Ġagainst": 1512,
      "oid": 1513,
      "Ġsuccess": 1514,
      "Ġlear": 1515,
      "Ġprof": 1516,
      "//": 1517,
      "ohn": 1518,
      "Ġbus": 1519,
      "Ġgreat": 1520,
      "Ġthose": 1521,
      "Ġnow": 1522,
      "ories": 1523,
      "Ġwithin": 1524,
      "ute": 1525,
      "Ġgrow": 1526,
      "Ġtype": 1527,
      "ee": 1528,
      "value": 1529,
      "orn": 1530,
      "Ġproper": 1531,
      "^{": 1532,
      "Defn": 1533,
      "Ġinvol": 1534,
      "Ġiss": 1535,
      "Ġprom": 1536,
      "ots": 1537,
      "ering": 1538,
      "ength": 1539,
      "Ġlast": 1540,
      "Ġbro": 1541,
      "Ġlog": 1542,
      "por": 1543,
      "Ġwar": 1544,
      "ww": 1545,
      "ember": 1546,
      "Ġbook": 1547,
      "oice": 1548,
      "Ġtotal": 1549,
      "Ġfunctions": 1550,
      "tle": 1551,
      "Ġvery": 1552,
      "')": 1553,
      "set": 1554,
      "Ġrece": 1555,
      "Ġpublic": 1556,
      "Ġâ": 1557,
      "ploy": 1558,
      "ivid": 1559,
      "Ġsignificant": 1560,
      "ote": 1561,
      "Ġrese": 1562,
      "Ġsong": 1563,
      "Ġgood": 1564,
      "čĊ": 1565,
      "ertain": 1566,
      "'ll": 1567,
      "Ġcurrent": 1568,
      "Ġpoints": 1569,
      "requ": 1570,
      "Ġstill": 1571,
      "ĠEng": 1572,
      "Ġsl": 1573,
      "Ġcalled": 1574,
      "Ġbased": 1575,
      "Ġevery": 1576,
      "sh": 1577,
      "Ġdra": 1578,
      "ior": 1579,
      "work": 1580,
      "oad": 1581,
      "Ġnon": 1582,
      "Ġland": 1583,
      "ieve": 1584,
      "Ġpres": 1585,
      "Ġmag": 1586,
      "Ġdel": 1587,
      "Ġpresent": 1588,
      "by": 1589,
      "Ġseason": 1590,
      "Ġhead": 1591,
      "This": 1592,
      "Ġrange": 1593,
      "Ġright": 1594,
      "'m": 1595,
      "ĠZ": 1596,
      "ales": 1597,
      "Ġcrit": 1598,
      "ĠSc": 1599,
      "ysis": 1600,
      "Ġens": 1601,
      "oss": 1602,
      "of": 1603,
      "ties": 1604,
      "Ġfield": 1605,
      "ffic": 1606,
      "Ġcomb": 1607,
      "Ġimpact": 1608,
      "ameters": 1609,
      "Ġinf": 1610,
      "ems": 1611,
      "Ġenv": 1612,
      "Ġplace": 1613,
      "ape": 1614,
      "Ġinclude": 1615,
      "Ġcontro": 1616,
      "Ġdescrib": 1617,
      "ĠEx": 1618,
      "ST": 1619,
      "uments": 1620,
      "âĢĿ": 1621,
      "ask": 1622,
      "Ġmulti": 1623,
      "dict": 1624,
      "ĉĉ": 1625,
      "Ġmuch": 1626,
      "Ġexperience": 1627,
      "Ġredu": 1628,
      "ĠCl": 1629,
      "Ġep": 1630,
      "Ġrepresent": 1631,
      "chool": 1632,
      "Ġinit": 1633,
      "Ġleft": 1634,
      "ĠAt": 1635,
      "Ġwater": 1636,
      "Ġfew": 1637,
      "Ġlarge": 1638,
      "rue": 1639,
      "Ġlevel": 1640,
      "plic": 1641,
      "atch": 1642,
      "ours": 1643,
      "Ġcost": 1644,
      "Ġaccess": 1645,
      "Ġlim": 1646,
      "Ġchall": 1647,
      "Ġmov": 1648,
      "mber": 1649,
      "Ġnext": 1650,
      "ĠSp": 1651,
      "Ġlocal": 1652,
      "Ġopt": 1653,
      "Ġanother": 1654,
      ");": 1655,
      "Ġevent": 1656,
      ".]": 1657,
      "Ġcustom": 1658,
      "ital": 1659,
      "ci": 1660,
      "ination": 1661,
      "Ġorder": 1662,
      "ĠIs": 1663,
      "Ġorgan": 1664,
      "ttp": 1665,
      "Ġbest": 1666,
      "ody": 1667,
      "call": 1668,
      "Ġtem": 1669,
      "Ġlanguage": 1670,
      ",\"": 1671,
      "itle": 1672,
      "ope": 1673,
      "Ġstat": 1674,
      "my": 1675,
      "Ġsince": 1676,
      "lease": 1677,
      "Ġcommon": 1678,
      "If": 1679,
      "Ġgl": 1680,
      "Ġold": 1681,
      "Ġprob": 1682,
      "Ġinfl": 1683,
      "ĠLe": 1684,
      "--------": 1685,
      "ulation": 1686,
      "Ġcompany": 1687,
      "onse": 1688,
      "ĠEm": 1689,
      "day": 1690,
      "ples": 1691,
      "ik": 1692,
      "Ġrest": 1693,
      "Ġcharacters": 1694,
      "orld": 1695,
      "Ġstep": 1696,
      "verage": 1697,
      "Ġspace": 1698,
      "Ġtyp": 1699,
      "Ġchild": 1700,
      "Ġless": 1701,
      "Ġoriginal": 1702,
      "play": 1703,
      "med": 1704,
      "Ġelse": 1705,
      "Ġaddition": 1706,
      "Ġmusic": 1707,
      "ĠInd": 1708,
      "ables": 1709,
      "Ġproblem": 1710,
      "Ġgre": 1711,
      "ĠAnd": 1712,
      "plement": 1713,
      "Ġprot": 1714,
      "Ġbeg": 1715,
      "ium": 1716,
      "ĠThese": 1717,
      "til": 1718,
      "alse": 1719,
      "Ġsocial": 1720,
      "ances": 1721,
      "ĠThere": 1722,
      "Ġmodel": 1723,
      ".\",": 1724,
      "Ã©": 1725,
      "ĠX": 1726,
      "list": 1727,
      "math": 1728,
      "less": 1729,
      "ended": 1730,
      "ilar": 1731,
      "ividual": 1732,
      "bum": 1733,
      "min": 1734,
      "wards": 1735,
      "Ġnear": 1736,
      "Ġ\"\"\"": 1737,
      "Ġanswer": 1738,
      "aps": 1739,
      "alk": 1740,
      "Ġdetail": 1741,
      ".,": 1742,
      "vern": 1743,
      "Ġdeterm": 1744,
      "Ġcheck": 1745,
      "Ġrole": 1746,
      "Ġessential": 1747,
      "Ġfamily": 1748,
      "Ġparticular": 1749,
      "Ġenviron": 1750,
      "An": 1751,
      "ĠJohn": 1752,
      "idd": 1753,
      "Ġelements": 1754,
      "ĠUnited": 1755,
      "Ġuser": 1756,
      "Ġturn": 1757,
      "As": 1758,
      "Ġanalysis": 1759,
      "nect": 1760,
      "Ġlit": 1761,
      "ene": 1762,
      "aut": 1763,
      "Ġtre": 1764,
      "ĠBrit": 1765,
      "mod": 1766,
      "Ġfriend": 1767,
      "for": 1768,
      "Ġve": 1769,
      "atures": 1770,
      "Ġwriting": 1771,
      "Ġsqu": 1772,
      "Ġmil": 1773,
      "rodu": 1774,
      "back": 1775,
      "Ġdri": 1776,
      "ards": 1777,
      "python": 1778,
      "Ġfurther": 1779,
      "ource": 1780,
      "hor": 1781,
      "Ġclear": 1782,
      "be": 1783,
      "Ġes": 1784,
      "Ġindividual": 1785,
      "Ġbusiness": 1786,
      "ued": 1787,
      "yle": 1788,
      "Ġaccount": 1789,
      "Ġcult": 1790,
      "Ġhome": 1791,
      "ER": 1792,
      "ĠAmerican": 1793,
      "Ġach": 1794,
      "ored": 1795,
      "ention": 1796,
      "ley": 1797,
      "iving": 1798,
      "ĠAfter": 1799,
      "ways": 1800,
      "Ġaff": 1801,
      "eting": 1802,
      "Ġsingle": 1803,
      "Ġmonth": 1804,
      "://": 1805,
      "Ġenc": 1806,
      "Ġchange": 1807,
      "cent": 1808,
      "print": 1809,
      "Ġbecame": 1810,
      "pre": 1811,
      "Ġemot": 1812,
      "ats": 1813,
      "Ġsentence": 1814,
      "Ġgovern": 1815,
      "Ġshort": 1816,
      "Ġview": 1817,
      "word": 1818,
      "Ġalong": 1819,
      "Ġhuman": 1820,
      "ĠHere": 1821,
      "Ġmill": 1822,
      "$,": 1823,
      "Ġsay": 1824,
      "Ġdays": 1825,
      "clus": 1826,
      "Here": 1827,
      "iod": 1828,
      "Ġlarg": 1829,
      "Ġmanag": 1830,
      "ĠCol": 1831,
      "iction": 1832,
      "Ġuntil": 1833,
      "Ġconcept": 1834,
      "['": 1835,
      "Ġimprove": 1836,
      "Ġearly": 1837,
      "']": 1838,
      "ental": 1839,
      "cur": 1840,
      "ajor": 1841,
      "Ġbo": 1842,
      "Ġdon": 1843,
      "Ġcour": 1844,
      "vious": 1845,
      "Ġareas": 1846,
      "Ġinflu": 1847,
      "path": 1848,
      "ending": 1849,
      "Ġside": 1850,
      "lex": 1851,
      "Ġalbum": 1852,
      "iting": 1853,
      "Ġtoget": 1854,
      "Ġtogether": 1855,
      "aim": 1856,
      "rand": 1857,
      "Ġdue": 1858,
      "ĠBe": 1859,
      "Ġunderstanding": 1860,
      "Ġeas": 1861,
      "]].": 1862,
      "Ġsit": 1863,
      "._": 1864,
      "Ġair": 1865,
      "add": 1866,
      "hemat": 1867,
      "ources": 1868,
      "aced": 1869,
      "Ġversion": 1870,
      "ills": 1871,
      "abor": 1872,
      "though": 1873,
      "aces": 1874,
      "Ġequation": 1875,
      "br": 1876,
      "ole": 1877,
      "ently": 1878,
      "ober": 1879,
      "Ġhealth": 1880,
      "Ġtimes": 1881,
      "rite": 1882,
      "Ġunique": 1883,
      "Ġepis": 1884,
      "Ġrequired": 1885,
      "ilities": 1886,
      "Ġmax": 1887,
      "osed": 1888,
      "Ġship": 1889,
      "Ġdiscuss": 1890,
      "ording": 1891,
      "Ġfore": 1892,
      "Ġterms": 1893,
      "Ġsym": 1894,
      "Ġenvironment": 1895,
      "raft": 1896,
      "ĠBl": 1897,
      "Ġmeas": 1898,
      "Ġexpect": 1899,
      "Ġstructure": 1900,
      "{\\": 1901,
      "ctor": 1902,
      "ĠWhen": 1903,
      "Ġcr": 1904,
      "idence": 1905,
      "Ġvarious": 1906,
      "Ġcorrect": 1907,
      "ĠNone": 1908,
      "Ġfile": 1909,
      "Ġengag": 1910,
      "ivity": 1911,
      "Ġenerg": 1912,
      "Ġreport": 1913,
      "ĠCan": 1914,
      "ĠPl": 1915,
      "ilt": 1916,
      "ission": 1917,
      "Ġlight": 1918,
      "Ġinitial": 1919,
      "Ġstrong": 1920,
      "empt": 1921,
      "Ġfar": 1922,
      "oring": 1923,
      "Ġmove": 1924,
      "Ġemploy": 1925,
      "Ġge": 1926,
      "Ġdevelopment": 1927,
      "Ġstudy": 1928,
      "sp": 1929,
      "ney": 1930,
      "ries": 1931,
      "ĠĠĠĠĠĠĠĠĠĠĠĠĠĠĠĠĠĠĠ": 1932,
      "Ġstudents": 1933,
      "ĠMay": 1934,
      "iation": 1935,
      "ule": 1936,
      "Ġthird": 1937,
      "Ġphys": 1938,
      "Ġfinal": 1939,
      "atural": 1940,
      "Ġresearch": 1941,
      "ĠFr": 1942,
      "Ġ>": 1943,
      "Ġpositive": 1944,
      "Ġbegan": 1945,
      "angle": 1946,
      "Ġdi": 1947,
      "Ġcalls": 1948,
      "uro": 1949,
      "ming": 1950,
      "Ġexist": 1951,
      "string": 1952,
      "une": 1953,
      "Ġbecome": 1954,
      "from": 1955,
      "Ġpract": 1956,
      "Ġconne": 1957,
      "http": 1958,
      "alance": 1959,
      "amed": 1960,
      "ograph": 1961,
      "Ġtrack": 1962,
      "istic": 1963,
      "Ġelect": 1964,
      "Ġcap": 1965,
      "Ġideas": 1966,
      "Ġmot": 1967,
      "rt": 1968,
      "Ġlength": 1969,
      "left": 1970,
      "Ġwords": 1971,
      "Ġimplement": 1972,
      "Ġinvest": 1973,
      "data": 1974,
      "ĠUS": 1975,
      "arget": 1976,
      "dd": 1977,
      "iding": 1978,
      "Ġkeep": 1979,
      "ĠPython": 1980,
      "Ġreview": 1981,
      "sequ": 1982,
      "ribution": 1983,
      "Ġhy": 1984,
      "elling": 1985,
      "It": 1986,
      "Ġpost": 1987,
      "rror": 1988,
      "Ġcoll": 1989,
      "Ġsound": 1990,
      "$.": 1991,
      "Ġestab": 1992,
      "Ġformat": 1993,
      "met": 1994,
      "ison": 1995,
      "Ġexplore": 1996,
      "erse": 1997,
      "Ġgeneral": 1998,
      "ĠâĢĶ": 1999,
      "Ġann": 2000,
      "Ġamount": 2001,
      "imately": 2002,
      "ians": 2003,
      "Ġenergy": 2004,
      "Ġfr": 2005,
      "cing": 2006,
      "ps": 2007,
      "asing": 2008,
      "Ġresponse": 2009,
      "Ġchalleng": 2010,
      "Ġcommunity": 2011,
      "Ġhig": 2012,
      "rem": 2013,
      "Ġsize": 2014,
      "Ġexam": 2015,
      "Ġask": 2016,
      "Ġhistory": 2017,
      "ĠWar": 2018,
      "class": 2019,
      "Con": 2020,
      "Ġperiod": 2021,
      "enn": 2022,
      "Ex": 2023,
      "Ġ...": 2024,
      "Ġimportant": 2025,
      "rist": 2026,
      "Ġdev": 2027,
      "imate": 2028,
      "anced": 2029,
      "oman": 2030,
      "Ġensure": 2031,
      "ĠAI": 2032,
      "ĠStates": 2033,
      "ither": 2034,
      "Ġcaus": 2035,
      "key": 2036,
      "IN": 2037,
      "Ġschool": 2038,
      "Ġbetter": 2039,
      "ches": 2040,
      "Ġsequ": 2041,
      "Ġidea": 2042,
      "ush": 2043,
      "ma": 2044,
      "ware": 2045,
      "Ġpo": 2046,
      "Ġben": 2047,
      "aster": 2048,
      "time": 2049,
      "Ġdat": 2050,
      "Ġexperi": 2051,
      "ception": 2052,
      "ference": 2053,
      "lished": 2054,
      "Ġwin": 2055,
      ":**": 2056,
      "...": 2057,
      "arent": 2058,
      "Ġbreak": 2059,
      "Ġjob": 2060,
      "Ġmar": 2061,
      "ĠAust": 2062,
      "use": 2063,
      "Ġmess": 2064,
      "Ġpersonal": 2065,
      "cont": 2066,
      "Ġtoo": 2067,
      "elt": 2068,
      "lying": 2069,
      "Ġsimilar": 2070,
      "Ġleg": 2071,
      "Ġoffic": 2072,
      "Ġchanges": 2073,
      "ON": 2074,
      "Ġaverage": 2075,
      "Ġpattern": 2076,
      "Ġaud": 2077,
      "Ġindic": 2078,
      "Ġworks": 2079,
      "Ġperformance": 2080,
      "eb": 2081,
      "aring": 2082,
      "mit": 2083,
      "Ġsure": 2084,
      "Ġmajor": 2085,
      "ibility": 2086,
      "Ġoccur": 2087,
      "Ġport": 2088,
      "let": 2089,
      "alf": 2090,
      "ĠGerm": 2091,
      "Ġcirc": 2092,
      "Ġworking": 2093,
      "=\"": 2094,
      "Ġlow": 2095,
      "ĠOr": 2096,
      "imum": 2097,
      "co": 2098,
      "Ġcontrol": 2099,
      "Ġobser": 2100,
      "Ġincluded": 2101,
      "Ġcontent": 2102,
      "Error": 2103,
      "Ġresults": 2104,
      "Ġdiff": 2105,
      "Ġprevious": 2106,
      "Ġmathemat": 2107,
      "Ġothers": 2108,
      "ĠMar": 2109,
      "ĠPh": 2110,
      "Ġmen": 2111,
      "Ġhaving": 2112,
      "'''": 2113,
      "ometh": 2114,
      "Ġidentify": 2115,
      "Ġweek": 2116,
      "Ġpast": 2117,
      "====": 2118,
      "Ġmeans": 2119,
      "view": 2120,
      "Ġhere": 2121,
      "pped": 2122,
      "Ġevents": 2123,
      "Ġcapt": 2124,
      "ĠAll": 2125,
      "$$": 2126,
      "Ġassist": 2127,
      "\"}}": 2128,
      "Ġcolle": 2129,
      "Ġrad": 2130,
      "}\\": 2131,
      "count": 2132,
      "ina": 2133,
      "ration": 2134,
      "Ġmillion": 2135,
      "aterial": 2136,
      "Ġsw": 2137,
      "Ġfree": 2138,
      "Ġrather": 2139,
      "ott": 2140,
      "Ġstrateg": 2141,
      "omething": 2142,
      "ĠOne": 2143,
      "Ġfund": 2144,
      "ured": 2145,
      "face": 2146,
      "ĠWorld": 2147,
      "Ġattack": 2148,
      "Ġlik": 2149,
      "illed": 2150,
      "Ġtook": 2151,
      "ula": 2152,
      "Ġwind": 2153,
      "Ġtrue": 2154,
      "col": 2155,
      "function": 2156,
      "izing": 2157,
      "osp": 2158,
      "ume": 2159,
      "Ġnecess": 2160,
      "ze": 2161,
      "Ġmaintain": 2162,
      "date": 2163,
      "Ġla": 2164,
      "not": 2165,
      "side": 2166,
      "Ġleast": 2167,
      "amb": 2168,
      "Ġsix": 2169,
      "Ġintrodu": 2170,
      "::": 2171,
      "Ġaddress": 2172,
      "Ġsupp": 2173,
      "Ġsn": 2174,
      "Ġlaw": 2175,
      "conom": 2176,
      "Ġ--": 2177,
      "Ġtown": 2178,
      "pose": 2179,
      "Ġris": 2180,
      "Ġflow": 2181,
      "qrt": 2182,
      "Ġelement": 2183,
      "ĠBut": 2184,
      "Ġneg": 2185,
      "Ġoutput": 2186,
      "Ġexc": 2187,
      "Ġnet": 2188,
      "Ġhapp": 2189,
      "user": 2190,
      "AT": 2191,
      "Ġscore": 2192,
      "Ġfive": 2193,
      "Ġgive": 2194,
      "ĠBritish": 2195,
      "ront": 2196,
      "Ġepisode": 2197,
      "Ġvide": 2198,
      "augh": 2199,
      "aken": 2200,
      "Ġtravel": 2201,
      "Ġrepl": 2202,
      "Ġbenef": 2203,
      "Ġbi": 2204,
      "Ġfeet": 2205,
      "ibr": 2206,
      "file": 2207,
      "ops": 2208,
      "action": 2209,
      "import": 2210,
      "Ġalways": 2211,
      "Ġdest": 2212,
      "Ġmultiple": 2213,
      "epend": 2214,
      "imal": 2215,
      "cript": 2216,
      "vision": 2217,
      "ogn": 2218,
      "olution": 2219,
      "Ġhours": 2220,
      "Ġdem": 2221,
      "Ġsystems": 2222,
      "inary": 2223,
      "Ġ_": 2224,
      "Ġmind": 2225,
      "rix": 2226,
      "ched": 2227,
      "Ġexpress": 2228,
      "log": 2229,
      "Ġbegin": 2230,
      "omen": 2231,
      "hest": 2232,
      "umn": 2233,
      "ams": 2234,
      "Ġhouse": 2235,
      "default": 2236,
      "Ġamong": 2237,
      "Ġcertain": 2238,
      "Ġnatural": 2239,
      "Ġreleased": 2240,
      "vert": 2241,
      "ĠCar": 2242,
      "Ġbehav": 2243,
      "Ġcho": 2244,
      "pportun": 2245,
      "Ġposition": 2246,
      "Ġsomething": 2247,
      "Ġyoung": 2248,
      "iversity": 2249,
      "Ġappear": 2250,
      "Ġcru": 2251,
      "Ġmaterial": 2252,
      "Ġspecial": 2253,
      "fer": 2254,
      "Ġacross": 2255,
      "Ġapplic": 2256,
      "Ġconnect": 2257,
      "Ġclaim": 2258,
      "Ġrespect": 2259,
      "nces": 2260,
      "Ġvol": 2261,
      "Ġcome": 2262,
      "Ġcamp": 2263,
      "ĠPr": 2264,
      "onsider": 2265,
      "Ġmembers": 2266,
      "ĠÂ": 2267,
      "aries": 2268,
      "For": 2269,
      "Ġable": 2270,
      "acy": 2271,
      "Ġthought": 2272,
      "orpor": 2273,
      "inally": 2274,
      "head": 2275,
      "Ġgovernment": 2276,
      "Ġcontext": 2277,
      "Ġshare": 2278,
      "Ġhold": 2279,
      "yl": 2280,
      "Ġgrowth": 2281,
      "osing": 2282,
      "*[[": 2283,
      "Ġopportun": 2284,
      "pty": 2285,
      "Ġprior": 2286,
      "apan": 2287,
      "urope": 2288,
      "attle": 2289,
      "Pro": 2290,
      "Ġsat": 2291,
      "Ġtheory": 2292,
      "resp": 2293,
      "ĠAug": 2294,
      "Ġcentury": 2295,
      "ĠPar": 2296,
      "Ġavail": 2297,
      "ml": 2298,
      "Ġeduc": 2299,
      "Ġbas": 2300,
      "Ġdistribution": 2301,
      "iver": 2302,
      "'d": 2303,
      "Ġcreating": 2304,
      "Ġ\\]": 2305,
      "Ġcommand": 2306,
      "Ġstandard": 2307,
      "rag": 2308,
      "Ġachieve": 2309,
      "ires": 2310,
      "Ġnarr": 2311,
      "Ġreceived": 2312,
      "duct": 2313,
      "Ġage": 2314,
      "ators": 2315,
      "Ġpath": 2316,
      "Ġfood": 2317,
      "Ġlove": 2318,
      "Ġaction": 2319,
      "We": 2320,
      "ele": 2321,
      "rans": 2322,
      "ises": 2323,
      "Ġanaly": 2324,
      "ius": 2325,
      "ĠWest": 2326,
      "oon": 2327,
      "Ġdig": 2328,
      "Ġprofess": 2329,
      "Ch": 2330,
      "ned": 2331,
      "Ġwhether": 2332,
      "Ġtarget": 2333,
      "uation": 2334,
      "Ġcareer": 2335,
      "Ġconsid": 2336,
      "tym": 2337,
      "Ġreach": 2338,
      "AR": 2339,
      "ball": 2340,
      "Ġey": 2341,
      "gor": 2342,
      "Ġoption": 2343,
      ">[": 2344,
      "Ġdeath": 2345,
      "pecial": 2346,
      "bo": 2347,
      "inf": 2348,
      "hern": 2349,
      "By": 2350,
      "Ġgr": 2351,
      "Ġcond": 2352,
      "Ġprobability": 2353,
      "object": 2354,
      "Ġever": 2355,
      "Ġdeep": 2356,
      "new": 2357,
      "uture": 2358,
      "]</": 2359,
      "Ġerror": 2360,
      "Ġrelationships": 2361,
      "Ġconcise": 2362,
      "ĠYork": 2363,
      "parameters": 2364,
      "icle": 2365,
      "Ġgen": 2366,
      "Ġstru": 2367,
      "Ġbody": 2368,
      "Ġmatch": 2369,
      ".)": 2370,
      "Ġfall": 2371,
      "Ġauthor": 2372,
      "Ġcomput": 2373,
      "Ġvariables": 2374,
      "af": 2375,
      "ension": 2376,
      "Ġservice": 2377,
      "Ġseen": 2378,
      "Ġlack": 2379,
      "Ġnever": 2380,
      "box": 2381,
      "Ġang": 2382,
      "ptember": 2383,
      "ĠJapan": 2384,
      "Ġneeded": 2385,
      "ival": 2386,
      "ister": 2387,
      "Ġbr": 2388,
      "ached": 2389,
      "erv": 2390,
      "sqrt": 2391,
      "ler": 2392,
      "omin": 2393,
      "ĠEn": 2394,
      "Ġmeaning": 2395,
      "Ġled": 2396,
      "Ġindust": 2397,
      "Ġlo": 2398,
      "Ġvariable": 2399,
      "ĠGe": 2400,
      "ĠAugust": 2401,
      "Ġways": 2402,
      "Ġant": 2403,
      "ung": 2404,
      "Ġfeatures": 2405,
      "Ġmedia": 2406,
      "atively": 2407,
      "Ġbase": 2408,
      "Ġfoot": 2409,
      "Ġpa": 2410,
      "Ġpopulation": 2411,
      "ĠEtym": 2412,
      "ones": 2413,
      "Ġkm": 2414,
      "ĠEurope": 2415,
      "âĢ¢": 2416,
      "Ġpress": 2417,
      "Ġattempt": 2418,
      "Ġargument": 2419,
      "Ġsolution": 2420,
      "uck": 2421,
      "ĠKing": 2422,
      "net": 2423,
      "Al": 2424,
      "Ġarray": 2425,
      "Ġnight": 2426,
      "ero": 2427,
      "Ġfail": 2428,
      "Ġcountry": 2429,
      "Ġreve": 2430,
      "Ġmethods": 2431,
      "Ġsuper": 2432,
      "Ġrespons": 2433,
      "ĠJu": 2434,
      "Ġ]": 2435,
      "Ġ$$": 2436,
      "Ġspecies": 2437,
      "Ġquestions": 2438,
      "Ġaway": 2439,
      "ising": 2440,
      "test": 2441,
      "ological": 2442,
      "Ġbecom": 2443,
      "Ġjour": 2444,
      "ĠAustral": 2445,
      "Ġabove": 2446,
      "ĠII": 2447,
      "ĠWith": 2448,
      "Ġmom": 2449,
      "rain": 2450,
      "Ġput": 2451,
      "âĢľ": 2452,
      "ĠSeptember": 2453,
      "OR": 2454,
      "Ġfactors": 2455,
      "Ġdeb": 2456,
      "sel": 2457,
      "init": 2458,
      "ĠWill": 2459,
      "Ġnav": 2460,
      "light": 2461,
      "assert": 2462,
      "ague": 2463,
      "Ġconsidered": 2464,
      "Ġupon": 2465,
      "ĠOct": 2466,
      "\"]": 2467,
      "omm": 2468,
      "cd": 2469,
      "odes": 2470,
      "hel": 2471,
      "equ": 2472,
      "Ġempty": 2473,
      "ategory": 2474,
      "vey": 2475,
      "Ġder": 2476,
      "Ġband": 2477,
      "anu": 2478,
      "Ġinstead": 2479,
      "pper": 2480,
      "Ġeffic": 2481,
      "Ġbuilt": 2482,
      "Ġnorm": 2483,
      "ude": 2484,
      "Ġneeds": 2485,
      "rench": 2486,
      "Ġnature": 2487,
      "Ġoffer": 2488,
      "ĠWhile": 2489,
      "ety": 2490,
      "arguments": 2491,
      "ried": 2492,
      "Ġbuilding": 2493,
      "Ġpain": 2494,
      "gorith": 2495,
      "Ġprovided": 2496,
      "Ġwon": 2497,
      "Ġnamed": 2498,
      "Ġgroups": 2499,
      "ief": 2500,
      "Ġtakes": 2501,
      "su": 2502,
      "oph": 2503,
      "Ġball": 2504,
      "Ġstyle": 2505,
      "Ġopp": 2506,
      "Ġconsist": 2507,
      "ained": 2508,
      "Ġsimple": 2509,
      "ids": 2510,
      "Ġdecision": 2511,
      "agon": 2512,
      "www": 2513,
      "ruction": 2514,
      "ĠNorth": 2515,
      "Ġequal": 2516,
      "ges": 2517,
      "Ġchildren": 2518,
      "icult": 2519,
      "Ġsepar": 2520,
      "ients": 2521,
      "ĠâĢľ": 2522,
      "oll": 2523,
      "Ġrout": 2524,
      "iety": 2525,
      "aur": 2526,
      "aving": 2527,
      "Ġpub": 2528,
      "ready": 2529,
      "ledge": 2530,
      "ification": 2531,
      "Ġtaking": 2532,
      "Ġvideo": 2533,
      "Ġeither": 2534,
      "ĠMon": 2535,
      "Ġur": 2536,
      "atter": 2537,
      "Ġeconom": 2538,
      "Ġfollows": 2539,
      "Ġcame": 2540,
      "Ġnorth": 2541,
      "Ġmor": 2542,
      "Ġpie": 2543,
      "nal": 2544,
      "Ġheav": 2545,
      "Ġtransform": 2546,
      "Ġproperties": 2547,
      "Ġactiv": 2548,
      "Ġpopular": 2549,
      "rown": 2550,
      "Ġhistor": 2551,
      "Ġconcern": 2552,
      "Ġsort": 2553,
      "Ġsearch": 2554,
      "Ġinn": 2555,
      "field": 2556,
      "ift": 2557,
      "Ġlearning": 2558,
      "stit": 2559,
      "aff": 2560,
      "Ġskills": 2561,
      "Ġprovides": 2562,
      "Ġbalance": 2563,
      "[\"": 2564,
      "iment": 2565,
      "ĠAm": 2566,
      "dom": 2567,
      "Ġdr": 2568,
      "Ġhalf": 2569,
      "Ġoverall": 2570,
      "Ġfull": 2571,
      "ĠVal": 2572,
      "Ġseem": 2573,
      "Ġvalid": 2574,
      "Ġfac": 2575,
      "na": 2576,
      "Ġrate": 2577,
      "Ġgeomet": 2578,
      "Ġbring": 2579,
      "reg": 2580,
      "Im": 2581,
      "Ġsequence": 2582,
      "ĠEnglish": 2583,
      "more": 2584,
      "Ġbound": 2585,
      "Ġhar": 2586,
      "Ġconvers": 2587,
      "bl": 2588,
      "ably": 2589,
      ")^": 2590,
      "Ġfuture": 2591,
      "Ġitself": 2592,
      "Ġwritten": 2593,
      "Ġexpert": 2594,
      "ĠChrist": 2595,
      "Ġpurpose": 2596,
      "Ġprim": 2597,
      "Ġjo": 2598,
      "Ġtools": 2599,
      "pite": 2600,
      "utes": 2601,
      "Ġentire": 2602,
      "ĠPer": 2603,
      "ĠEar": 2604,
      "Ġrequire": 2605,
      "Ġdetails": 2606,
      "ĠDes": 2607,
      "Ġpolit": 2608,
      "ĠSouth": 2609,
      "Ġconnection": 2610,
      "umb": 2611,
      "Ġassoc": 2612,
      "Ġreturns": 2613,
      "Ġtour": 2614,
      "Ġpair": 2615,
      "ype": 2616,
      "pril": 2617,
      "Ġavailable": 2618,
      "Ġalready": 2619,
      "EN": 2620,
      "ey": 2621,
      "Ġroom": 2622,
      "ĠOctober": 2623,
      "ĠGu": 2624,
      "isf": 2625,
      "reen": 2626,
      "fficient": 2627,
      "ameter": 2628,
      "Ġonce": 2629,
      "Ġdraw": 2630,
      "bol": 2631,
      "ditional": 2632,
      "Ġri": 2633,
      "irt": 2634,
      "Ġdifficult": 2635,
      "ĠHis": 2636,
      "Ġunc": 2637,
      "ground": 2638,
      "Ġcontribut": 2639,
      "ends": 2640,
      "Ġsens": 2641,
      "Ġparticularly": 2642,
      "Ġfeed": 2643,
      "Ġissues": 2644,
      "Ġstore": 2645,
      "Ġactions": 2646,
      "Ġaspect": 2647,
      "sum": 2648,
      "Ġphr": 2649,
      "Ġchallenges": 2650,
      "ditionally": 2651,
      "Ġlay": 2652,
      "Ġnarrative": 2653,
      "ĠJune": 2654,
      "Ġdifference": 2655,
      "Ġadj": 2656,
      "Ġmessage": 2657,
      "Ġrequest": 2658,
      "Ġgames": 2659,
      "Ġgoals": 2660,
      "Ġplat": 2661,
      "sub": 2662,
      "istics": 2663,
      "bra": 2664,
      "Ġavoid": 2665,
      "Ġcollabor": 2666,
      "Ġplayer": 2667,
      "utions": 2668,
      "Ġdou": 2669,
      "oney": 2670,
      "Ġcourse": 2671,
      "Ġ\\)": 2672,
      "Ġalgorith": 2673,
      "Ġincorpor": 2674,
      "lation": 2675,
      "Ġexperiences": 2676,
      "Ġlittle": 2677,
      "Ġsquare": 2678,
      "abel": 2679,
      "iated": 2680,
      "ĠMc": 2681,
      "ovember": 2682,
      "inct": 2683,
      "Ġserv": 2684,
      "Ġincrease": 2685,
      "cast": 2686,
      "Ġsold": 2687,
      "Ġdescribed": 2688,
      "])": 2689,
      "ger": 2690,
      "Ġcommunic": 2691,
      "ament": 2692,
      "rote": 2693,
      "Ġhowever": 2694,
      "raw": 2695,
      "Ġfrequ": 2696,
      "Ġden": 2697,
      "Ġnecessary": 2698,
      "ynam": 2699,
      "ĠNo": 2700,
      "Ġplayed": 2701,
      "Ġpay": 2702,
      "overed": 2703,
      "Ġdoc": 2704,
      "AN": 2705,
      "Ġlower": 2706,
      "Ġkind": 2707,
      "ĠJuly": 2708,
      "Ġ\\[": 2709,
      "Ġuses": 2710,
      "ĠEd": 2711,
      "Ġproduction": 2712,
      "Ġformer": 2713,
      "ĠFl": 2714,
      "urs": 2715,
      "RE": 2716,
      "Ġbehavior": 2717,
      "Ġimm": 2718,
      "ounter": 2719,
      "Ġreason": 2720,
      "Ġdam": 2721,
      "itch": 2722,
      "Ġsentences": 2723,
      "Ġfeature": 2724,
      "Ġmiss": 2725,
      "Ġarr": 2726,
      "Ġlikely": 2727,
      "mar": 2728,
      "que": 2729,
      "isions": 2730,
      "ĠIm": 2731,
      "wh": 2732,
      "Ġabs": 2733,
      "Ġaffect": 2734,
      "ĠSu": 2735,
      "oor": 2736,
      "ĠâĪ": 2737,
      "Ġwest": 2738,
      "Ġill": 2739,
      "Ġsubject": 2740,
      "Ġcalculate": 2741,
      "Ġsales": 2742,
      "ĠMarch": 2743,
      "ĠApril": 2744,
      "org": 2745,
      "ĠMan": 2746,
      "Ġexcept": 2747,
      "When": 2748,
      "Ġstay": 2749,
      "Ġadditional": 2750,
      "aves": 2751,
      "Ġcy": 2752,
      "Ġhard": 2753,
      "Ġord": 2754,
      "Ġcompet": 2755,
      "Ġsuccessful": 2756,
      "Ġpropos": 2757,
      "erson": 2758,
      "Ġdetermine": 2759,
      "cember": 2760,
      "Ġ__": 2761,
      "ridge": 2762,
      "There": 2763,
      "Ġengine": 2764,
      "Ġvisit": 2765,
      "Ġindepend": 2766,
      "Let": 2767,
      "rad": 2768,
      "ĠFrench": 2769,
      "Ġinteger": 2770,
      "ĠNational": 2771,
      "Ġregular": 2772,
      "########": 2773,
      "anuary": 2774,
      "ese": 2775,
      "py": 2776,
      "ĠNovember": 2777,
      "Ġbehind": 2778,
      "Ġvoice": 2779,
      "Ġstrugg": 2780,
      "aches": 2781,
      "Ġsecre": 2782,
      "ĠRes": 2783,
      "ĠĠĠĠĠĠĠĠĠĠĠĠĠĠĠĠĠĠĠĠĠĠĠĠĠĠĠĠĠĠĠĠ": 2784,
      "most": 2785,
      "cher": 2786,
      "Ġred": 2787,
      "Ġclos": 2788,
      "urch": 2789,
      "Ġ</": 2790,
      "Ġassum": 2791,
      "pecially": 2792,
      "ells": 2793,
      "Ġmyst": 2794,
      "Ġleading": 2795,
      "Ġ//": 2796,
      "Ġwrote": 2797,
      "Ġdeg": 2798,
      "ret": 2799,
      "Ġforce": 2800,
      "Ġadded": 2801,
      "ĠSince": 2802,
      "Ġinstance": 2803,
      "itary": 2804,
      "Ġthings": 2805,
      "Ġplot": 2806,
      "Ġdiction": 2807,
      "Ġwid": 2808,
      "Ġlate": 2809,
      "Ġaudience": 2810,
      "Ġexact": 2811,
      "Ġstatement": 2812,
      "ai": 2813,
      "LE": 2814,
      "Ġraise": 2815,
      "Ġconditions": 2816,
      "pping": 2817,
      "Ġhigher": 2818,
      "Ġwrite": 2819,
      "Ġvisual": 2820,
      "Ġmix": 2821,
      "Ġfig": 2822,
      "ĠLet": 2823,
      "inc": 2824,
      "clusion": 2825,
      "Ġevidence": 2826,
      "Ġrecogn": 2827,
      "Ġground": 2828,
      "unch": 2829,
      "Ġcrucial": 2830,
      "argument": 2831,
      "aling": 2832,
      "ĠTrue": 2833,
      "Ġcreated": 2834,
      "Ġscen": 2835,
      "Ġissue": 2836,
      "Ġlost": 2837,
      "Ġgoal": 2838,
      "Ġsouth": 2839,
      "Ġaltern": 2840,
      "iam": 2841,
      "Ġdistance": 2842,
      "Ġpriv": 2843,
      "iques": 2844,
      "ows": 2845,
      "ĠDo": 2846,
      "uth": 2847,
      "Ġbar": 2848,
      "iddle": 2849,
      "Ġmonths": 2850,
      "Ġeffort": 2851,
      "Ġsaf": 2852,
      "Ġaccom": 2853,
      "hold": 2854,
      "Another": 2855,
      "Ġstreng": 2856,
      "eter": 2857,
      "Ġtitle": 2858,
      "Ġgoing": 2859,
      "Ġrand": 2860,
      "ĠQu": 2861,
      "uous": 2862,
      "Ġpatterns": 2863,
      "Ġmid": 2864,
      "Ġemotional": 2865,
      "Ġengaging": 2866,
      "Ġforward": 2867,
      "`,": 2868,
      "Ġresources": 2869,
      "ĠJanuary": 2870,
      "ĠDuring": 2871,
      "selves": 2872,
      "ream": 2873,
      "ĠSer": 2874,
      "off": 2875,
      "Ġmarket": 2876,
      "lected": 2877,
      "ĠDecember": 2878,
      "Ġespecially": 2879,
      "Ġlooking": 2880,
      "sing": 2881,
      "True": 2882,
      "Ġexec": 2883,
      "ĠSim": 2884,
      "Ġsteps": 2885,
      "arrow": 2886,
      "Ġwent": 2887,
      "Ġheld": 2888,
      "Now": 2889,
      "Ġtypes": 2890,
      "cy": 2891,
      "Ġ!": 2892,
      "Ġreally": 2893,
      "oat": 2894,
      "Ġlimit": 2895,
      "Ġreader": 2896,
      "Ġroad": 2897,
      "igate": 2898,
      "title": 2899,
      "Ġmakes": 2900,
      "Ġallowing": 2901,
      "pi": 2902,
      "Ġsal": 2903,
      "unc": 2904,
      "Ġrelated": 2905,
      "ĠUse": 2906,
      "ged": 2907,
      "Ġonline": 2908,
      "Ġfav": 2909,
      "Ġrandom": 2910,
      "Ġhimself": 2911,
      "Ġbit": 2912,
      "array": 2913,
      "ĠTe": 2914,
      "Ġcop": 2915,
      "ĠMe": 2916,
      "cos": 2917,
      "respond": 2918,
      "Ġplatform": 2919,
      "Ġdecl": 2920,
      "ava": 2921,
      "ĠÎ": 2922,
      "ael": 2923,
      "Ġeffective": 2924,
      "Ġchoice": 2925,
      "Ġface": 2926,
      "'.": 2927,
      "Ġnumer": 2928,
      "ĠUniversity": 2929,
      "Ġarri": 2930,
      "Ġstarted": 2931,
      "\"},": 2932,
      "Ġmass": 2933,
      "rig": 2934,
      "ceed": 2935,
      "Ġste": 2936,
      "Ġlines": 2937,
      "ains": 2938,
      "Ġter": 2939,
      "Ġlearn": 2940,
      "dis": 2941,
      "fect": 2942,
      "Ġfire": 2943,
      "One": 2944,
      "ĠSome": 2945,
      "load": 2946,
      "Ġtemper": 2947,
      "Ġclose": 2948,
      "rack": 2949,
      "Ġprime": 2950,
      "Ġmeet": 2951,
      "Ġtaken": 2952,
      "ĠDav": 2953,
      "Ġeval": 2954,
      "point": 2955,
      "Ġhost": 2956,
      "ĠGerman": 2957,
      "ta": 2958,
      "haps": 2959,
      "ensive": 2960,
      "Ġsust": 2961,
      "Ġallows": 2962,
      "ĠSee": 2963,
      "Ġcases": 2964,
      "Ġinsights": 2965,
      "Ġphysical": 2966,
      "Ġcross": 2967,
      "ĠHer": 2968,
      "Ġloss": 2969,
      "Ġtraining": 2970,
      "Ġcast": 2971,
      "ened": 2972,
      "Ġthroughout": 2973,
      "ĠBar": 2974,
      "Ġrow": 2975,
      "ĠAcc": 2976,
      "now": 2977,
      "reed": 2978,
      "medi": 2979,
      "Ġproblems": 2980,
      "Ġtask": 2981,
      "args": 2982,
      "Ġknowledge": 2983,
      "Ġdeveloped": 2984,
      "Ġblack": 2985,
      "Ġmodern": 2986,
      "Ġprogress": 2987,
      "inst": 2988,
      "ieved": 2989,
      ";/": 2990,
      "ees": 2991,
      "rew": 2992,
      "ht": 2993,
      "iles": 2994,
      "Ġrelease": 2995,
      "Ġgot": 2996,
      "='": 2997,
      "Ġformula": 2998,
      "arity": 2999,
      "Ġquality": 3000,
      "Ġoptions": 3001,
      "Ġpolic": 3002,
      "Ġsample": 3003,
      "ev": 3004,
      "Ġcorrespond": 3005,
      "Ġparticip": 3006,
      "Ġfit": 3007,
      "Ġofficial": 3008,
      "enced": 3009,
      "PI": 3010,
      "Ġquick": 3011,
      "cer": 3012,
      "Ġalthough": 3013,
      "Ġsatisf": 3014,
      "Ġgraph": 3015,
      "rest": 3016,
      "ls": 3017,
      "asc": 3018,
      "tools": 3019,
      "mat": 3020,
      "Ġsetting": 3021,
      "Ġheart": 3022,
      "Ġstates": 3023,
      "Ġsoft": 3024,
      "writ": 3025,
      "Ġmeasure": 3026,
      "itude": 3027,
      "ĠGener": 3028,
      "Ġgun": 3029,
      "Ġsurface": 3030,
      "Ġtable": 3031,
      "Ġfather": 3032,
      "ĠCo": 3033,
      "Ġinsp": 3034,
      "UST": 3035,
      "ony": 3036,
      "Ġcut": 3037,
      "Ġdark": 3038,
      "Ġindividuals": 3039,
      "ĠFeb": 3040,
      "flict": 3041,
      "Ġarch": 3042,
      "ham": 3043,
      "Ġestablish": 3044,
      "ĠCity": 3045,
      "Ġadapt": 3046,
      "Ġremov": 3047,
      "Ġsimpl": 3048,
      "Ġtechnology": 3049,
      "Ġapprox": 3050,
      "ips": 3051,
      "{{": 3052,
      "da": 3053,
      "Ġprec": 3054,
      "Ġpredict": 3055,
      "Ġstarting": 3056,
      "Ġexpected": 3057,
      "Ġdone": 3058,
      "agraph": 3059,
      "Ġsides": 3060,
      "Ġfactor": 3061,
      "ules": 3062,
      "bor": 3063,
      "ĠCent": 3064,
      "ĠAlex": 3065,
      "Ġstri": 3066,
      "SE": 3067,
      "Ġtechniques": 3068,
      "Ġtransport": 3069,
      "Ġdesigned": 3070,
      "inter": 3071,
      "Ġminutes": 3072,
      "Ġintegers": 3073,
      "Ġbox": 3074,
      "Ġlinear": 3075,
      "ĠPol": 3076,
      ";&": 3077,
      "Ġanc": 3078,
      "Ġcontinued": 3079,
      "iff": 3080,
      "ĠDef": 3081,
      "Ġstorm": 3082,
      "oyal": 3083,
      "ĠRep": 3084,
      "me": 3085,
      "ĠMich": 3086,
      "Ġtreat": 3087,
      "orem": 3088,
      "Ġlive": 3089,
      "Ġfriends": 3090,
      "ĠHar": 3091,
      "].": 3092,
      "Ġservices": 3093,
      "Ġsource": 3094,
      "ĠComm": 3095,
      "ĠChar": 3096,
      "lection": 3097,
      "aign": 3098,
      "ruary": 3099,
      "Ġaccur": 3100,
      "Ġconver": 3101,
      "Ġnetwork": 3102,
      "mary": 3103,
      "Ġregion": 3104,
      "joy": 3105,
      "AL": 3106,
      "erc": 3107,
      "Ġpromot": 3108,
      "ĠEl": 3109,
      "Ġcolor": 3110,
      "(\\": 3111,
      "ĠCal": 3112,
      "ĠSo": 3113,
      "ike": 3114,
      "Ġpack": 3115,
      "Ġconstant": 3116,
      "ondon": 3117,
      "order": 3118,
      "eed": 3119,
      "opt": 3120,
      "Ġrecomm": 3121,
      "Ġreturned": 3122,
      "ĠMUST": 3123,
      "itor": 3124,
      "ership": 3125,
      "Ġactivities": 3126,
      "rate": 3127,
      "atives": 3128,
      "Ġexpression": 3129,
      "curity": 3130,
      "Ġroot": 3131,
      "valid": 3132,
      "Ġmach": 3133,
      "ae": 3134,
      "Ġaccording": 3135,
      "Ġparameters": 3136,
      "Ġtrying": 3137,
      "Ġaccept": 3138,
      "ĠOut": 3139,
      "Ġthemselves": 3140,
      "Ġlarger": 3141,
      "]]''": 3142,
      "Ġlocation": 3143,
      "Ġalign": 3144,
      "ĠEngland": 3145,
      "Ġbroad": 3146,
      "max": 3147,
      "ancial": 3148,
      "Ġconflict": 3149,
      "rast": 3150,
      "page": 3151,
      "Ġisland": 3152,
      "tim": 3153,
      "Ġproviding": 3154,
      "cle": 3155,
      "come": 3156,
      "Ġnode": 3157,
      "Com": 3158,
      "actions": 3159,
      "nown": 3160,
      "ille": 3161,
      "bu": 3162,
      "Ġvict": 3163,
      "ĠMy": 3164,
      "Ġtowards": 3165,
      "ĠSm": 3166,
      "util": 3167,
      "Ġmodels": 3168,
      "ăā": 3169,
      "ĠMin": 3170,
      "fig": 3171,
      "hens": 3172,
      "Ġbenefits": 3173,
      "Ġsets": 3174,
      "Ġcommit": 3175,
      "go": 3176,
      "Ġscience": 3177,
      "Ġperspect": 3178,
      "Ġfelt": 3179,
      "Ġet": 3180,
      "IT": 3181,
      "Ġnegative": 3182,
      "Ġcondition": 3183,
      ")$": 3184,
      "Ġdemon": 3185,
      "Ġwebs": 3186,
      "Ġprofessional": 3187,
      "append": 3188,
      "Ġusers": 3189,
      "Ġparagraph": 3190,
      "ĠYour": 3191,
      "Em": 3192,
      "Ġprevent": 3193,
      "However": 3194,
      "chan": 3195,
      "ĠFebruary": 3196,
      "Ġcomplete": 3197,
      "Ġslow": 3198,
      "Ġpercent": 3199,
      "Ġgreater": 3200,
      "hib": 3201,
      "Ġmaximum": 3202,
      "Wh": 3203,
      "ump": 3204,
      "Ġforces": 3205,
      "Ġdatas": 3206,
      "ĠTw": 3207,
      "Ġdictionary": 3208,
      "Ġphot": 3209,
      "Ġparent": 3210,
      "ĠJack": 3211,
      ">[{\"": 3212,
      "Ġquant": 3213,
      "Ġspeed": 3214,
      "Ġefficient": 3215,
      "Ġreaders": 3216,
      "rors": 3217,
      "erve": 3218,
      "Cl": 3219,
      "size": 3220,
      "===": 3221,
      "Ġproducts": 3222,
      "ging": 3223,
      "Ġchart": 3224,
      "ĠAre": 3225,
      "----------------": 3226,
      "Ġcontinue": 3227,
      "List": 3228,
      "Ġhon": 3229,
      "ĠAng": 3230,
      "Last": 3231,
      "Ġobjects": 3232,
      "ĠFalse": 3233,
      "ĠAf": 3234,
      "Ġindustry": 3235,
      "Ġreduce": 3236,
      "Ġyet": 3237,
      "Ġtone": 3238,
      "plit": 3239,
      "pot": 3240,
      "BC": 3241,
      "Ġtele": 3242,
      "Ġinfluence": 3243,
      "bb": 3244,
      "ĠLondon": 3245,
      "Ġinteract": 3246,
      "ession": 3247,
      "():": 3248,
      "roy": 3249,
      "Ġver": 3250,
      "\\[": 3251,
      "oe": 3252,
      "Ġparameter": 3253,
      "Ġimage": 3254,
      "Ġincreasing": 3255,
      "En": 3256,
      "Ġhope": 3257,
      "Ġsolve": 3258,
      "Ġdoing": 3259,
      "aly": 3260,
      "Ġhor": 3261,
      "ĠAir": 3262,
      "arily": 3263,
      "rap": 3264,
      "Ġcustomer": 3265,
      "Ġeffects": 3266,
      "Ġcannot": 3267,
      "number": 3268,
      "Ġenough": 3269,
      "ares": 3270,
      "Ġson": 3271,
      "cdot": 3272,
      "Ġassert": 3273,
      "Ġoperations": 3274,
      "ĠReg": 3275,
      "Ġmoney": 3276,
      "Ġcritical": 3277,
      "ivil": 3278,
      "ply": 3279,
      "Ġplease": 3280,
      "omial": 3281,
      "lier": 3282,
      "Ġeffectively": 3283,
      "Ġcolumn": 3284,
      "Ġcover": 3285,
      "Ġindex": 3286,
      "ĠCount": 3287,
      "Ġmoment": 3288,
      "Ġconstruct": 3289,
      "Ġweight": 3290,
      "anks": 3291,
      "unk": 3292,
      "Ġdynam": 3293,
      "Ġround": 3294,
      "Ġparts": 3295,
      "Ġdate": 3296,
      "ĠPark": 3297,
      "rs": 3298,
      "fort": 3299,
      "Ġdistinct": 3300,
      "ili": 3301,
      "Ġiter": 3302,
      "ĠÃ": 3303,
      "eper": 3304,
      "Ġcustomers": 3305,
      "Ġcal": 3306,
      "ana": 3307,
      "gebra": 3308,
      "ening": 3309,
      "Ad": 3310,
      "Ġgave": 3311,
      "hood": 3312,
      "Ġclub": 3313,
      "Ġencou": 3314,
      "Ġscient": 3315,
      "ĠHigh": 3316,
      "ĠPlease": 3317,
      "ald": 3318,
      "Ġlen": 3319,
      "Ġcampaign": 3320,
      "ites": 3321,
      "Ġcompon": 3322,
      "times": 3323,
      "anch": 3324,
      "oms": 3325,
      "Ġenjoy": 3326,
      "Ġdisplay": 3327,
      "Ġeducation": 3328,
      "izes": 3329,
      "Ġregard": 3330,
      "ĠĠĠĠĠĠ": 3331,
      "Ġenh": 3332,
      "Ġpowerful": 3333,
      "Ġdemonstr": 3334,
      "artment": 3335,
      "ibrary": 3336,
      "Ġsustain": 3337,
      "Can": 3338,
      "Ġfinancial": 3339,
      "Ġmotiv": 3340,
      "used": 3341,
      "Ġliving": 3342,
      "Ġobtain": 3343,
      "Ġsus": 3344,
      "Ġprep": 3345,
      "proper": 3346,
      "Ġanim": 3347,
      "ordin": 3348,
      "Ġinterpre": 3349,
      "Ġadjust": 3350,
      "Ġsurround": 3351,
      "asks": 3352,
      "Ġability": 3353,
      "Ġproperty": 3354,
      "iter": 3355,
      "Ġunivers": 3356,
      "vant": 3357,
      "Ġconsequ": 3358,
      "Ġcomplexity": 3359,
      "Ġfeedback": 3360,
      "book": 3361,
      "Ġcontains": 3362,
      "pha": 3363,
      "Ġpublished": 3364,
      "imens": 3365,
      "umber": 3366,
      "Ġbeaut": 3367,
      "Ġattention": 3368,
      "Ġculture": 3369,
      "Ġmoved": 3370,
      "Ġrock": 3371,
      "Ġblock": 3372,
      "Ġwhite": 3373,
      "iol": 3374,
      "Ġcat": 3375,
      "ection": 3376,
      "with": 3377,
      "ography": 3378,
      "input": 3379,
      "Ġassistant": 3380,
      "Ġhom": 3381,
      "ometimes": 3382,
      "Ġrisk": 3383,
      "enge": 3384,
      "aching": 3385,
      "Ġprotect": 3386,
      "Ġwomen": 3387,
      "Ġproduced": 3388,
      "ford": 3389,
      "Ġplayers": 3390,
      "Ġresid": 3391,
      "Ġopportunities": 3392,
      "Ġmiles": 3393,
      "eks": 3394,
      "Ġmember": 3395,
      "aul": 3396,
      "ĠSw": 3397,
      "pec": 3398,
      "Ġinnov": 3399,
      "Ġcause": 3400,
      "Ġmanagement": 3401,
      "Ġsection": 3402,
      "ĠPart": 3403,
      "gen": 3404,
      ")(": 3405,
      "Ġdirectly": 3406,
      "index": 3407,
      "Ġdirection": 3408,
      "ĠInst": 3409,
      "Ġmemory": 3410,
      "Ġstation": 3411,
      "Ġmatrix": 3412,
      "Ġnovel": 3413,
      "Ġclim": 3414,
      "down": 3415,
      "ĠConsider": 3416,
      "Ġcred": 3417,
      "Ġsaw": 3418,
      "mb": 3419,
      "igned": 3420,
      "Ġmathematics": 3421,
      "__(": 3422,
      "Is": 3423,
      "Ġcoe": 3424,
      "Un": 3425,
      "ifying": 3426,
      "[]": 3427,
      "Ġcou": 3428,
      "Ġunits": 3429,
      "Ġthinking": 3430,
      "Ġesc": 3431,
      "Ġgain": 3432,
      "Ġvill": 3433,
      "Ġcenter": 3434,
      "phas": 3435,
      "Ġevalu": 3436,
      "Ġpurch": 3437,
      "âĪ": 3438,
      "amental": 3439,
      "lin": 3440,
      "`.": 3441,
      "clude": 3442,
      "Ġcosts": 3443,
      "Ġsil": 3444,
      "Ġeyes": 3445,
      "Ġbecomes": 3446,
      "ĠMus": 3447,
      "wise": 3448,
      "Ġfront": 3449,
      "estamp": 3450,
      "ĠAss": 3451,
      "Ġwalk": 3452,
      "itable": 3453,
      ")|": 3454,
      "Ġoutside": 3455,
      "Ġlink": 3456,
      "ES": 3457,
      "Ġperfect": 3458,
      "ellow": 3459,
      "Ġwhy": 3460,
      "rm": 3461,
      "Ġoptim": 3462,
      "Ġ{'": 3463,
      "Ġcompan": 3464,
      "AC": 3465,
      "Ġestim": 3466,
      "ban": 3467,
      "Ġhandle": 3468,
      "Ġfix": 3469,
      "Ġtou": 3470,
      "rie": 3471,
      "Ġbelieve": 3472,
      "Ġimportance": 3473,
      "Ġimplic": 3474,
      "Ġnames": 3475,
      "Ġvert": 3476,
      "Ġmeeting": 3477,
      "Ġincreased": 3478,
      "board": 3479,
      "ropical": 3480,
      "Ġdepth": 3481,
      "Ġstrength": 3482,
      "het": 3483,
      "Ġten": 3484,
      "âĢĶ": 3485,
      "Ġrich": 3486,
      "Ġsummary": 3487,
      "Ġextrem": 3488,
      "Ġcentral": 3489,
      "fact": 3490,
      "Ġtrip": 3491,
      "Ġreveal": 3492,
      "pass": 3493,
      "None": 3494,
      "IC": 3495,
      "idden": 3496,
      "Ġsmaller": 3497,
      "Ġreported": 3498,
      "reate": 3499,
      "Ġrefer": 3500,
      "Lastly": 3501,
      "Ġthoughts": 3502,
      "ĠAlthough": 3503,
      "Ġshows": 3504,
      "ĠCanad": 3505,
      "Ġmount": 3506,
      "roll": 3507,
      "Ġfollowed": 3508,
      "Ġmaterials": 3509,
      "alle": 3510,
      "uel": 3511,
      "ĠState": 3512,
      "Ġjourney": 3513,
      "Ġscene": 3514,
      "Ġmilitary": 3515,
      "Ġwanted": 3516,
      "Ġunit": 3517,
      "Ġnational": 3518,
      "Ġtraditional": 3519,
      "Ġsituation": 3520,
      "Ġusually": 3521,
      "ux": 3522,
      "Ġincludes": 3523,
      "Ġstar": 3524,
      "aily": 3525,
      "Ġmathematical": 3526,
      "Ġpaper": 3527,
      "Ġsolutions": 3528,
      "Ġtrend": 3529,
      "ĠThat": 3530,
      "ID": 3531,
      "fully": 3532,
      "gy": 3533,
      "ĠComp": 3534,
      "AS": 3535,
      "Ġ'''": 3536,
      "rel": 3537,
      "Ġitems": 3538,
      "ont": 3539,
      "ait": 3540,
      "Ġtim": 3541,
      "Ġalgorithm": 3542,
      "Ġshape": 3543,
      "sy": 3544,
      "Ġimmedi": 3545,
      "Ġassociated": 3546,
      "Ġimag": 3547,
      "Ġreflect": 3548,
      "Ġfem": 3549,
      "Ġdom": 3550,
      "Ġgenerally": 3551,
      "where": 3552,
      "Ġlevels": 3553,
      "ĠGod": 3554,
      "Ġnormal": 3555,
      "Ġrat": 3556,
      "Ġsimply": 3557,
      "Ġsite": 3558,
      "Ġsymbol": 3559,
      "astic": 3560,
      "Write": 3561,
      "Ġexactly": 3562,
      "adem": 3563,
      "Ġsomeone": 3564,
      "ternal": 3565,
      "bit": 3566,
      "ĠGl": 3567,
      "obal": 3568,
      "Ġlonger": 3569,
      "zz": 3570,
      "oke": 3571,
      "ĠGeneral": 3572,
      "ought": 3573,
      "Ġwall": 3574,
      "Ġprice": 3575,
      "Ġseek": 3576,
      "ests": 3577,
      "Â·": 3578,
      "Ġletter": 3579,
      "ĠRiver": 3580,
      "sin": 3581,
      "Ġancient": 3582,
      "Ġinvolves": 3583,
      "ampions": 3584,
      "Ġbig": 3585,
      "abit": 3586,
      "Ġmis": 3587,
      "omb": 3588,
      "Ġsoon": 3589,
      "Ġking": 3590,
      "And": 3591,
      "Ġ<<": 3592,
      "Ġdistribut": 3593,
      "ĠĠĊ": 3594,
      "Ġsurv": 3595,
      "icles": 3596,
      "Ġemb": 3597,
      "Ġeast": 3598,
      "Ġpresence": 3599,
      "eder": 3600,
      "Ġsuff": 3601,
      "Ġtree": 3602,
      "Ã¶": 3603,
      "ĠAmerica": 3604,
      "Ġdoesn": 3605,
      "Ġinvolved": 3606,
      "Ġconvey": 3607,
      "Ġremaining": 3608,
      "part": 3609,
      "Ġprivate": 3610,
      "(-": 3611,
      "yr": 3612,
      "rought": 3613,
      "ios": 3614,
      "Ġmechan": 3615,
      "Ġalmost": 3616,
      "Ġmother": 3617,
      "oud": 3618,
      "Ġlargest": 3619,
      "uff": 3620,
      "Ġcritic": 3621,
      "Ġmention": 3622,
      "Ġstatist": 3623,
      "Ġinvolve": 3624,
      "Ġwhole": 3625,
      "Ġemotions": 3626,
      "Ġworth": 3627,
      "ris": 3628,
      "place": 3629,
      "ounced": 3630,
      "ĠJames": 3631,
      "Ġtell": 3632,
      "Ġupd": 3633,
      "men": 3634,
      "Ġmagic": 3635,
      "Ġfight": 3636,
      "ĠPres": 3637,
      "orge": 3638,
      "ferences": 3639,
      "Ġthreat": 3640,
      "Ġwebsite": 3641,
      "Ġitem": 3642,
      "Ġweeks": 3643,
      "Ar": 3644,
      "ĠAccording": 3645,
      "Ġsun": 3646,
      "})": 3647,
      "Ġmarketing": 3648,
      "Ġsec": 3649,
      "Ġdocument": 3650,
      "ĠRuss": 3651,
      "Ġexamples": 3652,
      "mosp": 3653,
      "Ġparty": 3654,
      "uk": 3655,
      "]])": 3656,
      "boxed": 3657,
      "Ġful": 3658,
      "Ġgives": 3659,
      "So": 3660,
      "rage": 3661,
      "ĠMed": 3662,
      "ara": 3663,
      "resh": 3664,
      "Ġframe": 3665,
      "Ġcollect": 3666,
      "ĠDis": 3667,
      "Ġnu": 3668,
      "Ġindependent": 3669,
      "Ġfields": 3670,
      "ĠĠĠĠĠĠĠĠĠĠĠĠĠĠĠĠĠĠĠĠĠĠĠ": 3671,
      "Ġtax": 3672,
      "orks": 3673,
      "Ġshall": 3674,
      "like": 3675,
      "otal": 3676,
      "Ġstd": 3677,
      "Ġestablished": 3678,
      "Ġformed": 3679,
      "RO": 3680,
      "Ġfundamental": 3681,
      "ĠOther": 3682,
      "Ġtriangle": 3683,
      "Ġtypically": 3684,
      "ĠApp": 3685,
      "known": 3686,
      "Ġbattle": 3687,
      "Ġbelow": 3688,
      "=&": 3689,
      ".âĢĿ": 3690,
      "Ġchoose": 3691,
      "Ġstage": 3692,
      "Ġprem": 3693,
      "Ġinj": 3694,
      "Ġdefined": 3695,
      "quad": 3696,
      "Ġconsidering": 3697,
      "Ġinterval": 3698,
      "eturn": 3699,
      "oo": 3700,
      "irm": 3701,
      "Ġrespond": 3702,
      "wood": 3703,
      "osition": 3704,
      "anged": 3705,
      "Ġdu": 3706,
      "ĠThom": 3707,
      "atory": 3708,
      "Ġinstall": 3709,
      "Ġeight": 3710,
      "Ġdetect": 3711,
      "Ġbooks": 3712,
      "Ġdemand": 3713,
      "Ã¡": 3714,
      "udget": 3715,
      "Ġstated": 3716,
      "())": 3717,
      "itation": 3718,
      "ĠDavid": 3719,
      "Ġformal": 3720,
      "agonist": 3721,
      "Ġpolitical": 3722,
      "izations": 3723,
      "Ġfocusing": 3724,
      "Ġconduct": 3725,
      "Ġreality": 3726,
      "Re": 3727,
      "ĠSystem": 3728,
      "Ġhelps": 3729,
      "Ġstack": 3730,
      "Ġstories": 3731,
      "Ġwoman": 3732,
      "Ġadding": 3733,
      "Ġprin": 3734,
      "Ġzero": 3735,
      "ters": 3736,
      "ĠAb": 3737,
      "Ġlimited": 3738,
      "ager": 3739,
      "Ġsea": 3740,
      "Ġstudent": 3741,
      "resents": 3742,
      "Ġcry": 3743,
      "lear": 3744,
      "ĠAfric": 3745,
      "Ġtasks": 3746,
      "Ġstrict": 3747,
      "timestamp": 3748,
      "Ġimplementation": 3749,
      "ĠCor": 3750,
      "jo": 3751,
      "ĠRec": 3752,
      "Ġdefe": 3753,
      "Ġheight": 3754,
      "Ġdead": 3755,
      "Best": 3756,
      "Ġplant": 3757,
      "ĠDiv": 3758,
      "Ġarm": 3759,
      "ĠSch": 3760,
      "Ġded": 3761,
      "lim": 3762,
      "Ġremains": 3763,
      "Ġforms": 3764,
      "Ġtalk": 3765,
      "raction": 3766,
      "Ġwhose": 3767,
      "iers": 3768,
      "Ġpiece": 3769,
      "uable": 3770,
      "ags": 3771,
      "Ġtold": 3772,
      "ĠâĢĺ": 3773,
      "ender": 3774,
      "Ġapplications": 3775,
      "illing": 3776,
      "Ġsuggests": 3777,
      "Ġcompre": 3778,
      "ocal": 3779,
      "db": 3780,
      "Ġallowed": 3781,
      "Ġalgebra": 3782,
      "Ġconv": 3783,
      "Ġleave": 3784,
      "Ġatmosp": 3785,
      "Ġspeak": 3786,
      "func": 3787,
      "Ġliter": 3788,
      "Ġworked": 3789,
      "Ġpressure": 3790,
      "Ġreached": 3791,
      "Ġcircle": 3792,
      "Ġdied": 3793,
      "Ġspent": 3794,
      "Ġactually": 3795,
      "Ġidentity": 3796,
      "Ġnone": 3797,
      "###": 3798,
      "ĠFirst": 3799,
      "Ġlot": 3800,
      "ircraft": 3801,
      "change": 3802,
      "Ġsecurity": 3803,
      "Ġmatter": 3804,
      "cil": 3805,
      "Ġund": 3806,
      "ĠPe": 3807,
      "Ġhot": 3808,
      "Ġbul": 3809,
      "ĠDon": 3810,
      "Ġcoast": 3811,
      "Equ": 3812,
      "reet": 3813,
      "ĠGr": 3814,
      "Ġpractice": 3815,
      "oes": 3816,
      "ĠNO": 3817,
      "Ġappl": 3818,
      "ref": 3819,
      "url": 3820,
      "Ġâī": 3821,
      "atus": 3822,
      "Ġerrors": 3823,
      "Ġemerg": 3824,
      "Ġdecisions": 3825,
      "ĠJapanese": 3826,
      "Ġ+=": 3827,
      "Ġgard": 3828,
      "Ġconsum": 3829,
      "asons": 3830,
      "Ġrunning": 3831,
      "Ġax": 3832,
      "Ġpark": 3833,
      "Ġexpand": 3834,
      "Category": 3835,
      "ulate": 3836,
      "ratic": 3837,
      "Ġgold": 3838,
      "Ġseems": 3839,
      "Ġyourself": 3840,
      "Ġearlier": 3841,
      "Ġrepe": 3842,
      "Ġsources": 3843,
      "year": 3844,
      "IS": 3845,
      "Ġrepresents": 3846,
      "US": 3847,
      "rief": 3848,
      "Ġdeeper": 3849,
      "outhern": 3850,
      "Ġequations": 3851,
      "ĠIntern": 3852,
      "Ġdefin": 3853,
      "account": 3854,
      "Ġforest": 3855,
      "ache": 3856,
      "Ġrank": 3857,
      "Ġdestroy": 3858,
      "Ġalternative": 3859,
      "vide": 3860,
      "Ġactive": 3861,
      "Ġinterested": 3862,
      "Ġhit": 3863,
      "Ġdouble": 3864,
      "irect": 3865,
      "Ġdataset": 3866,
      "Ġlives": 3867,
      "Ġintern": 3868,
      "Ġcomes": 3869,
      "Ġexisting": 3870,
      "ica": 3871,
      "fil": 3872,
      "Ġtru": 3873,
      "ensity": 3874,
      "egin": 3875,
      "Ġtro": 3876,
      "Ġrob": 3877,
      "Ġoperation": 3878,
      "ĠHol": 3879,
      "Ġemail": 3880,
      "Ġplanning": 3881,
      "Ġconclusion": 3882,
      "Ġfun": 3883,
      "Ġclarity": 3884,
      "ĠHist": 3885,
      "Ġexplain": 3886,
      "Ġdescribe": 3887,
      "Ġid": 3888,
      "Ġche": 3889,
      "Ġdepend": 3890,
      "Ġpow": 3891,
      "Ġplaying": 3892,
      "itect": 3893,
      "ĠAustralia": 3894,
      "========": 3895,
      "Ġoffice": 3896,
      "case": 3897,
      "ogue": 3898,
      "ĠDr": 3899,
      "Ġstatus": 3900,
      "username": 3901,
      "Ġpage": 3902,
      "Ġfavor": 3903,
      "ying": 3904,
      "Ġwood": 3905,
      "Ġ[]": 3906,
      "const": 3907,
      "urg": 3908,
      "Ġattribut": 3909,
      "ĠRed": 3910,
      "iring": 3911,
      "ino": 3912,
      "Ġperformed": 3913,
      "Ġconcerns": 3914,
      "reek": 3915,
      "eta": 3916,
      "Ġopening": 3917,
      "Ġcaused": 3918,
      "ĠIsland": 3919,
      "Ġaspects": 3920,
      "Ġlocated": 3921,
      "Ġshap": 3922,
      "Ġelif": 3923,
      "Ġsometimes": 3924,
      "rated": 3925,
      "Ġstrategies": 3926,
      "ĠThen": 3927,
      "based": 3928,
      "ĠMor": 3929,
      "Ġexploring": 3930,
      "Ġemphas": 3931,
      "irth": 3932,
      "Ġquickly": 3933,
      "Ġspir": 3934,
      "Ġloop": 3935,
      "Ġnort": 3936,
      "leep": 3937,
      "ynomial": 3938,
      "Ġrecorded": 3939,
      "Ġinfin": 3940,
      "Ġimplications": 3941,
      "Ġstrategy": 3942,
      "Ġconstruction": 3943,
      "ington": 3944,
      "Ġult": 3945,
      "AM": 3946,
      "Ġstra": 3947,
      "ellig": 3948,
      "Ġpassed": 3949,
      "Ġrevised": 3950,
      "Ġtoday": 3951,
      "Ġcomprehens": 3952,
      "Ġcomputer": 3953,
      "imin": 3954,
      "Ġwide": 3955,
      "Ġchanged": 3956,
      "ript": 3957,
      "Ġdial": 3958,
      "Ġvirt": 3959,
      "ĠEast": 3960,
      "sk": 3961,
      "Ġsaying": 3962,
      "Ġcountries": 3963,
      "ĠBro": 3964,
      "Ġaircraft": 3965,
      "Ġsy": 3966,
      "ken": 3967,
      "Ġscript": 3968,
      "Ġneigh": 3969,
      "Ġcraft": 3970,
      "Ġcrew": 3971,
      "Ġbrother": 3972,
      "Ġhighest": 3973,
      "Ġprotagonist": 3974,
      "\".": 3975,
      "Ġaim": 3976,
      "che": 3977,
      "ding": 3978,
      "amer": 3979,
      "Ġessay": 3980,
      "mp": 3981,
      "Ġrule": 3982,
      "oration": 3983,
      "no": 3984,
      "Ġspaces": 3985,
      "Ġcultural": 3986,
      "\\)": 3987,
      "properties": 3988,
      "anger": 3989,
      "Ġcomment": 3990,
      "ĠCont": 3991,
      "ĠTherefore": 3992,
      "Ġremained": 3993,
      "Ġtemperature": 3994,
      "node": 3995,
      "ĠLeague": 3996,
      "ĠAg": 3997,
      "hesis": 3998,
      "iber": 3999,
      "Ġprimary": 4000,
      "ĠInt": 4001,
      "Ġque": 4002,
      "ĠNot": 4003,
      "ulations": 4004,
      "Ġ''[[": 4005,
      "Ġbrought": 4006,
      "Ġwond": 4007,
      "Ġsongs": 4008,
      "Ġcomplet": 4009,
      "Ġeconomic": 4010,
      "tings": 4011,
      "ster": 4012,
      "ĠTra": 4013,
      "Ġwife": 4014,
      "Ġrequires": 4015,
      "Ġthr": 4016,
      "Ġdefault": 4017,
      "Ġdrive": 4018,
      "ĠAct": 4019,
      "eful": 4020,
      "ease": 4021,
      "Ġthing": 4022,
      "earch": 4023,
      "reci": 4024,
      "Ġbudget": 4025,
      "bf": 4026,
      "sec": 4027,
      "Ġcombination": 4028,
      "Ġadvanced": 4029,
      "group": 4030,
      "();": 4031,
      "ED": 4032,
      "On": 4033,
      "asy": 4034,
      "Ġasked": 4035,
      "ĠFrom": 4036,
      "ĠEarth": 4037,
      "revision": 4038,
      "rupt": 4039,
      "Ġapproximately": 4040,
      "Ġprop": 4041,
      "ades": 4042,
      "Ġships": 4043,
      "Consider": 4044,
      "required": 4045,
      "ĠNav": 4046,
      "html": 4047,
      "Ġoptional": 4048,
      "Ġeventually": 4049,
      "Ġtransition": 4050,
      "Ġgetting": 4051,
      "uration": 4052,
      "aint": 4053,
      "Ġhur": 4054,
      "etime": 4055,
      "Ġstructures": 4056,
      "\"}},": 4057,
      "bon": 4058,
      "First": 4059,
      "Ġemployees": 4060,
      "contribut": 4061,
      "Ġhistorical": 4062,
      "Ġcand": 4063,
      "Ġintent": 4064,
      "ports": 4065,
      "ĠLa": 4066,
      "cean": 4067,
      "Ġconcepts": 4068,
      "aged": 4069,
      "Ġmachine": 4070,
      "utive": 4071,
      "Ġos": 4072,
      "Ġfeeling": 4073,
      "Ġrecommend": 4074,
      "Ġproduce": 4075,
      "ĠMichael": 4076,
      "rect": 4077,
      "lant": 4078,
      "Ġtrust": 4079,
      "oper": 4080,
      "Â·Â·": 4081,
      "Ġ||": 4082,
      "rict": 4083,
      "Ġbrand": 4084,
      "Ġresulting": 4085,
      "start": 4086,
      "Ġsuggestions": 4087,
      "Ġcorrelation": 4088,
      "Ġbeginning": 4089,
      "Ġhypot": 4090,
      "ĠNe": 4091,
      "Ġ\\\\": 4092,
      "Based": 4093,
      "Ġfinding": 4094,
      "Ġappears": 4095
    },
    "merges": [
      [
        "Ġ",
        "t"
      ],
      [
        "Ġ",
        "a"
      ],
      [
        "h",
        "e"
      ],
      [
        "i",
        "n"
      ],
      [
        "Ġ",
        "Ġ"
      ],
      [
        "r",
        "e"
      ],
      [
        "o",
        "n"
      ],
      [
        "Ġt",
        "he"
      ],
      [
        "e",
        "r"
      ],
      [
        "Ġ",
        "s"
      ],
      [
        "a",
        "t"
      ],
      [
        "Ġ",
        "o"
      ],
      [
        "Ġ",
        "c"
      ],
      [
        "e",
        "n"
      ],
      [
        "Ġ",
        "w"
      ],
      [
        "e",
        "s"
      ],
      [
        "n",
        "d"
      ],
      [
        "o",
        "r"
      ],
      [
        "i",
        "s"
      ],
      [
        "i",
        "t"
      ],
      [
        "a",
        "l"
      ],
      [
        "Ġ",
        "f"
      ],
      [
        "in",
        "g"
      ],
      [
        "e",
        "d"
      ],
      [
        "Ġ",
        "p"
      ],
      [
        "a",
        "n"
      ],
      [
        "Ġ",
        "b"
      ],
      [
        "a",
        "r"
      ],
      [
        "o",
        "u"
      ],
      [
        "Ġo",
        "f"
      ],
      [
        "ĠĠ",
        "ĠĠ"
      ],
      [
        "Ġ",
        "in"
      ],
      [
        "Ġa",
        "nd"
      ],
      [
        "i",
        "on"
      ],
      [
        "Ġ",
        "m"
      ],
      [
        "Ġt",
        "o"
      ],
      [
        "Ġ",
        "d"
      ],
      [
        "i",
        "c"
      ],
      [
        "l",
        "e"
      ],
      [
        "a",
        "s"
      ],
      [
        "r",
        "o"
      ],
      [
        "Ġ",
        ","
      ],
      [
        "Ġ",
        "h"
      ],
      [
        "en",
        "t"
      ],
      [
        "c",
        "t"
      ],
      [
        "Ġ",
        "re"
      ],
      [
        "Ġ",
        "e"
      ],
      [
        "Ġt",
        "h"
      ],
      [
        "Ġ",
        "n"
      ],
      [
        "s",
        "t"
      ],
      [
        "e",
        "l"
      ],
      [
        "e",
        "t"
      ],
      [
        "Ġ",
        "l"
      ],
      [
        "o",
        "m"
      ],
      [
        "i",
        "l"
      ],
      [
        "Ġ",
        "."
      ],
      [
        "Ġ",
        "T"
      ],
      [
        "a",
        "m"
      ],
      [
        "i",
        "m"
      ],
      [
        "i",
        "d"
      ],
      [
        "v",
        "e"
      ],
      [
        "o",
        "t"
      ],
      [
        "c",
        "e"
      ],
      [
        "Ġ",
        "="
      ],
      [
        "o",
        "l"
      ],
      [
        "u",
        "t"
      ],
      [
        "Ġ",
        "g"
      ],
      [
        "Ġ",
        "is"
      ],
      [
        "ĠĠ",
        "Ġ"
      ],
      [
        "u",
        "s"
      ],
      [
        "at",
        "ion"
      ],
      [
        "u",
        "r"
      ],
      [
        "Ġf",
        "or"
      ],
      [
        "i",
        "g"
      ],
      [
        "r",
        "a"
      ],
      [
        "Ġ",
        "\""
      ],
      [
        "o",
        "w"
      ],
      [
        "Ġ",
        "A"
      ],
      [
        "Ġb",
        "e"
      ],
      [
        "c",
        "h"
      ],
      [
        "Ġs",
        "t"
      ],
      [
        "Ġ",
        "I"
      ],
      [
        "l",
        "y"
      ],
      [
        "Ġ",
        "S"
      ],
      [
        "Ġ",
        "on"
      ],
      [
        "er",
        "s"
      ],
      [
        "Ġ",
        "y"
      ],
      [
        "Ġth",
        "at"
      ],
      [
        "a",
        "d"
      ],
      [
        "it",
        "h"
      ],
      [
        "i",
        "r"
      ],
      [
        "Ġc",
        "on"
      ],
      [
        "u",
        "l"
      ],
      [
        "Ġa",
        "s"
      ],
      [
        "u",
        "n"
      ],
      [
        "i",
        "f"
      ],
      [
        "Ġ",
        "C"
      ],
      [
        "u",
        "m"
      ],
      [
        "Ġw",
        "ith"
      ],
      [
        "Ġ",
        "Ċ"
      ],
      [
        "a",
        "y"
      ],
      [
        "he",
        "r"
      ],
      [
        "q",
        "u"
      ],
      [
        "s",
        "e"
      ],
      [
        "ĠĠĠĠ",
        "ĠĠĠĠ"
      ],
      [
        "Ġy",
        "ou"
      ],
      [
        "Ġ",
        "v"
      ],
      [
        "Ġ",
        "("
      ],
      [
        "Ġa",
        "n"
      ],
      [
        "Ġo",
        "r"
      ],
      [
        "ĠT",
        "he"
      ],
      [
        "Ġ",
        "it"
      ],
      [
        "is",
        "t"
      ],
      [
        "Ġp",
        "ro"
      ],
      [
        "at",
        "e"
      ],
      [
        "r",
        "i"
      ],
      [
        "Ġ",
        "M"
      ],
      [
        "Ġa",
        "l"
      ],
      [
        "a",
        "g"
      ],
      [
        "o",
        "d"
      ],
      [
        "v",
        "er"
      ],
      [
        "Ġw",
        "h"
      ],
      [
        "Ġ",
        "'"
      ],
      [
        "es",
        "t"
      ],
      [
        "Ġe",
        "x"
      ],
      [
        "p",
        "e"
      ],
      [
        "Ġ",
        "B"
      ],
      [
        "Ġd",
        "e"
      ],
      [
        "t",
        "er"
      ],
      [
        "t",
        "h"
      ],
      [
        "o",
        "re"
      ],
      [
        "Ġw",
        "as"
      ],
      [
        "l",
        "d"
      ],
      [
        "i",
        "v"
      ],
      [
        "a",
        "b"
      ],
      [
        "e",
        "re"
      ],
      [
        "k",
        "e"
      ],
      [
        "Ġ",
        "P"
      ],
      [
        "Ġc",
        "om"
      ],
      [
        "e",
        "m"
      ],
      [
        "a",
        "c"
      ],
      [
        "Ġ",
        "H"
      ],
      [
        "es",
        "s"
      ],
      [
        "re",
        "s"
      ],
      [
        "Ġ",
        "he"
      ],
      [
        "Ġs",
        "u"
      ],
      [
        "it",
        "y"
      ],
      [
        "a",
        "in"
      ],
      [
        "p",
        "t"
      ],
      [
        "ig",
        "h"
      ],
      [
        "a",
        "nd"
      ],
      [
        "ct",
        "ion"
      ],
      [
        "Ġa",
        "re"
      ],
      [
        "Ġb",
        "y"
      ],
      [
        "ĠĠĠĠ",
        "ĠĠĠ"
      ],
      [
        "o",
        "s"
      ],
      [
        "Ġs",
        "e"
      ],
      [
        "i",
        "es"
      ],
      [
        "p",
        "p"
      ],
      [
        "ro",
        "m"
      ],
      [
        "Ġ",
        "@"
      ],
      [
        "i",
        "ve"
      ],
      [
        "Ġa",
        "t"
      ],
      [
        "Ġ",
        "W"
      ],
      [
        "Ġ",
        "F"
      ],
      [
        "Ġc",
        "an"
      ],
      [
        "m",
        "ent"
      ],
      [
        "Ġ",
        "D"
      ],
      [
        "Ġ",
        "R"
      ],
      [
        "il",
        "l"
      ],
      [
        "al",
        "l"
      ],
      [
        "Ġc",
        "h"
      ],
      [
        "or",
        "t"
      ],
      [
        "'",
        "s"
      ],
      [
        "Ġ",
        "us"
      ],
      [
        "o",
        "c"
      ],
      [
        "an",
        "t"
      ],
      [
        "Ġ",
        "r"
      ],
      [
        "Ġn",
        "e"
      ],
      [
        "n",
        "t"
      ],
      [
        "Ġ",
        "E"
      ],
      [
        "Ġ",
        "["
      ],
      [
        "o",
        "p"
      ],
      [
        "i",
        "al"
      ],
      [
        "ou",
        "ld"
      ],
      [
        "p",
        "l"
      ],
      [
        "ar",
        "t"
      ],
      [
        "Ġf",
        "rom"
      ],
      [
        "Ġ",
        "L"
      ],
      [
        "igh",
        "t"
      ],
      [
        "am",
        "e"
      ],
      [
        "Ġ",
        "N"
      ],
      [
        "Ġin",
        "t"
      ],
      [
        "Ġs",
        "h"
      ],
      [
        "Ġ",
        "G"
      ],
      [
        "en",
        "d"
      ],
      [
        "u",
        "d"
      ],
      [
        "]",
        "]"
      ],
      [
        "u",
        "e"
      ],
      [
        "â",
        "Ģ"
      ],
      [
        "ic",
        "h"
      ],
      [
        "Ġw",
        "e"
      ],
      [
        "u",
        "re"
      ],
      [
        "g",
        "e"
      ],
      [
        "Ġn",
        "ot"
      ],
      [
        "Ġ",
        "le"
      ],
      [
        "e",
        "ct"
      ],
      [
        "p",
        "er"
      ],
      [
        "\"",
        ":"
      ],
      [
        "Ġh",
        "a"
      ],
      [
        "-",
        "@"
      ],
      [
        "Ġ@",
        "-@"
      ],
      [
        "Ġ",
        "\\"
      ],
      [
        "in",
        "e"
      ],
      [
        "Ġ",
        "u"
      ],
      [
        "b",
        "er"
      ],
      [
        "p",
        "le"
      ],
      [
        "ar",
        "d"
      ],
      [
        "r",
        "ou"
      ],
      [
        "el",
        "f"
      ],
      [
        "ou",
        "r"
      ],
      [
        "u",
        "st"
      ],
      [
        "in",
        "t"
      ],
      [
        "Ġp",
        "l"
      ],
      [
        "a",
        "ct"
      ],
      [
        "ou",
        "t"
      ],
      [
        "ic",
        "al"
      ],
      [
        "*",
        "*"
      ],
      [
        "Ġ",
        "O"
      ],
      [
        "i",
        "z"
      ],
      [
        "c",
        "l"
      ],
      [
        "Ġth",
        "is"
      ],
      [
        "Ġ",
        "J"
      ],
      [
        "ul",
        "t"
      ],
      [
        "ag",
        "e"
      ],
      [
        "Ġyou",
        "r"
      ],
      [
        "Ġ",
        "im"
      ],
      [
        "o",
        "g"
      ],
      [
        "Ġw",
        "or"
      ],
      [
        "a",
        "k"
      ],
      [
        "id",
        "e"
      ],
      [
        "ation",
        "s"
      ],
      [
        "as",
        "t"
      ],
      [
        "i",
        "e"
      ],
      [
        "g",
        "h"
      ],
      [
        "Ġ",
        "en"
      ],
      [
        "Ġwh",
        "ich"
      ],
      [
        "ion",
        "s"
      ],
      [
        "Ġha",
        "ve"
      ],
      [
        "Ġh",
        "is"
      ],
      [
        "as",
        "s"
      ],
      [
        "Ġ",
        "$"
      ],
      [
        "i",
        "p"
      ],
      [
        "t",
        "her"
      ],
      [
        "or",
        "m"
      ],
      [
        "a",
        "re"
      ],
      [
        "f",
        "f"
      ],
      [
        "el",
        "l"
      ],
      [
        "Ġa",
        "d"
      ],
      [
        "an",
        "ce"
      ],
      [
        "Ġ",
        "un"
      ],
      [
        "om",
        "e"
      ],
      [
        "e",
        "x"
      ],
      [
        "at",
        "ed"
      ],
      [
        "Ġw",
        "he"
      ],
      [
        "o",
        "st"
      ],
      [
        "Ġ",
        "-"
      ],
      [
        "ĠT",
        "h"
      ],
      [
        "Ġre",
        "s"
      ],
      [
        "Ġthe",
        "ir"
      ],
      [
        "ac",
        "k"
      ],
      [
        "en",
        "ce"
      ],
      [
        "in",
        "d"
      ],
      [
        "Ġa",
        "b"
      ],
      [
        "Ġ",
        "k"
      ],
      [
        "i",
        "re"
      ],
      [
        "c",
        "c"
      ],
      [
        "s",
        "o"
      ],
      [
        "Ġcon",
        "t"
      ],
      [
        "Ġ[",
        "["
      ],
      [
        "a",
        "ch"
      ],
      [
        "on",
        "g"
      ],
      [
        "ar",
        "y"
      ],
      [
        "Ġc",
        "l"
      ],
      [
        "Ġ",
        ")"
      ],
      [
        "Ġa",
        "r"
      ],
      [
        "Ġm",
        "ore"
      ],
      [
        "ab",
        "le"
      ],
      [
        "l",
        "ow"
      ],
      [
        "ĠI",
        "n"
      ],
      [
        "im",
        "e"
      ],
      [
        "an",
        "s"
      ],
      [
        "Ġm",
        "e"
      ],
      [
        "d",
        "u"
      ],
      [
        "T",
        "he"
      ],
      [
        "r",
        "it"
      ],
      [
        "ig",
        "n"
      ],
      [
        "i",
        "le"
      ],
      [
        "a",
        "p"
      ],
      [
        "a",
        "ke"
      ],
      [
        "i",
        "b"
      ],
      [
        "r",
        "y"
      ],
      [
        "r",
        "u"
      ],
      [
        "a",
        "v"
      ],
      [
        "ou",
        "s"
      ],
      [
        "an",
        "g"
      ],
      [
        "Ġ",
        "if"
      ],
      [
        "Ġal",
        "so"
      ],
      [
        "Ġ",
        "+"
      ],
      [
        "or",
        "y"
      ],
      [
        "ĠĠĠĠĠĠĠĠ",
        "ĠĠĠ"
      ],
      [
        "ur",
        "n"
      ],
      [
        "Ġb",
        "ut"
      ],
      [
        "Ġ",
        "U"
      ],
      [
        "\"",
        ","
      ],
      [
        "as",
        "e"
      ],
      [
        "o",
        "k"
      ],
      [
        "Ġn",
        "um"
      ],
      [
        "Ġcom",
        "p"
      ],
      [
        "on",
        "e"
      ],
      [
        "Ġo",
        "ut"
      ],
      [
        "or",
        "d"
      ],
      [
        "c",
        "on"
      ],
      [
        ".",
        "ă"
      ],
      [
        "un",
        "ction"
      ],
      [
        "ou",
        "nt"
      ],
      [
        "e",
        "p"
      ],
      [
        "Ġ",
        "j"
      ],
      [
        "e",
        "f"
      ],
      [
        "Ġf",
        "e"
      ],
      [
        "ic",
        "e"
      ],
      [
        "Ġw",
        "ere"
      ],
      [
        "Ġh",
        "as"
      ],
      [
        "f",
        "orm"
      ],
      [
        "ĠTh",
        "is"
      ],
      [
        "it",
        "ion"
      ],
      [
        "Ġs",
        "c"
      ],
      [
        "`",
        "`"
      ],
      [
        "c",
        "es"
      ],
      [
        "Ġ",
        "{"
      ],
      [
        "Ġ",
        "qu"
      ],
      [
        "res",
        "s"
      ],
      [
        "Ġp",
        "er"
      ],
      [
        "ent",
        "s"
      ],
      [
        "u",
        "b"
      ],
      [
        "el",
        "y"
      ],
      [
        "Ġon",
        "e"
      ],
      [
        "-",
        "-"
      ],
      [
        "Ġit",
        "s"
      ],
      [
        "Ġ",
        "K"
      ],
      [
        "v",
        "el"
      ],
      [
        "Ġ",
        "her"
      ],
      [
        "Ġd",
        "is"
      ],
      [
        "Ġc",
        "re"
      ],
      [
        "Ġthe",
        "y"
      ],
      [
        "i",
        "a"
      ],
      [
        "a",
        "ce"
      ],
      [
        "Ġe",
        "v"
      ],
      [
        "Ġd",
        "o"
      ],
      [
        "Ġo",
        "ther"
      ],
      [
        "n",
        "e"
      ],
      [
        "t",
        "y"
      ],
      [
        "Ġre",
        "t"
      ],
      [
        "Ġh",
        "ad"
      ],
      [
        "p",
        "ort"
      ],
      [
        "Ġ",
        "ro"
      ],
      [
        "p",
        "h"
      ],
      [
        "ĠS",
        "t"
      ],
      [
        "al",
        "ly"
      ],
      [
        "Ġt",
        "w"
      ],
      [
        "at",
        "a"
      ],
      [
        "c",
        "k"
      ],
      [
        "Ġm",
        "an"
      ],
      [
        "Ġ",
        "âĢ"
      ],
      [
        "ic",
        "t"
      ],
      [
        "ou",
        "nd"
      ],
      [
        "ir",
        "st"
      ],
      [
        "a",
        "il"
      ],
      [
        "Ġa",
        "pp"
      ],
      [
        "e",
        "ar"
      ],
      [
        "Ġf",
        "unction"
      ],
      [
        "en",
        "s"
      ],
      [
        "Ġs",
        "p"
      ],
      [
        "w",
        "e"
      ],
      [
        "Ġs",
        "elf"
      ],
      [
        "at",
        "h"
      ],
      [
        "Ġu",
        "p"
      ],
      [
        "ex",
        "t"
      ],
      [
        "Ġw",
        "ould"
      ],
      [
        "Ġwh",
        "o"
      ],
      [
        "Ġw",
        "ill"
      ],
      [
        "Ġp",
        "re"
      ],
      [
        "or",
        "s"
      ],
      [
        "Ġv",
        "al"
      ],
      [
        "Ġcon",
        "s"
      ],
      [
        "Ġs",
        "pe"
      ],
      [
        "cl",
        "ud"
      ],
      [
        "Ġl",
        "i"
      ],
      [
        "Ġt",
        "ra"
      ],
      [
        "at",
        "es"
      ],
      [
        "j",
        "ect"
      ],
      [
        "Ġb",
        "et"
      ],
      [
        "Ġint",
        "o"
      ],
      [
        "is",
        "h"
      ],
      [
        "Ġal",
        "l"
      ],
      [
        "Ġp",
        "art"
      ],
      [
        "re",
        "e"
      ],
      [
        "at",
        "er"
      ],
      [
        "i",
        "an"
      ],
      [
        "Ġc",
        "ould"
      ],
      [
        "Ġg",
        "o"
      ],
      [
        "at",
        "ing"
      ],
      [
        ")",
        ":"
      ],
      [
        "Ġt",
        "ime"
      ],
      [
        "ow",
        "n"
      ],
      [
        "Ġe",
        "m"
      ],
      [
        "nd",
        "er"
      ],
      [
        "o",
        "int"
      ],
      [
        "Ġp",
        "r"
      ],
      [
        "Ġt",
        "r"
      ],
      [
        "k",
        "s"
      ],
      [
        "Ġ",
        "V"
      ],
      [
        "Ġd",
        "es"
      ],
      [
        "Ġcom",
        "m"
      ],
      [
        "if",
        "ic"
      ],
      [
        "Ġab",
        "out"
      ],
      [
        "Ġfor",
        "m"
      ],
      [
        "Ġt",
        "e"
      ],
      [
        "Ġo",
        "ver"
      ],
      [
        "ri",
        "b"
      ],
      [
        "f",
        "ere"
      ],
      [
        "pt",
        "ion"
      ],
      [
        "Ġtw",
        "o"
      ],
      [
        "ar",
        "g"
      ],
      [
        "Ġthe",
        "m"
      ],
      [
        "od",
        "e"
      ],
      [
        "Ġret",
        "urn"
      ],
      [
        "'",
        "'"
      ],
      [
        "Ġre",
        "l"
      ],
      [
        "Ġne",
        "w"
      ],
      [
        "Ġsu",
        "ch"
      ],
      [
        "l",
        "l"
      ],
      [
        "Ġf",
        "irst"
      ],
      [
        "o",
        "se"
      ],
      [
        "Ġ",
        "ra"
      ],
      [
        "o",
        "ok"
      ],
      [
        "Ġde",
        "f"
      ],
      [
        "Ġ",
        "Y"
      ],
      [
        "er",
        "m"
      ],
      [
        "Ġs",
        "ome"
      ],
      [
        "ar",
        "i"
      ],
      [
        "Ġ",
        "`"
      ],
      [
        "o",
        "v"
      ],
      [
        "y",
        "s"
      ],
      [
        "#",
        "#"
      ],
      [
        "o",
        "b"
      ],
      [
        "f",
        "t"
      ],
      [
        "Ġa",
        "cc"
      ],
      [
        "Ġin",
        "clud"
      ],
      [
        "l",
        "es"
      ],
      [
        "ĠC",
        "h"
      ],
      [
        "o",
        "ve"
      ],
      [
        "ĠI",
        "t"
      ],
      [
        "f",
        "ter"
      ],
      [
        "p",
        "ut"
      ],
      [
        "er",
        "t"
      ],
      [
        "Ġin",
        "d"
      ],
      [
        "Ġre",
        "c"
      ],
      [
        "ar",
        "k"
      ],
      [
        "r",
        "ing"
      ],
      [
        "ou",
        "gh"
      ],
      [
        "Ġs",
        "o"
      ],
      [
        "it",
        "e"
      ],
      [
        ")",
        ","
      ],
      [
        "Ġs",
        "er"
      ],
      [
        "w",
        "n"
      ],
      [
        "we",
        "en"
      ],
      [
        "Ġs",
        "et"
      ],
      [
        "Ġ",
        "<"
      ],
      [
        "Ġu",
        "nder"
      ],
      [
        "Ġp",
        "os"
      ],
      [
        "Ġbe",
        "en"
      ],
      [
        "Ġch",
        "ar"
      ],
      [
        "e",
        "g"
      ],
      [
        "Ġc",
        "ol"
      ],
      [
        "Ġbe",
        "c"
      ],
      [
        "Ġnum",
        "ber"
      ],
      [
        "Ġbet",
        "ween"
      ],
      [
        "at",
        "ive"
      ],
      [
        "y",
        "st"
      ],
      [
        "ol",
        "low"
      ],
      [
        "ic",
        "s"
      ],
      [
        "Ġwor",
        "k"
      ],
      [
        "is",
        "e"
      ],
      [
        "s",
        "elf"
      ],
      [
        "u",
        "al"
      ],
      [
        "he",
        "d"
      ],
      [
        "}",
        "}"
      ],
      [
        "Ġad",
        "d"
      ],
      [
        "Ġli",
        "ke"
      ],
      [
        "Ġpro",
        "v"
      ],
      [
        "on",
        "s"
      ],
      [
        "Ġm",
        "ake"
      ],
      [
        "Ġwhe",
        "re"
      ],
      [
        "c",
        "re"
      ],
      [
        "Ġd",
        "if"
      ],
      [
        "Ġd",
        "ata"
      ],
      [
        "o",
        "ol"
      ],
      [
        "il",
        "d"
      ],
      [
        "t",
        "e"
      ],
      [
        "(",
        ")"
      ],
      [
        "Ġa",
        "g"
      ],
      [
        "[",
        "["
      ],
      [
        "Ġof",
        "f"
      ],
      [
        "ay",
        "s"
      ],
      [
        "Ġwhe",
        "n"
      ],
      [
        "n",
        "ame"
      ],
      [
        "rou",
        "gh"
      ],
      [
        "Ġ",
        "**"
      ],
      [
        "Ġin",
        "ter"
      ],
      [
        "Ġhe",
        "l"
      ],
      [
        "it",
        "ies"
      ],
      [
        "Ġk",
        "n"
      ],
      [
        "Ġne",
        "ed"
      ],
      [
        "Ġspe",
        "c"
      ],
      [
        "c",
        "ed"
      ],
      [
        "ing",
        "s"
      ],
      [
        "ă",
        "Ă"
      ],
      [
        "ol",
        "d"
      ],
      [
        "Ġf",
        "ollow"
      ],
      [
        "Ġat",
        "t"
      ],
      [
        "as",
        "ed"
      ],
      [
        "Ġthe",
        "re"
      ],
      [
        "Ġ",
        "x"
      ],
      [
        "Ġs",
        "he"
      ],
      [
        "Ġth",
        "an"
      ],
      [
        "=",
        "="
      ],
      [
        "Ġas",
        "s"
      ],
      [
        "Ġan",
        "y"
      ],
      [
        "il",
        "ity"
      ],
      [
        "Ġhel",
        "p"
      ],
      [
        "id",
        "er"
      ],
      [
        "Ġim",
        "p"
      ],
      [
        "n",
        "g"
      ],
      [
        "v",
        "al"
      ],
      [
        "u",
        "es"
      ],
      [
        "ment",
        "s"
      ],
      [
        "Ġp",
        "oint"
      ],
      [
        "et",
        "h"
      ],
      [
        "Ġthe",
        "se"
      ],
      [
        "Ġa",
        "m"
      ],
      [
        "a",
        "us"
      ],
      [
        "iz",
        "e"
      ],
      [
        "Ġo",
        "b"
      ],
      [
        "pe",
        "ct"
      ],
      [
        "Ġc",
        "o"
      ],
      [
        "en",
        "er"
      ],
      [
        "Ġchar",
        "act"
      ],
      [
        "Ġy",
        "ear"
      ],
      [
        "ot",
        "h"
      ],
      [
        "Ą",
        "ā"
      ],
      [
        "h",
        "ip"
      ],
      [
        "Ġm",
        "od"
      ],
      [
        "Ġus",
        "e"
      ],
      [
        "h",
        "at"
      ],
      [
        "Ġus",
        "ed"
      ],
      [
        "Ġ",
        "ke"
      ],
      [
        "o",
        "od"
      ],
      [
        "I",
        "n"
      ],
      [
        "c",
        "ess"
      ],
      [
        "Ġe",
        "le"
      ],
      [
        "Ġsu",
        "b"
      ],
      [
        "ul",
        "ar"
      ],
      [
        "Ġ",
        ":"
      ],
      [
        "ur",
        "ing"
      ],
      [
        "'",
        ","
      ],
      [
        "ĠĠĠĠĠĠĠĠ",
        "ĠĠĠĠĠĠĠĠ"
      ],
      [
        "i",
        "ent"
      ],
      [
        ".",
        "."
      ],
      [
        "Ġe",
        "ach"
      ],
      [
        "Ġh",
        "ow"
      ],
      [
        "o",
        "y"
      ],
      [
        "Ġre",
        "m"
      ],
      [
        "g",
        "et"
      ],
      [
        "ic",
        "k"
      ],
      [
        "i",
        "ed"
      ],
      [
        "am",
        "ple"
      ],
      [
        "an",
        "ge"
      ],
      [
        "Ġl",
        "ist"
      ],
      [
        "ĠH",
        "e"
      ],
      [
        "Ġm",
        "y"
      ],
      [
        "Ġc",
        "all"
      ],
      [
        "Ġpro",
        "du"
      ],
      [
        "rou",
        "nd"
      ],
      [
        "ent",
        "ial"
      ],
      [
        "a",
        "x"
      ],
      [
        "am",
        "p"
      ],
      [
        "Ġv",
        "ari"
      ],
      [
        "Ġ",
        "#"
      ],
      [
        "Ġe",
        "ff"
      ],
      [
        "yst",
        "em"
      ],
      [
        "Ġex",
        "per"
      ],
      [
        "n",
        "ing"
      ],
      [
        "ro",
        "w"
      ],
      [
        "ĠâĢ",
        "ĵ"
      ],
      [
        "Ġin",
        "v"
      ],
      [
        "on",
        "d"
      ],
      [
        ")",
        "."
      ],
      [
        "Ġus",
        "ing"
      ],
      [
        "re",
        "d"
      ],
      [
        "he",
        "s"
      ],
      [
        "c",
        "ri"
      ],
      [
        "in",
        "k"
      ],
      [
        "Ġp",
        "e"
      ],
      [
        "e",
        "ver"
      ],
      [
        "w",
        "ard"
      ],
      [
        "Ġn",
        "o"
      ],
      [
        "al",
        "s"
      ],
      [
        "Ġdif",
        "fere"
      ],
      [
        "r",
        "am"
      ],
      [
        "Ġd",
        "ist"
      ],
      [
        "l",
        "ic"
      ],
      [
        "Ġm",
        "ay"
      ],
      [
        "Ġs",
        "a"
      ],
      [
        "ib",
        "le"
      ],
      [
        "Ġp",
        "ers"
      ],
      [
        "Ġth",
        "rough"
      ],
      [
        "Ġre",
        "g"
      ],
      [
        "f",
        "ul"
      ],
      [
        "Ġe",
        "qu"
      ],
      [
        "Ġa",
        "fter"
      ],
      [
        "it",
        "s"
      ],
      [
        "ter",
        "n"
      ],
      [
        "Ġh",
        "im"
      ],
      [
        "Ġcom",
        "ple"
      ],
      [
        "ut",
        "ion"
      ],
      [
        "``",
        "`"
      ],
      [
        "Ġon",
        "ly"
      ],
      [
        "c",
        "om"
      ],
      [
        "ere",
        "d"
      ],
      [
        "he",
        "n"
      ],
      [
        "Ġm",
        "at"
      ],
      [
        "i",
        "el"
      ],
      [
        "r",
        "ic"
      ],
      [
        "iv",
        "en"
      ],
      [
        "ak",
        "ing"
      ],
      [
        "b",
        "le"
      ],
      [
        "Ġf",
        "l"
      ],
      [
        "f",
        "ore"
      ],
      [
        "ie",
        "w"
      ],
      [
        "ad",
        "e"
      ],
      [
        "i",
        "x"
      ],
      [
        "Ġa",
        "ct"
      ],
      [
        "Ġp",
        "h"
      ],
      [
        "t",
        "en"
      ],
      [
        "Ġex",
        "p"
      ],
      [
        "Ġst",
        "ud"
      ],
      [
        "u",
        "res"
      ],
      [
        "Ġpl",
        "ay"
      ],
      [
        "Ġf",
        "ind"
      ],
      [
        "oc",
        "k"
      ],
      [
        "vel",
        "op"
      ],
      [
        "b",
        "ers"
      ],
      [
        "Ġd",
        "et"
      ],
      [
        "in",
        "al"
      ],
      [
        "**",
        ":"
      ],
      [
        "Ġwh",
        "ile"
      ],
      [
        "Ġtr",
        "ans"
      ],
      [
        "ol",
        "og"
      ],
      [
        "is",
        "s"
      ],
      [
        "ar",
        "s"
      ],
      [
        "Ġm",
        "ost"
      ],
      [
        "ra",
        "c"
      ],
      [
        "Ġst",
        "r"
      ],
      [
        "it",
        "ed"
      ],
      [
        "Ġex",
        "pl"
      ],
      [
        "Ġwh",
        "at"
      ],
      [
        "Ġ",
        "/"
      ],
      [
        "Ġw",
        "rit"
      ],
      [
        "Ġg",
        "et"
      ],
      [
        "il",
        "y"
      ],
      [
        "re",
        "at"
      ],
      [
        "ĠĠĠĠ",
        "Ġ"
      ],
      [
        "Ġs",
        "im"
      ],
      [
        "Ġo",
        "ur"
      ],
      [
        "id",
        "ent"
      ],
      [
        "v",
        "ed"
      ],
      [
        "ar",
        "ch"
      ],
      [
        "?",
        "ăĂ"
      ],
      [
        "en",
        "g"
      ],
      [
        "er",
        "y"
      ],
      [
        "Ġb",
        "u"
      ],
      [
        "Ġthe",
        "n"
      ],
      [
        "i",
        "ence"
      ],
      [
        "pp",
        "ort"
      ],
      [
        "Ġs",
        "m"
      ],
      [
        "m",
        "er"
      ],
      [
        "l",
        "and"
      ],
      [
        "ty",
        "pe"
      ],
      [
        "Ġres",
        "ult"
      ],
      [
        "ow",
        "er"
      ],
      [
        "y",
        "th"
      ],
      [
        "rou",
        "p"
      ],
      [
        "i",
        "ous"
      ],
      [
        "Ġb",
        "l"
      ],
      [
        "ra",
        "ct"
      ],
      [
        "Ġc",
        "or"
      ],
      [
        "ction",
        "s"
      ],
      [
        "Ġp",
        "ar"
      ],
      [
        "iel",
        "d"
      ],
      [
        "g",
        "g"
      ],
      [
        "Ġw",
        "ell"
      ],
      [
        "res",
        "ent"
      ],
      [
        "t",
        "ing"
      ],
      [
        "Ġin",
        "st"
      ],
      [
        "Ġs",
        "ign"
      ],
      [
        "e",
        "w"
      ],
      [
        "is",
        "ion"
      ],
      [
        "Ġ",
        "&"
      ],
      [
        "--",
        "--"
      ],
      [
        "Ġapp",
        "ro"
      ],
      [
        "ce",
        "pt"
      ],
      [
        "ot",
        "her"
      ],
      [
        "Ġre",
        "qu"
      ],
      [
        "Ġl",
        "oc"
      ],
      [
        "ation",
        "al"
      ],
      [
        "con",
        "d"
      ],
      [
        "Ġt",
        "y"
      ],
      [
        "Ġcre",
        "ate"
      ],
      [
        "p",
        "r"
      ],
      [
        "ĠA",
        "s"
      ],
      [
        "Ġs",
        "ystem"
      ],
      [
        "p",
        "ar"
      ],
      [
        "Ġ",
        "ent"
      ],
      [
        "Ġ",
        ";"
      ],
      [
        "if",
        "y"
      ],
      [
        "Ġde",
        "velop"
      ],
      [
        "qu",
        "ot"
      ],
      [
        "g",
        "an"
      ],
      [
        "v",
        "ing"
      ],
      [
        "ire",
        "d"
      ],
      [
        "if",
        "e"
      ],
      [
        "Ġm",
        "ain"
      ],
      [
        "ĠH",
        "ow"
      ],
      [
        "Ġsh",
        "ould"
      ],
      [
        "Ġst",
        "art"
      ],
      [
        "Ġh",
        "igh"
      ],
      [
        "t",
        "s"
      ],
      [
        "âĢ",
        "Ļ"
      ],
      [
        "Ġs",
        "ol"
      ],
      [
        "f",
        "l"
      ],
      [
        "ru",
        "ct"
      ],
      [
        "Ġg",
        "ener"
      ],
      [
        "ĠS",
        "e"
      ],
      [
        "Ġde",
        "c"
      ],
      [
        "Ġcons",
        "ider"
      ],
      [
        "ĠĠĠĠĠĠĠĠ",
        "ĠĠĠĠĠĠĠ"
      ],
      [
        "{",
        "\""
      ],
      [
        "r",
        "on"
      ],
      [
        "Ġval",
        "ue"
      ],
      [
        "a",
        "w"
      ],
      [
        "in",
        "ce"
      ],
      [
        "Ġc",
        "ur"
      ],
      [
        "Ġcharact",
        "er"
      ],
      [
        "_",
        "_"
      ],
      [
        "ĠU",
        "n"
      ],
      [
        "op",
        "le"
      ],
      [
        "Ġp",
        "ol"
      ],
      [
        "en",
        "se"
      ],
      [
        "f",
        "rac"
      ],
      [
        "Ġre",
        "v"
      ],
      [
        ".",
        "\""
      ],
      [
        "Ġle",
        "ad"
      ],
      [
        "Ġf",
        "il"
      ],
      [
        "cri",
        "ption"
      ],
      [
        "an",
        "y"
      ],
      [
        "re",
        "n"
      ],
      [
        "Ġb",
        "oth"
      ],
      [
        "at",
        "her"
      ],
      [
        ".ă",
        "Ă"
      ],
      [
        "}",
        "{"
      ],
      [
        "er",
        "n"
      ],
      [
        "in",
        "es"
      ],
      [
        "ĠI",
        "f"
      ],
      [
        "at",
        "ure"
      ],
      [
        "aus",
        "e"
      ],
      [
        "Ġs",
        "ur"
      ],
      [
        "Ġb",
        "ack"
      ],
      [
        "Ġex",
        "ample"
      ],
      [
        "Ġ",
        "end"
      ],
      [
        "ĠA",
        "l"
      ],
      [
        "Ġin",
        "s"
      ],
      [
        "Ġdis",
        "c"
      ],
      [
        "(",
        "\""
      ],
      [
        "Ġg",
        "iven"
      ],
      [
        "le",
        "ct"
      ],
      [
        "d",
        "es"
      ],
      [
        "u",
        "p"
      ],
      [
        "Ġre",
        "f"
      ],
      [
        "Ġre",
        "p"
      ],
      [
        "Ġm",
        "ight"
      ],
      [
        "Ġbe",
        "ing"
      ],
      [
        "\":",
        "\""
      ],
      [
        "im",
        "es"
      ],
      [
        "Ġman",
        "y"
      ],
      [
        "Ġpers",
        "on"
      ],
      [
        "Ġwor",
        "ld"
      ],
      [
        "Ġqu",
        "est"
      ],
      [
        "Ġa",
        "c"
      ],
      [
        "in",
        "s"
      ],
      [
        "en",
        "c"
      ],
      [
        "or",
        "k"
      ],
      [
        "Ġcl",
        "ass"
      ],
      [
        "c",
        "ul"
      ],
      [
        "Ġfollow",
        "ing"
      ],
      [
        "Ġ{",
        "\""
      ],
      [
        "ĠF",
        "or"
      ],
      [
        "Ġc",
        "ent"
      ],
      [
        "Ġm",
        "in"
      ],
      [
        "Ġre",
        "ad"
      ],
      [
        "e",
        "c"
      ],
      [
        ")",
        ")"
      ],
      [
        "Ġm",
        "em"
      ],
      [
        "Ġdiffere",
        "nt"
      ],
      [
        "Ġar",
        "t"
      ],
      [
        "Ġ",
        "|"
      ],
      [
        "<",
        "/"
      ],
      [
        "at",
        "t"
      ],
      [
        "el",
        "s"
      ],
      [
        "Ġw",
        "ay"
      ],
      [
        "t",
        "t"
      ],
      [
        "ro",
        "s"
      ],
      [
        "ra",
        "ph"
      ],
      [
        "d",
        "ef"
      ],
      [
        ".ă",
        "Ąā"
      ],
      [
        "l",
        "ed"
      ],
      [
        "i",
        "qu"
      ],
      [
        "Ġde",
        "p"
      ],
      [
        "Ġo",
        "wn"
      ],
      [
        "Ġe",
        "ar"
      ],
      [
        "Ġs",
        "ent"
      ],
      [
        "st",
        "and"
      ],
      [
        "n",
        "er"
      ],
      [
        "n",
        "ess"
      ],
      [
        "as",
        "on"
      ],
      [
        "eth",
        "od"
      ],
      [
        "Ġpe",
        "ople"
      ],
      [
        "yth",
        "on"
      ],
      [
        "Ġim",
        "port"
      ],
      [
        "Ġa",
        "p"
      ],
      [
        "Ġth",
        "ree"
      ],
      [
        "Ġse",
        "cond"
      ],
      [
        "Ġpos",
        "s"
      ],
      [
        ".ă",
        "ā"
      ],
      [
        "Ġl",
        "ong"
      ],
      [
        "Ġag",
        "ain"
      ],
      [
        "d",
        "er"
      ],
      [
        "r",
        "or"
      ],
      [
        "i",
        "er"
      ],
      [
        "Ġre",
        "al"
      ],
      [
        "Ġsh",
        "ow"
      ],
      [
        "]]",
        ","
      ],
      [
        "Ġ",
        "*"
      ],
      [
        "m",
        "s"
      ],
      [
        "Ġp",
        "ass"
      ],
      [
        "Ġke",
        "y"
      ],
      [
        "i",
        "o"
      ],
      [
        "c",
        "ial"
      ],
      [
        "Ġe",
        "l"
      ],
      [
        "Ġpro",
        "g"
      ],
      [
        "he",
        "m"
      ],
      [
        "Ġkn",
        "ow"
      ],
      [
        "n",
        "ce"
      ],
      [
        "Ġex",
        "t"
      ],
      [
        "um",
        "ent"
      ],
      [
        "Ġg",
        "roup"
      ],
      [
        "ĠW",
        "e"
      ],
      [
        "a",
        "ir"
      ],
      [
        "ic",
        "es"
      ],
      [
        "Ġcon",
        "c"
      ],
      [
        "'",
        "t"
      ],
      [
        "v",
        "es"
      ],
      [
        ".",
        "@"
      ],
      [
        "Ġd",
        "uring"
      ],
      [
        "Ġeff",
        "ect"
      ],
      [
        "Ġj",
        "ust"
      ],
      [
        "Ġ@",
        ".@"
      ],
      [
        "Ġev",
        "en"
      ],
      [
        "en",
        "ces"
      ],
      [
        "Ġt",
        "ext"
      ],
      [
        "ub",
        "lic"
      ],
      [
        "Ġd",
        "ire"
      ],
      [
        "Ġse",
        "e"
      ],
      [
        "Ġg",
        "u"
      ],
      [
        "Ġinclud",
        "ing"
      ],
      [
        "ab",
        "ility"
      ],
      [
        "Ġan",
        "al"
      ],
      [
        "Ġh",
        "and"
      ],
      [
        "Ġin",
        "form"
      ],
      [
        "in",
        "ed"
      ],
      [
        "Ġ",
        "ide"
      ],
      [
        "r",
        "al"
      ],
      [
        "Ġm",
        "ade"
      ],
      [
        "ra",
        "y"
      ],
      [
        "o",
        "x"
      ],
      [
        "re",
        "ad"
      ],
      [
        "Ġres",
        "p"
      ],
      [
        "iz",
        "ed"
      ],
      [
        "ver",
        "y"
      ],
      [
        "ĠY",
        "ou"
      ],
      [
        "T",
        "h"
      ],
      [
        "'",
        "re"
      ],
      [
        "v",
        "ers"
      ],
      [
        "u",
        "g"
      ],
      [
        "Ġ",
        "ed"
      ],
      [
        "ch",
        "n"
      ],
      [
        "Ġpl",
        "an"
      ],
      [
        "Ġl",
        "ine"
      ],
      [
        "Ġst",
        "ate"
      ],
      [
        "iv",
        "es"
      ],
      [
        "ĠA",
        "r"
      ],
      [
        "Ġo",
        "p"
      ],
      [
        "rib",
        "ut"
      ],
      [
        "Ġf",
        "act"
      ],
      [
        "am",
        "et"
      ],
      [
        "Ġs",
        "um"
      ],
      [
        "l",
        "t"
      ],
      [
        "Ġw",
        "ant"
      ],
      [
        "Ġbe",
        "fore"
      ],
      [
        "an",
        "k"
      ],
      [
        "Ġf",
        "ound"
      ],
      [
        "des",
        "cription"
      ],
      [
        "ion",
        "al"
      ],
      [
        "iv",
        "ely"
      ],
      [
        "w",
        "ay"
      ],
      [
        "ical",
        "ly"
      ],
      [
        "Ġyear",
        "s"
      ],
      [
        "Ġen",
        "g"
      ],
      [
        "Ġt",
        "est"
      ],
      [
        "y",
        "m"
      ],
      [
        "Ġm",
        "on"
      ],
      [
        "T",
        "o"
      ],
      [
        ",",
        "@"
      ],
      [
        "Ġ@",
        ",@"
      ],
      [
        "Ġper",
        "form"
      ],
      [
        "am",
        "es"
      ],
      [
        "Ġs",
        "ame"
      ],
      [
        "'",
        ":"
      ],
      [
        "Ġcon",
        "st"
      ],
      [
        "ĠA",
        "n"
      ],
      [
        "y",
        "n"
      ],
      [
        "Ġal",
        "low"
      ],
      [
        "}",
        ","
      ],
      [
        "Ġt",
        "erm"
      ],
      [
        "re",
        "nt"
      ],
      [
        "Ġin",
        "cre"
      ],
      [
        "Ġst",
        "ory"
      ],
      [
        "Â",
        "ł"
      ],
      [
        "Ġm",
        "ed"
      ],
      [
        "\",",
        "\""
      ],
      [
        "Ġd",
        "ay"
      ],
      [
        "ate",
        "g"
      ],
      [
        "ur",
        "al"
      ],
      [
        "al",
        "e"
      ],
      [
        "d",
        "ition"
      ],
      [
        "Ġdo",
        "es"
      ],
      [
        "Ġc",
        "ount"
      ],
      [
        "Ġsu",
        "pport"
      ],
      [
        "al",
        "cul"
      ],
      [
        "Ġd",
        "iv"
      ],
      [
        "Ġint",
        "eg"
      ],
      [
        "st",
        "r"
      ],
      [
        "t",
        "ed"
      ],
      [
        "ĠC",
        "om"
      ],
      [
        "as",
        "es"
      ],
      [
        "Ġrel",
        "ations"
      ],
      [
        "a",
        "ve"
      ],
      [
        "d",
        "e"
      ],
      [
        "t",
        "o"
      ],
      [
        "id",
        "es"
      ],
      [
        "Ġt",
        "ri"
      ],
      [
        "Ġte",
        "am"
      ],
      [
        "Ġpro",
        "cess"
      ],
      [
        "as",
        "h"
      ],
      [
        "Ġsm",
        "all"
      ],
      [
        "Ġpart",
        "ic"
      ],
      [
        "Ġunder",
        "stand"
      ],
      [
        "Ġcont",
        "in"
      ],
      [
        "o",
        "h"
      ],
      [
        "Ġm",
        "ethod"
      ],
      [
        "Ġsa",
        "id"
      ],
      [
        "a",
        "u"
      ],
      [
        "Ġv",
        "is"
      ],
      [
        "Ġad",
        "v"
      ],
      [
        "p",
        "ro"
      ],
      [
        "et",
        "s"
      ],
      [
        "ou",
        "n"
      ],
      [
        "is",
        "m"
      ],
      [
        "s",
        "w"
      ],
      [
        "l",
        "ine"
      ],
      [
        "ĠC",
        "on"
      ],
      [
        "Ġcomm",
        "un"
      ],
      [
        "Ġre",
        "le"
      ],
      [
        "a",
        "pt"
      ],
      [
        "Ġ",
        "est"
      ],
      [
        "Ġt",
        "ake"
      ],
      [
        "at",
        "or"
      ],
      [
        "ist",
        "s"
      ],
      [
        "u",
        "nd"
      ],
      [
        "are",
        "d"
      ],
      [
        "Ġb",
        "el"
      ],
      [
        "Ġor",
        "ig"
      ],
      [
        "Ġp",
        "ot"
      ],
      [
        "Ġn",
        "ame"
      ],
      [
        "Ġa",
        "ut"
      ],
      [
        "Ġcon",
        "f"
      ],
      [
        "Ġth",
        "ough"
      ],
      [
        "Y",
        "ou"
      ],
      [
        "Ġte",
        "chn"
      ],
      [
        "v",
        "en"
      ],
      [
        "Ġg",
        "ame"
      ],
      [
        "Ġf",
        "am"
      ],
      [
        "Ġcomple",
        "x"
      ],
      [
        "Ġm",
        "us"
      ],
      [
        "er",
        "g"
      ],
      [
        "ul",
        "l"
      ],
      [
        "s",
        "er"
      ],
      [
        "ag",
        "es"
      ],
      [
        "Ġin",
        "put"
      ],
      [
        "Ġd",
        "own"
      ],
      [
        "Ġl",
        "ife"
      ],
      [
        "us",
        "s"
      ],
      [
        "it",
        "ive"
      ],
      [
        "m",
        "an"
      ],
      [
        "Ġp",
        "op"
      ],
      [
        "\"",
        "\""
      ],
      [
        "Ġrelations",
        "hip"
      ],
      [
        "Ġwor",
        "d"
      ],
      [
        "a",
        "pp"
      ],
      [
        "he",
        "ck"
      ],
      [
        "Ġap",
        "pe"
      ],
      [
        "t",
        "ool"
      ],
      [
        "Ġdes",
        "ign"
      ],
      [
        "mer",
        "ic"
      ],
      [
        "Ġprov",
        "ide"
      ],
      [
        "Ġm",
        "ult"
      ],
      [
        "ĠHow",
        "ever"
      ],
      [
        "ĠS",
        "h"
      ],
      [
        "x",
        "t"
      ],
      [
        "r",
        "ight"
      ],
      [
        "Ġin",
        "c"
      ],
      [
        "ĠD",
        "e"
      ],
      [
        "ak",
        "es"
      ],
      [
        "t",
        "he"
      ],
      [
        "ĠN",
        "ew"
      ],
      [
        "Ġpr",
        "int"
      ],
      [
        "Ġ",
        "ident"
      ],
      [
        "Ġs",
        "oc"
      ],
      [
        "a",
        "ult"
      ],
      [
        "Ġpro",
        "ble"
      ],
      [
        "Ġo",
        "per"
      ],
      [
        "at",
        "ely"
      ],
      [
        "ros",
        "s"
      ],
      [
        "Ġp",
        "ower"
      ],
      [
        "t",
        "on"
      ],
      [
        "ĠB",
        "y"
      ],
      [
        "t",
        "ain"
      ],
      [
        "is",
        "hed"
      ],
      [
        "Ġth",
        "ink"
      ],
      [
        "s",
        "on"
      ],
      [
        "ir",
        "c"
      ],
      [
        "ight",
        "s"
      ],
      [
        "Ġh",
        "ist"
      ],
      [
        "o",
        "ver"
      ],
      [
        "(",
        "'"
      ],
      [
        "b",
        "s"
      ],
      [
        "ĠR",
        "e"
      ],
      [
        "Ġm",
        "et"
      ],
      [
        "oc",
        "us"
      ],
      [
        "l",
        "i"
      ],
      [
        "ere",
        "st"
      ],
      [
        "}",
        "$"
      ],
      [
        "_",
        "{"
      ],
      [
        "Ġval",
        "ues"
      ],
      [
        "Ġto",
        "p"
      ],
      [
        "Ġme",
        "an"
      ],
      [
        "Ġp",
        "ur"
      ],
      [
        "Ġs",
        "k"
      ],
      [
        "id",
        "ed"
      ],
      [
        "al",
        "ity"
      ],
      [
        "Ġf",
        "in"
      ],
      [
        "Ġc",
        "le"
      ],
      [
        "t",
        "ext"
      ],
      [
        "ĠA",
        "meric"
      ],
      [
        "u",
        "ally"
      ],
      [
        "Ġpot",
        "ential"
      ],
      [
        "Ġ",
        "ess"
      ],
      [
        "Ġnum",
        "bers"
      ],
      [
        "u",
        "ch"
      ],
      [
        "Ġp",
        "at"
      ],
      [
        "cc",
        "ess"
      ],
      [
        "Ġb",
        "re"
      ],
      [
        "Ġc",
        "ar"
      ],
      [
        "ang",
        "u"
      ],
      [
        "Ġar",
        "g"
      ],
      [
        "Ġob",
        "ject"
      ],
      [
        "t",
        "al"
      ],
      [
        "Ġl",
        "ook"
      ],
      [
        "Ġspec",
        "ific"
      ],
      [
        "Ġ",
        "}"
      ],
      [
        "Ġs",
        "ing"
      ],
      [
        "Ġ",
        "er"
      ],
      [
        "Ġser",
        "ies"
      ],
      [
        "c",
        "rib"
      ],
      [
        "om",
        "et"
      ],
      [
        "Ġbec",
        "ause"
      ],
      [
        "or",
        "th"
      ],
      [
        "Ġ\\",
        "("
      ],
      [
        "H",
        "ow"
      ],
      [
        "Ġsign",
        "ific"
      ],
      [
        "Ġ",
        "i"
      ],
      [
        "Ġrem",
        "ain"
      ],
      [
        "Ġh",
        "um"
      ],
      [
        "l",
        "ing"
      ],
      [
        "\"",
        ")"
      ],
      [
        "ou",
        "se"
      ],
      [
        "ant",
        "s"
      ],
      [
        "at",
        "ic"
      ],
      [
        "n",
        "um"
      ],
      [
        "ĠO",
        "n"
      ],
      [
        "m",
        "on"
      ],
      [
        "ir",
        "d"
      ],
      [
        "Ġc",
        "ode"
      ],
      [
        "Ġof",
        "ten"
      ],
      [
        "olog",
        "y"
      ],
      [
        "Ġquest",
        "ion"
      ],
      [
        "Ġop",
        "en"
      ],
      [
        "i",
        "et"
      ],
      [
        "g",
        "t"
      ],
      [
        "ar",
        "r"
      ],
      [
        "Ġ=",
        "="
      ],
      [
        "Ġg",
        "ra"
      ],
      [
        "is",
        "ed"
      ],
      [
        "Ġm",
        "ark"
      ],
      [
        "##",
        "##"
      ],
      [
        "u",
        "c"
      ],
      [
        "o",
        "ot"
      ],
      [
        "Ġa",
        "v"
      ],
      [
        "Ġ'",
        "'"
      ],
      [
        "gg",
        "est"
      ],
      [
        "iv",
        "ers"
      ],
      [
        "Ġdire",
        "ct"
      ],
      [
        "in",
        "ing"
      ],
      [
        "Ġa",
        "round"
      ],
      [
        "Ġd",
        "id"
      ],
      [
        "Ġr",
        "un"
      ],
      [
        "Ġprodu",
        "ct"
      ],
      [
        "\":",
        "{\""
      ],
      [
        "an",
        "c"
      ],
      [
        "Ġwith",
        "out"
      ],
      [
        "Ġf",
        "ocus"
      ],
      [
        "Ġprog",
        "ram"
      ],
      [
        "W",
        "hat"
      ],
      [
        "Ġl",
        "ater"
      ],
      [
        "Ġsu",
        "ggest"
      ],
      [
        "S",
        "t"
      ],
      [
        "Ġp",
        "ri"
      ],
      [
        "Ġinform",
        "ation"
      ],
      [
        "a",
        "h"
      ],
      [
        "Ġbu",
        "ild"
      ],
      [
        "Ġfe",
        "el"
      ],
      [
        "Ġint",
        "erest"
      ],
      [
        "Ġst",
        "ring"
      ],
      [
        "l",
        "ish"
      ],
      [
        "Ġc",
        "are"
      ],
      [
        "Ġimp",
        "ro"
      ],
      [
        "v",
        "ent"
      ],
      [
        "Ġf",
        "our"
      ],
      [
        "iqu",
        "e"
      ],
      [
        "Ġcor",
        "re"
      ],
      [
        "ĠP",
        "ro"
      ],
      [
        "ou",
        "th"
      ],
      [
        "D",
        "ef"
      ],
      [
        "Ġ$",
        "\\"
      ],
      [
        "al",
        "th"
      ],
      [
        "p",
        "os"
      ],
      [
        "in",
        "ess"
      ],
      [
        "ri",
        "end"
      ],
      [
        "Ġappro",
        "ach"
      ],
      [
        "s",
        "c"
      ],
      [
        "e",
        "k"
      ],
      [
        "ar",
        "ge"
      ],
      [
        "ĠW",
        "hat"
      ],
      [
        "'",
        "ve"
      ],
      [
        "Ġse",
        "ver"
      ],
      [
        "a",
        "j"
      ],
      [
        "a",
        "z"
      ],
      [
        "Ġbe",
        "h"
      ],
      [
        "Ġm",
        "aking"
      ],
      [
        "iz",
        "ation"
      ],
      [
        "Ġs",
        "ense"
      ],
      [
        "ĠA",
        "d"
      ],
      [
        "e",
        "ad"
      ],
      [
        "em",
        "ent"
      ],
      [
        "ir",
        "on"
      ],
      [
        "an",
        "n"
      ],
      [
        "Ġ",
        "%"
      ],
      [
        "Ġst",
        "ruct"
      ],
      [
        "ust",
        "om"
      ],
      [
        "Ġ",
        "Q"
      ],
      [
        "Ġle",
        "t"
      ],
      [
        "if",
        "ied"
      ],
      [
        "Ġrec",
        "ord"
      ],
      [
        "Ġto",
        "ol"
      ],
      [
        "Ġch",
        "ang"
      ],
      [
        "ĠThe",
        "y"
      ],
      [
        "Ġkn",
        "own"
      ],
      [
        "]",
        ","
      ],
      [
        "ĠS",
        "he"
      ],
      [
        "ĠW",
        "h"
      ],
      [
        "Ġare",
        "a"
      ],
      [
        "Ġv",
        "ers"
      ],
      [
        "Ġm",
        "ust"
      ],
      [
        "ur",
        "ther"
      ],
      [
        "he",
        "re"
      ],
      [
        "Ġst",
        "and"
      ],
      [
        "iv",
        "ed"
      ],
      [
        "Ġ",
        "z"
      ],
      [
        "Ġfil",
        "m"
      ],
      [
        "Ġpro",
        "ject"
      ],
      [
        "Ġl",
        "angu"
      ],
      [
        "ress",
        "ion"
      ],
      [
        "Ġsever",
        "al"
      ],
      [
        "enc",
        "y"
      ],
      [
        "ă",
        "Ąā"
      ],
      [
        "it",
        "ions"
      ],
      [
        "v",
        "ice"
      ],
      [
        "ur",
        "y"
      ],
      [
        "Ġo",
        "cc"
      ],
      [
        "ĠT",
        "o"
      ],
      [
        "Ġposs",
        "ible"
      ],
      [
        "Ġc",
        "alcul"
      ],
      [
        "ro",
        "p"
      ],
      [
        "Ġan",
        "sw"
      ],
      [
        "r",
        "id"
      ],
      [
        "Ġst",
        "re"
      ],
      [
        "Ġc",
        "ity"
      ],
      [
        "Ġt",
        "ry"
      ],
      [
        "Ġc",
        "ase"
      ],
      [
        "an",
        "e"
      ],
      [
        "Ġcont",
        "ain"
      ],
      [
        "Ġagain",
        "st"
      ],
      [
        "o",
        "id"
      ],
      [
        "Ġsu",
        "ccess"
      ],
      [
        "Ġle",
        "ar"
      ],
      [
        "Ġpro",
        "f"
      ],
      [
        "/",
        "/"
      ],
      [
        "oh",
        "n"
      ],
      [
        "Ġb",
        "us"
      ],
      [
        "Ġg",
        "reat"
      ],
      [
        "Ġth",
        "ose"
      ],
      [
        "Ġn",
        "ow"
      ],
      [
        "or",
        "ies"
      ],
      [
        "Ġwith",
        "in"
      ],
      [
        "ut",
        "e"
      ],
      [
        "Ġg",
        "row"
      ],
      [
        "Ġty",
        "pe"
      ],
      [
        "e",
        "e"
      ],
      [
        "val",
        "ue"
      ],
      [
        "or",
        "n"
      ],
      [
        "Ġpro",
        "per"
      ],
      [
        "^",
        "{"
      ],
      [
        "Def",
        "n"
      ],
      [
        "Ġinv",
        "ol"
      ],
      [
        "Ġis",
        "s"
      ],
      [
        "Ġpro",
        "m"
      ],
      [
        "ot",
        "s"
      ],
      [
        "er",
        "ing"
      ],
      [
        "eng",
        "th"
      ],
      [
        "Ġl",
        "ast"
      ],
      [
        "Ġb",
        "ro"
      ],
      [
        "Ġl",
        "og"
      ],
      [
        "p",
        "or"
      ],
      [
        "Ġw",
        "ar"
      ],
      [
        "w",
        "w"
      ],
      [
        "em",
        "ber"
      ],
      [
        "Ġb",
        "ook"
      ],
      [
        "o",
        "ice"
      ],
      [
        "Ġto",
        "tal"
      ],
      [
        "Ġfunction",
        "s"
      ],
      [
        "t",
        "le"
      ],
      [
        "Ġv",
        "ery"
      ],
      [
        "'",
        ")"
      ],
      [
        "s",
        "et"
      ],
      [
        "Ġre",
        "ce"
      ],
      [
        "Ġp",
        "ublic"
      ],
      [
        "Ġ",
        "â"
      ],
      [
        "pl",
        "oy"
      ],
      [
        "iv",
        "id"
      ],
      [
        "Ġsignific",
        "ant"
      ],
      [
        "ot",
        "e"
      ],
      [
        "Ġre",
        "se"
      ],
      [
        "Ġs",
        "ong"
      ],
      [
        "Ġgo",
        "od"
      ],
      [
        "č",
        "Ċ"
      ],
      [
        "ert",
        "ain"
      ],
      [
        "'",
        "ll"
      ],
      [
        "Ġcur",
        "rent"
      ],
      [
        "Ġpoint",
        "s"
      ],
      [
        "re",
        "qu"
      ],
      [
        "Ġst",
        "ill"
      ],
      [
        "ĠE",
        "ng"
      ],
      [
        "Ġs",
        "l"
      ],
      [
        "Ġcall",
        "ed"
      ],
      [
        "Ġb",
        "ased"
      ],
      [
        "Ġe",
        "very"
      ],
      [
        "s",
        "h"
      ],
      [
        "Ġd",
        "ra"
      ],
      [
        "i",
        "or"
      ],
      [
        "w",
        "ork"
      ],
      [
        "o",
        "ad"
      ],
      [
        "Ġn",
        "on"
      ],
      [
        "Ġl",
        "and"
      ],
      [
        "ie",
        "ve"
      ],
      [
        "Ġp",
        "res"
      ],
      [
        "Ġm",
        "ag"
      ],
      [
        "Ġd",
        "el"
      ],
      [
        "Ġp",
        "resent"
      ],
      [
        "b",
        "y"
      ],
      [
        "Ġse",
        "ason"
      ],
      [
        "Ġhe",
        "ad"
      ],
      [
        "Th",
        "is"
      ],
      [
        "Ġr",
        "ange"
      ],
      [
        "Ġr",
        "ight"
      ],
      [
        "'",
        "m"
      ],
      [
        "Ġ",
        "Z"
      ],
      [
        "al",
        "es"
      ],
      [
        "Ġc",
        "rit"
      ],
      [
        "ĠS",
        "c"
      ],
      [
        "ys",
        "is"
      ],
      [
        "Ġen",
        "s"
      ],
      [
        "os",
        "s"
      ],
      [
        "o",
        "f"
      ],
      [
        "t",
        "ies"
      ],
      [
        "Ġf",
        "ield"
      ],
      [
        "ff",
        "ic"
      ],
      [
        "Ġcom",
        "b"
      ],
      [
        "Ġimp",
        "act"
      ],
      [
        "amet",
        "ers"
      ],
      [
        "Ġin",
        "f"
      ],
      [
        "em",
        "s"
      ],
      [
        "Ġen",
        "v"
      ],
      [
        "Ġpl",
        "ace"
      ],
      [
        "a",
        "pe"
      ],
      [
        "Ġinclud",
        "e"
      ],
      [
        "Ġcont",
        "ro"
      ],
      [
        "Ġdes",
        "crib"
      ],
      [
        "ĠE",
        "x"
      ],
      [
        "S",
        "T"
      ],
      [
        "um",
        "ents"
      ],
      [
        "âĢ",
        "Ŀ"
      ],
      [
        "as",
        "k"
      ],
      [
        "Ġmult",
        "i"
      ],
      [
        "d",
        "ict"
      ],
      [
        "ĉ",
        "ĉ"
      ],
      [
        "Ġm",
        "uch"
      ],
      [
        "Ġexper",
        "ience"
      ],
      [
        "Ġre",
        "du"
      ],
      [
        "ĠC",
        "l"
      ],
      [
        "Ġe",
        "p"
      ],
      [
        "Ġrep",
        "resent"
      ],
      [
        "ch",
        "ool"
      ],
      [
        "Ġin",
        "it"
      ],
      [
        "Ġle",
        "ft"
      ],
      [
        "ĠA",
        "t"
      ],
      [
        "Ġw",
        "ater"
      ],
      [
        "Ġfe",
        "w"
      ],
      [
        "Ġl",
        "arge"
      ],
      [
        "r",
        "ue"
      ],
      [
        "Ġle",
        "vel"
      ],
      [
        "pl",
        "ic"
      ],
      [
        "at",
        "ch"
      ],
      [
        "our",
        "s"
      ],
      [
        "Ġc",
        "ost"
      ],
      [
        "Ġacc",
        "ess"
      ],
      [
        "Ġl",
        "im"
      ],
      [
        "Ġch",
        "all"
      ],
      [
        "Ġm",
        "ov"
      ],
      [
        "m",
        "ber"
      ],
      [
        "Ġne",
        "xt"
      ],
      [
        "ĠS",
        "p"
      ],
      [
        "Ġloc",
        "al"
      ],
      [
        "Ġo",
        "pt"
      ],
      [
        "Ġan",
        "other"
      ],
      [
        ")",
        ";"
      ],
      [
        "Ġev",
        "ent"
      ],
      [
        ".",
        "]"
      ],
      [
        "Ġc",
        "ustom"
      ],
      [
        "it",
        "al"
      ],
      [
        "c",
        "i"
      ],
      [
        "in",
        "ation"
      ],
      [
        "Ġor",
        "der"
      ],
      [
        "ĠI",
        "s"
      ],
      [
        "Ġor",
        "gan"
      ],
      [
        "tt",
        "p"
      ],
      [
        "Ġb",
        "est"
      ],
      [
        "od",
        "y"
      ],
      [
        "c",
        "all"
      ],
      [
        "Ġt",
        "em"
      ],
      [
        "Ġlangu",
        "age"
      ],
      [
        ",",
        "\""
      ],
      [
        "it",
        "le"
      ],
      [
        "o",
        "pe"
      ],
      [
        "Ġst",
        "at"
      ],
      [
        "m",
        "y"
      ],
      [
        "Ġs",
        "ince"
      ],
      [
        "le",
        "ase"
      ],
      [
        "Ġcomm",
        "on"
      ],
      [
        "I",
        "f"
      ],
      [
        "Ġg",
        "l"
      ],
      [
        "Ġo",
        "ld"
      ],
      [
        "Ġpro",
        "b"
      ],
      [
        "Ġin",
        "fl"
      ],
      [
        "ĠL",
        "e"
      ],
      [
        "----",
        "----"
      ],
      [
        "ul",
        "ation"
      ],
      [
        "Ġcomp",
        "any"
      ],
      [
        "on",
        "se"
      ],
      [
        "ĠE",
        "m"
      ],
      [
        "d",
        "ay"
      ],
      [
        "pl",
        "es"
      ],
      [
        "i",
        "k"
      ],
      [
        "Ġre",
        "st"
      ],
      [
        "Ġcharact",
        "ers"
      ],
      [
        "or",
        "ld"
      ],
      [
        "Ġst",
        "ep"
      ],
      [
        "ver",
        "age"
      ],
      [
        "Ġsp",
        "ace"
      ],
      [
        "Ġty",
        "p"
      ],
      [
        "Ġch",
        "ild"
      ],
      [
        "Ġl",
        "ess"
      ],
      [
        "Ġorig",
        "inal"
      ],
      [
        "pl",
        "ay"
      ],
      [
        "m",
        "ed"
      ],
      [
        "Ġel",
        "se"
      ],
      [
        "Ġadd",
        "ition"
      ],
      [
        "Ġmus",
        "ic"
      ],
      [
        "ĠI",
        "nd"
      ],
      [
        "ab",
        "les"
      ],
      [
        "Ġproble",
        "m"
      ],
      [
        "Ġg",
        "re"
      ],
      [
        "ĠA",
        "nd"
      ],
      [
        "ple",
        "ment"
      ],
      [
        "Ġpro",
        "t"
      ],
      [
        "Ġbe",
        "g"
      ],
      [
        "i",
        "um"
      ],
      [
        "ĠThe",
        "se"
      ],
      [
        "t",
        "il"
      ],
      [
        "al",
        "se"
      ],
      [
        "Ġsoc",
        "ial"
      ],
      [
        "an",
        "ces"
      ],
      [
        "ĠThe",
        "re"
      ],
      [
        "Ġmod",
        "el"
      ],
      [
        ".",
        "\","
      ],
      [
        "Ã",
        "©"
      ],
      [
        "Ġ",
        "X"
      ],
      [
        "l",
        "ist"
      ],
      [
        "m",
        "ath"
      ],
      [
        "l",
        "ess"
      ],
      [
        "end",
        "ed"
      ],
      [
        "il",
        "ar"
      ],
      [
        "ivid",
        "ual"
      ],
      [
        "b",
        "um"
      ],
      [
        "m",
        "in"
      ],
      [
        "ward",
        "s"
      ],
      [
        "Ġne",
        "ar"
      ],
      [
        "Ġ\"",
        "\"\""
      ],
      [
        "Ġansw",
        "er"
      ],
      [
        "ap",
        "s"
      ],
      [
        "al",
        "k"
      ],
      [
        "Ġdet",
        "ail"
      ],
      [
        ".",
        ","
      ],
      [
        "ver",
        "n"
      ],
      [
        "Ġdet",
        "erm"
      ],
      [
        "Ġc",
        "heck"
      ],
      [
        "Ġro",
        "le"
      ],
      [
        "Ġess",
        "ential"
      ],
      [
        "Ġfam",
        "ily"
      ],
      [
        "Ġpartic",
        "ular"
      ],
      [
        "Ġenv",
        "iron"
      ],
      [
        "A",
        "n"
      ],
      [
        "ĠJ",
        "ohn"
      ],
      [
        "id",
        "d"
      ],
      [
        "Ġele",
        "ments"
      ],
      [
        "ĠUn",
        "ited"
      ],
      [
        "Ġus",
        "er"
      ],
      [
        "Ġt",
        "urn"
      ],
      [
        "A",
        "s"
      ],
      [
        "Ġanal",
        "ysis"
      ],
      [
        "n",
        "ect"
      ],
      [
        "Ġl",
        "it"
      ],
      [
        "en",
        "e"
      ],
      [
        "a",
        "ut"
      ],
      [
        "Ġt",
        "re"
      ],
      [
        "ĠB",
        "rit"
      ],
      [
        "m",
        "od"
      ],
      [
        "Ġf",
        "riend"
      ],
      [
        "f",
        "or"
      ],
      [
        "Ġ",
        "ve"
      ],
      [
        "at",
        "ures"
      ],
      [
        "Ġwrit",
        "ing"
      ],
      [
        "Ġs",
        "qu"
      ],
      [
        "Ġm",
        "il"
      ],
      [
        "ro",
        "du"
      ],
      [
        "b",
        "ack"
      ],
      [
        "Ġd",
        "ri"
      ],
      [
        "ard",
        "s"
      ],
      [
        "p",
        "ython"
      ],
      [
        "Ġf",
        "urther"
      ],
      [
        "our",
        "ce"
      ],
      [
        "h",
        "or"
      ],
      [
        "Ġcle",
        "ar"
      ],
      [
        "b",
        "e"
      ],
      [
        "Ġ",
        "es"
      ],
      [
        "Ġind",
        "ividual"
      ],
      [
        "Ġbus",
        "iness"
      ],
      [
        "u",
        "ed"
      ],
      [
        "y",
        "le"
      ],
      [
        "Ġacc",
        "ount"
      ],
      [
        "Ġc",
        "ult"
      ],
      [
        "Ġh",
        "ome"
      ],
      [
        "E",
        "R"
      ],
      [
        "ĠAmeric",
        "an"
      ],
      [
        "Ġa",
        "ch"
      ],
      [
        "ore",
        "d"
      ],
      [
        "ent",
        "ion"
      ],
      [
        "le",
        "y"
      ],
      [
        "iv",
        "ing"
      ],
      [
        "ĠA",
        "fter"
      ],
      [
        "w",
        "ays"
      ],
      [
        "Ġa",
        "ff"
      ],
      [
        "et",
        "ing"
      ],
      [
        "Ġsing",
        "le"
      ],
      [
        "Ġmon",
        "th"
      ],
      [
        ":",
        "//"
      ],
      [
        "Ġen",
        "c"
      ],
      [
        "Ġch",
        "ange"
      ],
      [
        "c",
        "ent"
      ],
      [
        "pr",
        "int"
      ],
      [
        "Ġbec",
        "ame"
      ],
      [
        "p",
        "re"
      ],
      [
        "Ġem",
        "ot"
      ],
      [
        "at",
        "s"
      ],
      [
        "Ġsent",
        "ence"
      ],
      [
        "Ġgo",
        "vern"
      ],
      [
        "Ġsh",
        "ort"
      ],
      [
        "Ġv",
        "iew"
      ],
      [
        "w",
        "ord"
      ],
      [
        "Ġal",
        "ong"
      ],
      [
        "Ġhum",
        "an"
      ],
      [
        "ĠH",
        "ere"
      ],
      [
        "Ġm",
        "ill"
      ],
      [
        "$",
        ","
      ],
      [
        "Ġs",
        "ay"
      ],
      [
        "Ġd",
        "ays"
      ],
      [
        "cl",
        "us"
      ],
      [
        "H",
        "ere"
      ],
      [
        "i",
        "od"
      ],
      [
        "Ġl",
        "arg"
      ],
      [
        "Ġman",
        "ag"
      ],
      [
        "ĠC",
        "ol"
      ],
      [
        "ict",
        "ion"
      ],
      [
        "Ġun",
        "til"
      ],
      [
        "Ġcon",
        "cept"
      ],
      [
        "[",
        "'"
      ],
      [
        "Ġimpro",
        "ve"
      ],
      [
        "Ġear",
        "ly"
      ],
      [
        "'",
        "]"
      ],
      [
        "ent",
        "al"
      ],
      [
        "c",
        "ur"
      ],
      [
        "aj",
        "or"
      ],
      [
        "Ġb",
        "o"
      ],
      [
        "Ġd",
        "on"
      ],
      [
        "Ġc",
        "our"
      ],
      [
        "v",
        "ious"
      ],
      [
        "Ġare",
        "as"
      ],
      [
        "Ġinfl",
        "u"
      ],
      [
        "p",
        "ath"
      ],
      [
        "end",
        "ing"
      ],
      [
        "Ġs",
        "ide"
      ],
      [
        "le",
        "x"
      ],
      [
        "Ġal",
        "bum"
      ],
      [
        "it",
        "ing"
      ],
      [
        "Ġto",
        "get"
      ],
      [
        "Ġtoget",
        "her"
      ],
      [
        "a",
        "im"
      ],
      [
        "ra",
        "nd"
      ],
      [
        "Ġd",
        "ue"
      ],
      [
        "ĠB",
        "e"
      ],
      [
        "Ġunderstand",
        "ing"
      ],
      [
        "Ġe",
        "as"
      ],
      [
        "]]",
        "."
      ],
      [
        "Ġs",
        "it"
      ],
      [
        ".",
        "_"
      ],
      [
        "Ġa",
        "ir"
      ],
      [
        "ad",
        "d"
      ],
      [
        "hem",
        "at"
      ],
      [
        "our",
        "ces"
      ],
      [
        "ac",
        "ed"
      ],
      [
        "Ġvers",
        "ion"
      ],
      [
        "ill",
        "s"
      ],
      [
        "ab",
        "or"
      ],
      [
        "th",
        "ough"
      ],
      [
        "ac",
        "es"
      ],
      [
        "Ġequ",
        "ation"
      ],
      [
        "b",
        "r"
      ],
      [
        "o",
        "le"
      ],
      [
        "ent",
        "ly"
      ],
      [
        "o",
        "ber"
      ],
      [
        "Ġhe",
        "alth"
      ],
      [
        "Ġt",
        "imes"
      ],
      [
        "rit",
        "e"
      ],
      [
        "Ġun",
        "ique"
      ],
      [
        "Ġep",
        "is"
      ],
      [
        "Ġrequ",
        "ired"
      ],
      [
        "il",
        "ities"
      ],
      [
        "Ġm",
        "ax"
      ],
      [
        "os",
        "ed"
      ],
      [
        "Ġsh",
        "ip"
      ],
      [
        "Ġdisc",
        "uss"
      ],
      [
        "ord",
        "ing"
      ],
      [
        "Ġf",
        "ore"
      ],
      [
        "Ġterm",
        "s"
      ],
      [
        "Ġs",
        "ym"
      ],
      [
        "Ġenviron",
        "ment"
      ],
      [
        "ra",
        "ft"
      ],
      [
        "ĠB",
        "l"
      ],
      [
        "Ġme",
        "as"
      ],
      [
        "Ġex",
        "pect"
      ],
      [
        "Ġstruct",
        "ure"
      ],
      [
        "{",
        "\\"
      ],
      [
        "ct",
        "or"
      ],
      [
        "ĠW",
        "hen"
      ],
      [
        "Ġc",
        "r"
      ],
      [
        "id",
        "ence"
      ],
      [
        "Ġvari",
        "ous"
      ],
      [
        "Ġcorre",
        "ct"
      ],
      [
        "ĠN",
        "one"
      ],
      [
        "Ġf",
        "ile"
      ],
      [
        "Ġeng",
        "ag"
      ],
      [
        "iv",
        "ity"
      ],
      [
        "Ġen",
        "erg"
      ],
      [
        "Ġre",
        "port"
      ],
      [
        "ĠC",
        "an"
      ],
      [
        "ĠP",
        "l"
      ],
      [
        "il",
        "t"
      ],
      [
        "iss",
        "ion"
      ],
      [
        "Ġl",
        "ight"
      ],
      [
        "Ġinit",
        "ial"
      ],
      [
        "Ġstr",
        "ong"
      ],
      [
        "em",
        "pt"
      ],
      [
        "Ġf",
        "ar"
      ],
      [
        "or",
        "ing"
      ],
      [
        "Ġm",
        "ove"
      ],
      [
        "Ġem",
        "ploy"
      ],
      [
        "Ġg",
        "e"
      ],
      [
        "Ġdevelop",
        "ment"
      ],
      [
        "Ġstud",
        "y"
      ],
      [
        "s",
        "p"
      ],
      [
        "ne",
        "y"
      ],
      [
        "ri",
        "es"
      ],
      [
        "ĠĠĠĠĠĠĠĠ",
        "ĠĠĠĠĠĠĠĠĠĠĠ"
      ],
      [
        "Ġstud",
        "ents"
      ],
      [
        "ĠM",
        "ay"
      ],
      [
        "i",
        "ation"
      ],
      [
        "u",
        "le"
      ],
      [
        "Ġth",
        "ird"
      ],
      [
        "Ġph",
        "ys"
      ],
      [
        "Ġf",
        "inal"
      ],
      [
        "at",
        "ural"
      ],
      [
        "Ġrese",
        "arch"
      ],
      [
        "ĠF",
        "r"
      ],
      [
        "Ġ",
        ">"
      ],
      [
        "Ġpos",
        "itive"
      ],
      [
        "Ġbe",
        "gan"
      ],
      [
        "ang",
        "le"
      ],
      [
        "Ġd",
        "i"
      ],
      [
        "Ġcall",
        "s"
      ],
      [
        "u",
        "ro"
      ],
      [
        "m",
        "ing"
      ],
      [
        "Ġex",
        "ist"
      ],
      [
        "st",
        "ring"
      ],
      [
        "un",
        "e"
      ],
      [
        "Ġbec",
        "ome"
      ],
      [
        "f",
        "rom"
      ],
      [
        "Ġp",
        "ract"
      ],
      [
        "Ġcon",
        "ne"
      ],
      [
        "h",
        "ttp"
      ],
      [
        "al",
        "ance"
      ],
      [
        "am",
        "ed"
      ],
      [
        "og",
        "raph"
      ],
      [
        "Ġtra",
        "ck"
      ],
      [
        "ist",
        "ic"
      ],
      [
        "Ġele",
        "ct"
      ],
      [
        "Ġc",
        "ap"
      ],
      [
        "Ġide",
        "as"
      ],
      [
        "Ġm",
        "ot"
      ],
      [
        "r",
        "t"
      ],
      [
        "Ġl",
        "ength"
      ],
      [
        "le",
        "ft"
      ],
      [
        "Ġword",
        "s"
      ],
      [
        "Ġim",
        "plement"
      ],
      [
        "Ġinv",
        "est"
      ],
      [
        "d",
        "ata"
      ],
      [
        "ĠU",
        "S"
      ],
      [
        "arg",
        "et"
      ],
      [
        "d",
        "d"
      ],
      [
        "id",
        "ing"
      ],
      [
        "Ġke",
        "ep"
      ],
      [
        "ĠP",
        "ython"
      ],
      [
        "Ġrev",
        "iew"
      ],
      [
        "se",
        "qu"
      ],
      [
        "rib",
        "ution"
      ],
      [
        "Ġh",
        "y"
      ],
      [
        "ell",
        "ing"
      ],
      [
        "I",
        "t"
      ],
      [
        "Ġp",
        "ost"
      ],
      [
        "r",
        "ror"
      ],
      [
        "Ġcol",
        "l"
      ],
      [
        "Ġs",
        "ound"
      ],
      [
        "$",
        "."
      ],
      [
        "Ġest",
        "ab"
      ],
      [
        "Ġform",
        "at"
      ],
      [
        "m",
        "et"
      ],
      [
        "is",
        "on"
      ],
      [
        "Ġexpl",
        "ore"
      ],
      [
        "ers",
        "e"
      ],
      [
        "Ġgener",
        "al"
      ],
      [
        "ĠâĢ",
        "Ķ"
      ],
      [
        "Ġan",
        "n"
      ],
      [
        "Ġam",
        "ount"
      ],
      [
        "im",
        "ately"
      ],
      [
        "i",
        "ans"
      ],
      [
        "Ġenerg",
        "y"
      ],
      [
        "Ġf",
        "r"
      ],
      [
        "c",
        "ing"
      ],
      [
        "p",
        "s"
      ],
      [
        "as",
        "ing"
      ],
      [
        "Ġresp",
        "onse"
      ],
      [
        "Ġchall",
        "eng"
      ],
      [
        "Ġcommun",
        "ity"
      ],
      [
        "Ġh",
        "ig"
      ],
      [
        "re",
        "m"
      ],
      [
        "Ġs",
        "ize"
      ],
      [
        "Ġex",
        "am"
      ],
      [
        "Ġas",
        "k"
      ],
      [
        "Ġhist",
        "ory"
      ],
      [
        "ĠW",
        "ar"
      ],
      [
        "cl",
        "ass"
      ],
      [
        "C",
        "on"
      ],
      [
        "Ġper",
        "iod"
      ],
      [
        "en",
        "n"
      ],
      [
        "E",
        "x"
      ],
      [
        "Ġ.",
        ".."
      ],
      [
        "Ġimport",
        "ant"
      ],
      [
        "r",
        "ist"
      ],
      [
        "Ġde",
        "v"
      ],
      [
        "im",
        "ate"
      ],
      [
        "an",
        "ced"
      ],
      [
        "om",
        "an"
      ],
      [
        "Ġens",
        "ure"
      ],
      [
        "ĠA",
        "I"
      ],
      [
        "ĠSt",
        "ates"
      ],
      [
        "it",
        "her"
      ],
      [
        "Ġc",
        "aus"
      ],
      [
        "ke",
        "y"
      ],
      [
        "I",
        "N"
      ],
      [
        "Ġs",
        "chool"
      ],
      [
        "Ġbet",
        "ter"
      ],
      [
        "c",
        "hes"
      ],
      [
        "Ġse",
        "qu"
      ],
      [
        "Ġide",
        "a"
      ],
      [
        "us",
        "h"
      ],
      [
        "m",
        "a"
      ],
      [
        "w",
        "are"
      ],
      [
        "Ġp",
        "o"
      ],
      [
        "Ġb",
        "en"
      ],
      [
        "as",
        "ter"
      ],
      [
        "t",
        "ime"
      ],
      [
        "Ġd",
        "at"
      ],
      [
        "Ġexper",
        "i"
      ],
      [
        "ce",
        "ption"
      ],
      [
        "fere",
        "nce"
      ],
      [
        "l",
        "ished"
      ],
      [
        "Ġw",
        "in"
      ],
      [
        ":",
        "**"
      ],
      [
        "..",
        "."
      ],
      [
        "are",
        "nt"
      ],
      [
        "Ġbre",
        "ak"
      ],
      [
        "Ġj",
        "ob"
      ],
      [
        "Ġm",
        "ar"
      ],
      [
        "ĠA",
        "ust"
      ],
      [
        "us",
        "e"
      ],
      [
        "Ġm",
        "ess"
      ],
      [
        "Ġperson",
        "al"
      ],
      [
        "con",
        "t"
      ],
      [
        "Ġto",
        "o"
      ],
      [
        "el",
        "t"
      ],
      [
        "ly",
        "ing"
      ],
      [
        "Ġsim",
        "ilar"
      ],
      [
        "Ġle",
        "g"
      ],
      [
        "Ġoff",
        "ic"
      ],
      [
        "Ġchang",
        "es"
      ],
      [
        "O",
        "N"
      ],
      [
        "Ġa",
        "verage"
      ],
      [
        "Ġpat",
        "tern"
      ],
      [
        "Ġa",
        "ud"
      ],
      [
        "Ġind",
        "ic"
      ],
      [
        "Ġwor",
        "ks"
      ],
      [
        "Ġperform",
        "ance"
      ],
      [
        "e",
        "b"
      ],
      [
        "ar",
        "ing"
      ],
      [
        "m",
        "it"
      ],
      [
        "Ġsu",
        "re"
      ],
      [
        "Ġm",
        "ajor"
      ],
      [
        "ib",
        "ility"
      ],
      [
        "Ġocc",
        "ur"
      ],
      [
        "Ġp",
        "ort"
      ],
      [
        "le",
        "t"
      ],
      [
        "al",
        "f"
      ],
      [
        "ĠG",
        "erm"
      ],
      [
        "Ġc",
        "irc"
      ],
      [
        "Ġwork",
        "ing"
      ],
      [
        "=",
        "\""
      ],
      [
        "Ġl",
        "ow"
      ],
      [
        "ĠO",
        "r"
      ],
      [
        "im",
        "um"
      ],
      [
        "c",
        "o"
      ],
      [
        "Ġcontro",
        "l"
      ],
      [
        "Ġob",
        "ser"
      ],
      [
        "Ġinclud",
        "ed"
      ],
      [
        "Ġcont",
        "ent"
      ],
      [
        "E",
        "rror"
      ],
      [
        "Ġresult",
        "s"
      ],
      [
        "Ġdif",
        "f"
      ],
      [
        "Ġpre",
        "vious"
      ],
      [
        "Ġmat",
        "hemat"
      ],
      [
        "Ġother",
        "s"
      ],
      [
        "ĠM",
        "ar"
      ],
      [
        "ĠP",
        "h"
      ],
      [
        "Ġm",
        "en"
      ],
      [
        "Ġha",
        "ving"
      ],
      [
        "''",
        "'"
      ],
      [
        "om",
        "eth"
      ],
      [
        "Ġident",
        "ify"
      ],
      [
        "Ġwe",
        "ek"
      ],
      [
        "Ġp",
        "ast"
      ],
      [
        "==",
        "=="
      ],
      [
        "Ġme",
        "ans"
      ],
      [
        "v",
        "iew"
      ],
      [
        "Ġhe",
        "re"
      ],
      [
        "pp",
        "ed"
      ],
      [
        "Ġev",
        "ents"
      ],
      [
        "Ġc",
        "apt"
      ],
      [
        "ĠA",
        "ll"
      ],
      [
        "$",
        "$"
      ],
      [
        "Ġass",
        "ist"
      ],
      [
        "\"",
        "}}"
      ],
      [
        "Ġcol",
        "le"
      ],
      [
        "Ġra",
        "d"
      ],
      [
        "}",
        "\\"
      ],
      [
        "c",
        "ount"
      ],
      [
        "in",
        "a"
      ],
      [
        "r",
        "ation"
      ],
      [
        "Ġmill",
        "ion"
      ],
      [
        "ater",
        "ial"
      ],
      [
        "Ġs",
        "w"
      ],
      [
        "Ġf",
        "ree"
      ],
      [
        "Ġr",
        "ather"
      ],
      [
        "ot",
        "t"
      ],
      [
        "Ġstr",
        "ateg"
      ],
      [
        "ometh",
        "ing"
      ],
      [
        "ĠO",
        "ne"
      ],
      [
        "Ġf",
        "und"
      ],
      [
        "ure",
        "d"
      ],
      [
        "f",
        "ace"
      ],
      [
        "ĠW",
        "orld"
      ],
      [
        "Ġatt",
        "ack"
      ],
      [
        "Ġli",
        "k"
      ],
      [
        "ill",
        "ed"
      ],
      [
        "Ġto",
        "ok"
      ],
      [
        "ul",
        "a"
      ],
      [
        "Ġw",
        "ind"
      ],
      [
        "Ġtr",
        "ue"
      ],
      [
        "c",
        "ol"
      ],
      [
        "f",
        "unction"
      ],
      [
        "iz",
        "ing"
      ],
      [
        "os",
        "p"
      ],
      [
        "um",
        "e"
      ],
      [
        "Ġne",
        "cess"
      ],
      [
        "z",
        "e"
      ],
      [
        "Ġmain",
        "tain"
      ],
      [
        "d",
        "ate"
      ],
      [
        "Ġl",
        "a"
      ],
      [
        "n",
        "ot"
      ],
      [
        "s",
        "ide"
      ],
      [
        "Ġle",
        "ast"
      ],
      [
        "am",
        "b"
      ],
      [
        "Ġs",
        "ix"
      ],
      [
        "Ġint",
        "rodu"
      ],
      [
        ":",
        ":"
      ],
      [
        "Ġadd",
        "ress"
      ],
      [
        "Ġsu",
        "pp"
      ],
      [
        "Ġs",
        "n"
      ],
      [
        "Ġl",
        "aw"
      ],
      [
        "con",
        "om"
      ],
      [
        "Ġ-",
        "-"
      ],
      [
        "Ġto",
        "wn"
      ],
      [
        "p",
        "ose"
      ],
      [
        "Ġr",
        "is"
      ],
      [
        "Ġf",
        "low"
      ],
      [
        "q",
        "rt"
      ],
      [
        "Ġele",
        "ment"
      ],
      [
        "ĠB",
        "ut"
      ],
      [
        "Ġne",
        "g"
      ],
      [
        "Ġout",
        "put"
      ],
      [
        "Ġex",
        "c"
      ],
      [
        "Ġn",
        "et"
      ],
      [
        "Ġha",
        "pp"
      ],
      [
        "us",
        "er"
      ],
      [
        "A",
        "T"
      ],
      [
        "Ġsc",
        "ore"
      ],
      [
        "Ġf",
        "ive"
      ],
      [
        "Ġg",
        "ive"
      ],
      [
        "ĠBrit",
        "ish"
      ],
      [
        "ron",
        "t"
      ],
      [
        "Ġepis",
        "ode"
      ],
      [
        "Ġv",
        "ide"
      ],
      [
        "au",
        "gh"
      ],
      [
        "ak",
        "en"
      ],
      [
        "Ġtra",
        "vel"
      ],
      [
        "Ġre",
        "pl"
      ],
      [
        "Ġben",
        "ef"
      ],
      [
        "Ġb",
        "i"
      ],
      [
        "Ġfe",
        "et"
      ],
      [
        "ib",
        "r"
      ],
      [
        "f",
        "ile"
      ],
      [
        "op",
        "s"
      ],
      [
        "a",
        "ction"
      ],
      [
        "im",
        "port"
      ],
      [
        "Ġal",
        "ways"
      ],
      [
        "Ġd",
        "est"
      ],
      [
        "Ġmulti",
        "ple"
      ],
      [
        "ep",
        "end"
      ],
      [
        "im",
        "al"
      ],
      [
        "cri",
        "pt"
      ],
      [
        "v",
        "ision"
      ],
      [
        "og",
        "n"
      ],
      [
        "ol",
        "ution"
      ],
      [
        "Ġh",
        "ours"
      ],
      [
        "Ġde",
        "m"
      ],
      [
        "Ġsystem",
        "s"
      ],
      [
        "in",
        "ary"
      ],
      [
        "Ġ",
        "_"
      ],
      [
        "Ġm",
        "ind"
      ],
      [
        "ri",
        "x"
      ],
      [
        "c",
        "hed"
      ],
      [
        "Ġexp",
        "ress"
      ],
      [
        "l",
        "og"
      ],
      [
        "Ġbeg",
        "in"
      ],
      [
        "om",
        "en"
      ],
      [
        "he",
        "st"
      ],
      [
        "um",
        "n"
      ],
      [
        "am",
        "s"
      ],
      [
        "Ġh",
        "ouse"
      ],
      [
        "def",
        "ault"
      ],
      [
        "Ġam",
        "ong"
      ],
      [
        "Ġc",
        "ertain"
      ],
      [
        "Ġn",
        "atural"
      ],
      [
        "Ġrele",
        "ased"
      ],
      [
        "ver",
        "t"
      ],
      [
        "ĠC",
        "ar"
      ],
      [
        "Ġbeh",
        "av"
      ],
      [
        "Ġch",
        "o"
      ],
      [
        "pport",
        "un"
      ],
      [
        "Ġpos",
        "ition"
      ],
      [
        "Ġs",
        "omething"
      ],
      [
        "Ġyou",
        "ng"
      ],
      [
        "ivers",
        "ity"
      ],
      [
        "Ġappe",
        "ar"
      ],
      [
        "Ġc",
        "ru"
      ],
      [
        "Ġm",
        "aterial"
      ],
      [
        "Ġspec",
        "ial"
      ],
      [
        "f",
        "er"
      ],
      [
        "Ġac",
        "ross"
      ],
      [
        "Ġapp",
        "lic"
      ],
      [
        "Ġcon",
        "nect"
      ],
      [
        "Ġcl",
        "aim"
      ],
      [
        "Ġres",
        "pect"
      ],
      [
        "n",
        "ces"
      ],
      [
        "Ġv",
        "ol"
      ],
      [
        "Ġcom",
        "e"
      ],
      [
        "Ġc",
        "amp"
      ],
      [
        "ĠP",
        "r"
      ],
      [
        "ons",
        "ider"
      ],
      [
        "Ġmem",
        "bers"
      ],
      [
        "Ġ",
        "Â"
      ],
      [
        "ar",
        "ies"
      ],
      [
        "F",
        "or"
      ],
      [
        "Ġab",
        "le"
      ],
      [
        "ac",
        "y"
      ],
      [
        "Ġthough",
        "t"
      ],
      [
        "or",
        "por"
      ],
      [
        "in",
        "ally"
      ],
      [
        "he",
        "ad"
      ],
      [
        "Ġgovern",
        "ment"
      ],
      [
        "Ġcont",
        "ext"
      ],
      [
        "Ġsh",
        "are"
      ],
      [
        "Ġh",
        "old"
      ],
      [
        "y",
        "l"
      ],
      [
        "Ġgrow",
        "th"
      ],
      [
        "os",
        "ing"
      ],
      [
        "*",
        "[["
      ],
      [
        "Ġo",
        "pportun"
      ],
      [
        "pt",
        "y"
      ],
      [
        "Ġpri",
        "or"
      ],
      [
        "ap",
        "an"
      ],
      [
        "uro",
        "pe"
      ],
      [
        "att",
        "le"
      ],
      [
        "P",
        "ro"
      ],
      [
        "Ġs",
        "at"
      ],
      [
        "Ġthe",
        "ory"
      ],
      [
        "res",
        "p"
      ],
      [
        "ĠA",
        "ug"
      ],
      [
        "Ġcent",
        "ury"
      ],
      [
        "ĠP",
        "ar"
      ],
      [
        "Ġav",
        "ail"
      ],
      [
        "m",
        "l"
      ],
      [
        "Ġed",
        "uc"
      ],
      [
        "Ġb",
        "as"
      ],
      [
        "Ġdist",
        "ribution"
      ],
      [
        "i",
        "ver"
      ],
      [
        "'",
        "d"
      ],
      [
        "Ġcre",
        "ating"
      ],
      [
        "Ġ\\",
        "]"
      ],
      [
        "Ġcomm",
        "and"
      ],
      [
        "Ġstand",
        "ard"
      ],
      [
        "ra",
        "g"
      ],
      [
        "Ġach",
        "ieve"
      ],
      [
        "i",
        "res"
      ],
      [
        "Ġn",
        "arr"
      ],
      [
        "Ġrece",
        "ived"
      ],
      [
        "du",
        "ct"
      ],
      [
        "Ġa",
        "ge"
      ],
      [
        "at",
        "ors"
      ],
      [
        "Ġp",
        "ath"
      ],
      [
        "Ġf",
        "ood"
      ],
      [
        "Ġl",
        "ove"
      ],
      [
        "Ġa",
        "ction"
      ],
      [
        "W",
        "e"
      ],
      [
        "e",
        "le"
      ],
      [
        "r",
        "ans"
      ],
      [
        "is",
        "es"
      ],
      [
        "Ġanal",
        "y"
      ],
      [
        "i",
        "us"
      ],
      [
        "ĠW",
        "est"
      ],
      [
        "o",
        "on"
      ],
      [
        "Ġd",
        "ig"
      ],
      [
        "Ġprof",
        "ess"
      ],
      [
        "C",
        "h"
      ],
      [
        "n",
        "ed"
      ],
      [
        "Ġwhe",
        "ther"
      ],
      [
        "Ġt",
        "arget"
      ],
      [
        "u",
        "ation"
      ],
      [
        "Ġcare",
        "er"
      ],
      [
        "Ġcons",
        "id"
      ],
      [
        "ty",
        "m"
      ],
      [
        "Ġre",
        "ach"
      ],
      [
        "A",
        "R"
      ],
      [
        "b",
        "all"
      ],
      [
        "Ġe",
        "y"
      ],
      [
        "g",
        "or"
      ],
      [
        "Ġo",
        "ption"
      ],
      [
        ">",
        "["
      ],
      [
        "Ġde",
        "ath"
      ],
      [
        "pe",
        "cial"
      ],
      [
        "b",
        "o"
      ],
      [
        "in",
        "f"
      ],
      [
        "her",
        "n"
      ],
      [
        "B",
        "y"
      ],
      [
        "Ġg",
        "r"
      ],
      [
        "Ġcon",
        "d"
      ],
      [
        "Ġprob",
        "ability"
      ],
      [
        "ob",
        "ject"
      ],
      [
        "Ġe",
        "ver"
      ],
      [
        "Ġde",
        "ep"
      ],
      [
        "ne",
        "w"
      ],
      [
        "ut",
        "ure"
      ],
      [
        "]",
        "</"
      ],
      [
        "Ġer",
        "ror"
      ],
      [
        "Ġrelationship",
        "s"
      ],
      [
        "Ġconc",
        "ise"
      ],
      [
        "ĠY",
        "ork"
      ],
      [
        "par",
        "ameters"
      ],
      [
        "ic",
        "le"
      ],
      [
        "Ġg",
        "en"
      ],
      [
        "Ġst",
        "ru"
      ],
      [
        "Ġb",
        "ody"
      ],
      [
        "Ġmat",
        "ch"
      ],
      [
        ".",
        ")"
      ],
      [
        "Ġf",
        "all"
      ],
      [
        "Ġaut",
        "hor"
      ],
      [
        "Ġcomp",
        "ut"
      ],
      [
        "Ġvari",
        "ables"
      ],
      [
        "a",
        "f"
      ],
      [
        "ens",
        "ion"
      ],
      [
        "Ġser",
        "vice"
      ],
      [
        "Ġse",
        "en"
      ],
      [
        "Ġl",
        "ack"
      ],
      [
        "Ġne",
        "ver"
      ],
      [
        "b",
        "ox"
      ],
      [
        "Ġan",
        "g"
      ],
      [
        "pt",
        "ember"
      ],
      [
        "ĠJ",
        "apan"
      ],
      [
        "Ġneed",
        "ed"
      ],
      [
        "iv",
        "al"
      ],
      [
        "ist",
        "er"
      ],
      [
        "Ġb",
        "r"
      ],
      [
        "ac",
        "hed"
      ],
      [
        "er",
        "v"
      ],
      [
        "s",
        "qrt"
      ],
      [
        "l",
        "er"
      ],
      [
        "om",
        "in"
      ],
      [
        "ĠE",
        "n"
      ],
      [
        "Ġmean",
        "ing"
      ],
      [
        "Ġl",
        "ed"
      ],
      [
        "Ġind",
        "ust"
      ],
      [
        "Ġl",
        "o"
      ],
      [
        "Ġvari",
        "able"
      ],
      [
        "ĠG",
        "e"
      ],
      [
        "ĠAug",
        "ust"
      ],
      [
        "Ġw",
        "ays"
      ],
      [
        "Ġan",
        "t"
      ],
      [
        "un",
        "g"
      ],
      [
        "Ġfe",
        "atures"
      ],
      [
        "Ġmed",
        "ia"
      ],
      [
        "at",
        "ively"
      ],
      [
        "Ġb",
        "ase"
      ],
      [
        "Ġf",
        "oot"
      ],
      [
        "Ġp",
        "a"
      ],
      [
        "Ġpop",
        "ulation"
      ],
      [
        "ĠE",
        "tym"
      ],
      [
        "on",
        "es"
      ],
      [
        "Ġk",
        "m"
      ],
      [
        "ĠE",
        "urope"
      ],
      [
        "âĢ",
        "¢"
      ],
      [
        "Ġp",
        "ress"
      ],
      [
        "Ġatt",
        "empt"
      ],
      [
        "Ġarg",
        "ument"
      ],
      [
        "Ġsol",
        "ution"
      ],
      [
        "u",
        "ck"
      ],
      [
        "ĠK",
        "ing"
      ],
      [
        "n",
        "et"
      ],
      [
        "A",
        "l"
      ],
      [
        "Ġar",
        "ray"
      ],
      [
        "Ġn",
        "ight"
      ],
      [
        "er",
        "o"
      ],
      [
        "Ġf",
        "ail"
      ],
      [
        "Ġcount",
        "ry"
      ],
      [
        "Ġre",
        "ve"
      ],
      [
        "Ġmethod",
        "s"
      ],
      [
        "Ġsu",
        "per"
      ],
      [
        "Ġresp",
        "ons"
      ],
      [
        "ĠJ",
        "u"
      ],
      [
        "Ġ",
        "]"
      ],
      [
        "Ġ$",
        "$"
      ],
      [
        "Ġspec",
        "ies"
      ],
      [
        "Ġquest",
        "ions"
      ],
      [
        "Ġa",
        "way"
      ],
      [
        "is",
        "ing"
      ],
      [
        "t",
        "est"
      ],
      [
        "olog",
        "ical"
      ],
      [
        "Ġbec",
        "om"
      ],
      [
        "Ġj",
        "our"
      ],
      [
        "ĠAust",
        "ral"
      ],
      [
        "Ġab",
        "ove"
      ],
      [
        "ĠI",
        "I"
      ],
      [
        "ĠW",
        "ith"
      ],
      [
        "Ġm",
        "om"
      ],
      [
        "ra",
        "in"
      ],
      [
        "Ġp",
        "ut"
      ],
      [
        "âĢ",
        "ľ"
      ],
      [
        "ĠSe",
        "ptember"
      ],
      [
        "O",
        "R"
      ],
      [
        "Ġfact",
        "ors"
      ],
      [
        "Ġde",
        "b"
      ],
      [
        "s",
        "el"
      ],
      [
        "in",
        "it"
      ],
      [
        "ĠW",
        "ill"
      ],
      [
        "Ġn",
        "av"
      ],
      [
        "l",
        "ight"
      ],
      [
        "ass",
        "ert"
      ],
      [
        "ag",
        "ue"
      ],
      [
        "Ġconsid",
        "ered"
      ],
      [
        "Ġup",
        "on"
      ],
      [
        "ĠO",
        "ct"
      ],
      [
        "\"",
        "]"
      ],
      [
        "om",
        "m"
      ],
      [
        "c",
        "d"
      ],
      [
        "od",
        "es"
      ],
      [
        "he",
        "l"
      ],
      [
        "e",
        "qu"
      ],
      [
        "Ġem",
        "pty"
      ],
      [
        "ateg",
        "ory"
      ],
      [
        "ve",
        "y"
      ],
      [
        "Ġd",
        "er"
      ],
      [
        "Ġb",
        "and"
      ],
      [
        "an",
        "u"
      ],
      [
        "Ġinst",
        "ead"
      ],
      [
        "pp",
        "er"
      ],
      [
        "Ġeff",
        "ic"
      ],
      [
        "Ġbu",
        "ilt"
      ],
      [
        "Ġn",
        "orm"
      ],
      [
        "ud",
        "e"
      ],
      [
        "Ġneed",
        "s"
      ],
      [
        "ren",
        "ch"
      ],
      [
        "Ġn",
        "ature"
      ],
      [
        "Ġoff",
        "er"
      ],
      [
        "ĠWh",
        "ile"
      ],
      [
        "et",
        "y"
      ],
      [
        "arg",
        "uments"
      ],
      [
        "ri",
        "ed"
      ],
      [
        "Ġbuild",
        "ing"
      ],
      [
        "Ġp",
        "ain"
      ],
      [
        "gor",
        "ith"
      ],
      [
        "Ġprov",
        "ided"
      ],
      [
        "Ġw",
        "on"
      ],
      [
        "Ġn",
        "amed"
      ],
      [
        "Ġgroup",
        "s"
      ],
      [
        "ie",
        "f"
      ],
      [
        "Ġt",
        "akes"
      ],
      [
        "s",
        "u"
      ],
      [
        "op",
        "h"
      ],
      [
        "Ġb",
        "all"
      ],
      [
        "Ġst",
        "yle"
      ],
      [
        "Ġo",
        "pp"
      ],
      [
        "Ġcons",
        "ist"
      ],
      [
        "ain",
        "ed"
      ],
      [
        "Ġsim",
        "ple"
      ],
      [
        "id",
        "s"
      ],
      [
        "Ġdec",
        "ision"
      ],
      [
        "ag",
        "on"
      ],
      [
        "ww",
        "w"
      ],
      [
        "ru",
        "ction"
      ],
      [
        "ĠN",
        "orth"
      ],
      [
        "Ġequ",
        "al"
      ],
      [
        "g",
        "es"
      ],
      [
        "Ġchild",
        "ren"
      ],
      [
        "ic",
        "ult"
      ],
      [
        "Ġse",
        "par"
      ],
      [
        "i",
        "ents"
      ],
      [
        "ĠâĢ",
        "ľ"
      ],
      [
        "ol",
        "l"
      ],
      [
        "Ġr",
        "out"
      ],
      [
        "iet",
        "y"
      ],
      [
        "a",
        "ur"
      ],
      [
        "av",
        "ing"
      ],
      [
        "Ġp",
        "ub"
      ],
      [
        "read",
        "y"
      ],
      [
        "led",
        "ge"
      ],
      [
        "ific",
        "ation"
      ],
      [
        "Ġt",
        "aking"
      ],
      [
        "Ġvide",
        "o"
      ],
      [
        "Ġe",
        "ither"
      ],
      [
        "ĠM",
        "on"
      ],
      [
        "Ġ",
        "ur"
      ],
      [
        "at",
        "ter"
      ],
      [
        "Ġe",
        "conom"
      ],
      [
        "Ġfollow",
        "s"
      ],
      [
        "Ġc",
        "ame"
      ],
      [
        "Ġn",
        "orth"
      ],
      [
        "Ġm",
        "or"
      ],
      [
        "Ġp",
        "ie"
      ],
      [
        "n",
        "al"
      ],
      [
        "Ġhe",
        "av"
      ],
      [
        "Ġtrans",
        "form"
      ],
      [
        "Ġproper",
        "ties"
      ],
      [
        "Ġact",
        "iv"
      ],
      [
        "Ġpop",
        "ular"
      ],
      [
        "ro",
        "wn"
      ],
      [
        "Ġhist",
        "or"
      ],
      [
        "Ġconc",
        "ern"
      ],
      [
        "Ġs",
        "ort"
      ],
      [
        "Ġse",
        "arch"
      ],
      [
        "Ġin",
        "n"
      ],
      [
        "f",
        "ield"
      ],
      [
        "if",
        "t"
      ],
      [
        "Ġlear",
        "ning"
      ],
      [
        "st",
        "it"
      ],
      [
        "a",
        "ff"
      ],
      [
        "Ġsk",
        "ills"
      ],
      [
        "Ġprov",
        "ides"
      ],
      [
        "Ġb",
        "alance"
      ],
      [
        "[",
        "\""
      ],
      [
        "im",
        "ent"
      ],
      [
        "ĠA",
        "m"
      ],
      [
        "d",
        "om"
      ],
      [
        "Ġd",
        "r"
      ],
      [
        "Ġh",
        "alf"
      ],
      [
        "Ġover",
        "all"
      ],
      [
        "Ġf",
        "ull"
      ],
      [
        "ĠV",
        "al"
      ],
      [
        "Ġse",
        "em"
      ],
      [
        "Ġval",
        "id"
      ],
      [
        "Ġf",
        "ac"
      ],
      [
        "n",
        "a"
      ],
      [
        "Ġr",
        "ate"
      ],
      [
        "Ġge",
        "omet"
      ],
      [
        "Ġb",
        "ring"
      ],
      [
        "re",
        "g"
      ],
      [
        "I",
        "m"
      ],
      [
        "Ġsequ",
        "ence"
      ],
      [
        "ĠEng",
        "lish"
      ],
      [
        "m",
        "ore"
      ],
      [
        "Ġb",
        "ound"
      ],
      [
        "Ġh",
        "ar"
      ],
      [
        "Ġcon",
        "vers"
      ],
      [
        "b",
        "l"
      ],
      [
        "ab",
        "ly"
      ],
      [
        ")",
        "^"
      ],
      [
        "Ġf",
        "uture"
      ],
      [
        "Ġits",
        "elf"
      ],
      [
        "Ġwrit",
        "ten"
      ],
      [
        "Ġexper",
        "t"
      ],
      [
        "ĠCh",
        "rist"
      ],
      [
        "Ġpur",
        "pose"
      ],
      [
        "Ġpr",
        "im"
      ],
      [
        "Ġj",
        "o"
      ],
      [
        "Ġtool",
        "s"
      ],
      [
        "p",
        "ite"
      ],
      [
        "ut",
        "es"
      ],
      [
        "Ġent",
        "ire"
      ],
      [
        "ĠP",
        "er"
      ],
      [
        "ĠE",
        "ar"
      ],
      [
        "Ġrequ",
        "ire"
      ],
      [
        "Ġdetail",
        "s"
      ],
      [
        "ĠD",
        "es"
      ],
      [
        "Ġpol",
        "it"
      ],
      [
        "ĠS",
        "outh"
      ],
      [
        "Ġconne",
        "ction"
      ],
      [
        "um",
        "b"
      ],
      [
        "Ġass",
        "oc"
      ],
      [
        "Ġreturn",
        "s"
      ],
      [
        "Ġt",
        "our"
      ],
      [
        "Ġp",
        "air"
      ],
      [
        "y",
        "pe"
      ],
      [
        "pr",
        "il"
      ],
      [
        "Ġavail",
        "able"
      ],
      [
        "Ġal",
        "ready"
      ],
      [
        "E",
        "N"
      ],
      [
        "e",
        "y"
      ],
      [
        "Ġro",
        "om"
      ],
      [
        "ĠOct",
        "ober"
      ],
      [
        "ĠG",
        "u"
      ],
      [
        "is",
        "f"
      ],
      [
        "re",
        "en"
      ],
      [
        "ffic",
        "ient"
      ],
      [
        "amet",
        "er"
      ],
      [
        "Ġon",
        "ce"
      ],
      [
        "Ġdra",
        "w"
      ],
      [
        "b",
        "ol"
      ],
      [
        "dition",
        "al"
      ],
      [
        "Ġ",
        "ri"
      ],
      [
        "ir",
        "t"
      ],
      [
        "Ġdiff",
        "icult"
      ],
      [
        "ĠH",
        "is"
      ],
      [
        "Ġun",
        "c"
      ],
      [
        "g",
        "round"
      ],
      [
        "Ġcont",
        "ribut"
      ],
      [
        "end",
        "s"
      ],
      [
        "Ġs",
        "ens"
      ],
      [
        "Ġparticular",
        "ly"
      ],
      [
        "Ġfe",
        "ed"
      ],
      [
        "Ġiss",
        "ues"
      ],
      [
        "Ġst",
        "ore"
      ],
      [
        "Ġa",
        "ctions"
      ],
      [
        "Ġas",
        "pect"
      ],
      [
        "s",
        "um"
      ],
      [
        "Ġph",
        "r"
      ],
      [
        "Ġchalleng",
        "es"
      ],
      [
        "dition",
        "ally"
      ],
      [
        "Ġl",
        "ay"
      ],
      [
        "Ġnarr",
        "ative"
      ],
      [
        "ĠJ",
        "une"
      ],
      [
        "Ġdiffere",
        "nce"
      ],
      [
        "Ġad",
        "j"
      ],
      [
        "Ġmess",
        "age"
      ],
      [
        "Ġrequ",
        "est"
      ],
      [
        "Ġg",
        "ames"
      ],
      [
        "Ġgo",
        "als"
      ],
      [
        "Ġpl",
        "at"
      ],
      [
        "s",
        "ub"
      ],
      [
        "ist",
        "ics"
      ],
      [
        "b",
        "ra"
      ],
      [
        "Ġav",
        "oid"
      ],
      [
        "Ġcoll",
        "abor"
      ],
      [
        "Ġplay",
        "er"
      ],
      [
        "ut",
        "ions"
      ],
      [
        "Ġd",
        "ou"
      ],
      [
        "one",
        "y"
      ],
      [
        "Ġcour",
        "se"
      ],
      [
        "Ġ\\",
        ")"
      ],
      [
        "Ġal",
        "gorith"
      ],
      [
        "Ġinc",
        "orpor"
      ],
      [
        "l",
        "ation"
      ],
      [
        "Ġexperi",
        "ences"
      ],
      [
        "Ġlit",
        "tle"
      ],
      [
        "Ġsqu",
        "are"
      ],
      [
        "ab",
        "el"
      ],
      [
        "i",
        "ated"
      ],
      [
        "ĠM",
        "c"
      ],
      [
        "ove",
        "mber"
      ],
      [
        "in",
        "ct"
      ],
      [
        "Ġser",
        "v"
      ],
      [
        "Ġincre",
        "ase"
      ],
      [
        "c",
        "ast"
      ],
      [
        "Ġs",
        "old"
      ],
      [
        "Ġdescrib",
        "ed"
      ],
      [
        "]",
        ")"
      ],
      [
        "g",
        "er"
      ],
      [
        "Ġcommun",
        "ic"
      ],
      [
        "am",
        "ent"
      ],
      [
        "ro",
        "te"
      ],
      [
        "Ġhow",
        "ever"
      ],
      [
        "ra",
        "w"
      ],
      [
        "Ġf",
        "requ"
      ],
      [
        "Ġd",
        "en"
      ],
      [
        "Ġnecess",
        "ary"
      ],
      [
        "yn",
        "am"
      ],
      [
        "ĠN",
        "o"
      ],
      [
        "Ġplay",
        "ed"
      ],
      [
        "Ġp",
        "ay"
      ],
      [
        "ove",
        "red"
      ],
      [
        "Ġd",
        "oc"
      ],
      [
        "A",
        "N"
      ],
      [
        "Ġl",
        "ower"
      ],
      [
        "Ġk",
        "ind"
      ],
      [
        "ĠJu",
        "ly"
      ],
      [
        "Ġ\\",
        "["
      ],
      [
        "Ġus",
        "es"
      ],
      [
        "ĠE",
        "d"
      ],
      [
        "Ġprodu",
        "ction"
      ],
      [
        "Ġform",
        "er"
      ],
      [
        "ĠF",
        "l"
      ],
      [
        "ur",
        "s"
      ],
      [
        "R",
        "E"
      ],
      [
        "Ġbehav",
        "ior"
      ],
      [
        "Ġim",
        "m"
      ],
      [
        "oun",
        "ter"
      ],
      [
        "Ġre",
        "ason"
      ],
      [
        "Ġd",
        "am"
      ],
      [
        "it",
        "ch"
      ],
      [
        "Ġsent",
        "ences"
      ],
      [
        "Ġfe",
        "ature"
      ],
      [
        "Ġm",
        "iss"
      ],
      [
        "Ġar",
        "r"
      ],
      [
        "Ġlik",
        "ely"
      ],
      [
        "m",
        "ar"
      ],
      [
        "qu",
        "e"
      ],
      [
        "is",
        "ions"
      ],
      [
        "ĠI",
        "m"
      ],
      [
        "w",
        "h"
      ],
      [
        "Ġab",
        "s"
      ],
      [
        "Ġaff",
        "ect"
      ],
      [
        "ĠS",
        "u"
      ],
      [
        "o",
        "or"
      ],
      [
        "Ġâ",
        "Ī"
      ],
      [
        "Ġw",
        "est"
      ],
      [
        "Ġ",
        "ill"
      ],
      [
        "Ġsub",
        "ject"
      ],
      [
        "Ġcalcul",
        "ate"
      ],
      [
        "Ġs",
        "ales"
      ],
      [
        "ĠM",
        "arch"
      ],
      [
        "ĠA",
        "pril"
      ],
      [
        "or",
        "g"
      ],
      [
        "ĠM",
        "an"
      ],
      [
        "Ġex",
        "cept"
      ],
      [
        "W",
        "hen"
      ],
      [
        "Ġst",
        "ay"
      ],
      [
        "Ġaddition",
        "al"
      ],
      [
        "av",
        "es"
      ],
      [
        "Ġc",
        "y"
      ],
      [
        "Ġh",
        "ard"
      ],
      [
        "Ġor",
        "d"
      ],
      [
        "Ġcomp",
        "et"
      ],
      [
        "Ġsuccess",
        "ful"
      ],
      [
        "Ġpro",
        "pos"
      ],
      [
        "ers",
        "on"
      ],
      [
        "Ġdeterm",
        "ine"
      ],
      [
        "ce",
        "mber"
      ],
      [
        "Ġ",
        "__"
      ],
      [
        "rid",
        "ge"
      ],
      [
        "The",
        "re"
      ],
      [
        "Ġeng",
        "ine"
      ],
      [
        "Ġvis",
        "it"
      ],
      [
        "Ġind",
        "epend"
      ],
      [
        "L",
        "et"
      ],
      [
        "ra",
        "d"
      ],
      [
        "ĠF",
        "rench"
      ],
      [
        "Ġinteg",
        "er"
      ],
      [
        "ĠN",
        "ational"
      ],
      [
        "Ġreg",
        "ular"
      ],
      [
        "####",
        "####"
      ],
      [
        "anu",
        "ary"
      ],
      [
        "es",
        "e"
      ],
      [
        "p",
        "y"
      ],
      [
        "ĠN",
        "ovember"
      ],
      [
        "Ġbeh",
        "ind"
      ],
      [
        "Ġv",
        "oice"
      ],
      [
        "Ġstru",
        "gg"
      ],
      [
        "ac",
        "hes"
      ],
      [
        "Ġse",
        "cre"
      ],
      [
        "ĠR",
        "es"
      ],
      [
        "ĠĠĠĠĠĠĠĠĠĠĠĠĠĠĠĠ",
        "ĠĠĠĠĠĠĠĠĠĠĠĠĠĠĠĠ"
      ],
      [
        "m",
        "ost"
      ],
      [
        "c",
        "her"
      ],
      [
        "Ġre",
        "d"
      ],
      [
        "Ġcl",
        "os"
      ],
      [
        "ur",
        "ch"
      ],
      [
        "Ġ<",
        "/"
      ],
      [
        "Ġass",
        "um"
      ],
      [
        "pecial",
        "ly"
      ],
      [
        "ell",
        "s"
      ],
      [
        "Ġm",
        "yst"
      ],
      [
        "Ġlead",
        "ing"
      ],
      [
        "Ġ/",
        "/"
      ],
      [
        "Ġw",
        "rote"
      ],
      [
        "Ġde",
        "g"
      ],
      [
        "re",
        "t"
      ],
      [
        "Ġfor",
        "ce"
      ],
      [
        "Ġadd",
        "ed"
      ],
      [
        "ĠS",
        "ince"
      ],
      [
        "Ġinst",
        "ance"
      ],
      [
        "it",
        "ary"
      ],
      [
        "Ġth",
        "ings"
      ],
      [
        "Ġpl",
        "ot"
      ],
      [
        "Ġd",
        "iction"
      ],
      [
        "Ġw",
        "id"
      ],
      [
        "Ġl",
        "ate"
      ],
      [
        "Ġaud",
        "ience"
      ],
      [
        "Ġex",
        "act"
      ],
      [
        "Ġstate",
        "ment"
      ],
      [
        "a",
        "i"
      ],
      [
        "L",
        "E"
      ],
      [
        "Ġra",
        "ise"
      ],
      [
        "Ġcond",
        "itions"
      ],
      [
        "pp",
        "ing"
      ],
      [
        "Ġhig",
        "her"
      ],
      [
        "Ġwrit",
        "e"
      ],
      [
        "Ġvis",
        "ual"
      ],
      [
        "Ġm",
        "ix"
      ],
      [
        "Ġf",
        "ig"
      ],
      [
        "ĠL",
        "et"
      ],
      [
        "in",
        "c"
      ],
      [
        "clus",
        "ion"
      ],
      [
        "Ġev",
        "idence"
      ],
      [
        "Ġrec",
        "ogn"
      ],
      [
        "Ġg",
        "round"
      ],
      [
        "un",
[...]
